<unk>	0
<s>	0
</s>	0
▁t	-0
▁th	-1
▁a	-2
in	-3
▁w	-4
▁the	-5
re	-6
▁o	-7
▁s	-8
at	-9
er	-10
nd	-11
ou	-12
is	-13
▁c	-14
it	-15
▁b	-16
ing	-17
▁h	-18
en	-19
▁m	-20
on	-21
▁to	-22
▁p	-23
an	-24
▁f	-25
es	-26
al	-27
▁d	-28
▁of	-29
or	-30
▁in	-31
▁I	-32
ed	-33
▁l	-34
▁and	-35
ar	-36
▁y	-37
▁that	-38
om	-39
▁g	-40
as	-41
ic	-42
le	-43
▁you	-44
ll	-45
ve	-46
▁A	-47
▁n	-48
▁we	-49
▁wh	-50
ow	-51
▁is	-52
▁it	-53
ly	-54
us	-55
▁e	-56
ut	-57
▁be	-58
ion	-59
ot	-60
et	-61
▁T	-62
ent	-63
▁on	-64
ct	-65
▁ha	-66
▁re	-67
▁And	-68
ld	-69
ver	-70
ay	-71
id	-72
▁Th	-73
se	-74
▁this	-75
im	-76
▁S	-77
st	-78
ig	-79
ro	-80
ere	-81
ch	-82
ur	-83
▁st	-84
ke	-85
ce	-86
▁-	-87
▁--	-88
if	-89
▁for	-90
▁was	-91
ra	-92
▁W	-93
▁do	-94
ir	-95
▁an	-96
th	-97
oo	-98
ally	-99
ith	-100
▁are	-101
op	-102
am	-103
▁have	-104
▁ab	-105
▁k	-106
▁with	-107
▁u	-108
▁se	-109
▁they	-110
▁can	-111
ol	-112
ht	-113
▁B	-114
out	-115
ation	-116
▁mo	-117
▁as	-118
▁go	-119
▁So	-120
▁what	-121
very	-122
▁he	-123
▁li	-124
▁wor	-125
▁com	-126
ad	-127
▁sh	-128
▁at	-129
▁about	-130
ill	-131
ould	-132
il	-133
ul	-134
ant	-135
▁ne	-136
▁me	-137
ge	-138
ter	-139
▁not	-140
▁so	-141
▁all	-142
ust	-143
▁The	-144
▁fr	-145
▁j	-146
▁ex	-147
ers	-148
▁ch	-149
▁"	-150
use	-151
▁som	-152
▁pro	-153
ight	-154
▁r	-155
▁there	-156
▁de	-157
ure	-158
▁or	-159
ear	-160
um	-161
art	-162
pp	-163
ck	-164
▁pe	-165
▁my	-166
ess	-167
▁one	-168
▁It	-169
▁con	-170
▁We	-171
ople	-172
▁like	-173
▁kn	-174
ate	-175
▁N	-176
ist	-177
est	-178
ive	-179
▁from	-180
▁ma	-181
ity	-182
▁people	-183
ind	-184
ies	-185
nt	-186
ble	-187
ca	-188
▁know	-189
▁out	-190
qu	-191
▁H	-192
ink	-193
ect	-194
▁int	-195
▁thing	-196
all	-197
▁M	-198
ook	-199
▁te	-200
rou	-201
un	-202
▁v	-203
▁C	-204
▁just	-205
▁al	-206
▁but	-207
▁us	-208
▁our	-209
ide	-210
▁very	-211
▁sp	-212
and	-213
cause	-214
os	-215
▁see	-216
ie	-217
▁up	-218
▁But	-219
ich	-220
ort	-221
▁them	-222
▁these	-223
▁if	-224
▁get	-225
▁think	-226
▁tr	-227
her	-228
▁pl	-229
▁going	-230
▁1	-231
og	-232
▁who	-233
ci	-234
▁Y	-235
el	-236
ain	-237
▁act	-238
▁by	-239
▁some	-240
one	-241
em	-242
▁sa	-243
▁year	-244
iv	-245
▁had	-246
▁when	-247
▁because	-248
ine	-249
▁your	-250
▁which	-251
00	-252
od	-253
our	-254
▁more	-255
▁tim	-256
."	-257
▁im	-258
▁really	-259
ast	-260
▁would	-261
ment	-262
alk	-263
▁how	-264
▁look	-265
▁want	-266
▁comp	-267
ually	-268
ap	-269
▁were	-270
▁O	-271
ard	-272
ame	-273
▁su	-274
ood	-275
gh	-276
ack	-277
ous	-278
▁here	-279
reat	-280
▁work	-281
▁E	-282
▁way	-283
▁ta	-284
▁Wh	-285
▁their	-286
iz	-287
▁en	-288
hing	-289
▁world	-290
act	-291
▁This	-292
▁then	-293
ab	-294
▁P	-295
▁You	-296
▁le	-297
▁D	-298
▁time	-299
res	-300
ther	-301
▁has	-302
ose	-303
ans	-304
▁say	-305
ild	-306
▁actually	-307
ong	-308
▁don	-309
red	-310
ag	-311
▁into	-312
ence	-313
itt	-314
▁every	-315
▁exp	-316
▁things	-317
▁per	-318
▁qu	-319
ace	-320
▁G	-321
▁fe	-322
▁will	-323
▁L	-324
▁could	-325
▁ev	-326
▁now	-327
▁years	-328
ud	-329
▁where	-330
age	-331
ions	-332
▁man	-333
▁other	-334
▁did	-335
▁ag	-336
ore	-337
ff	-338
▁somet	-339
ach	-340
ond	-341
olog	-342
▁happ	-343
▁F	-344
iff	-345
▁Now	-346
are	-347
▁no	-348
▁make	-349
▁said	-350
▁any	-351
▁They	-352
▁In	-353
ign	-354
ical	-355
▁R	-356
▁tw	-357
▁been	-358
▁♫	-359
ice	-360
com	-361
▁diff	-362
ia	-363
so	-364
ip	-365
▁cl	-366
▁un	-367
own	-368
ry	-369
▁start	-370
irst	-371
▁2	-372
▁than	-373
▁need	-374
▁something	-375
ory	-376
ree	-377
ife	-378
▁kind	-379
▁ar	-380
▁got	-381
▁bu	-382
▁right	-383
▁over	-384
ittle	-385
▁part	-386
▁pr	-387
▁back	-388
▁imp	-389
▁little	-390
ell	-391
▁po	-392
▁two	-393
uch	-394
pt	-395
ite	-396
round	-397
▁call	-398
ib	-399
▁dis	-400
ass	-401
▁much	-402
▁talk	-403
ount	-404
▁first	-405
ang	-406
orm	-407
ult	-408
ater	-409
ens	-410
sel	-411
▁differe	-412
▁lot	-413
▁new	-414
ep	-415
nder	-416
ound	-417
ple	-418
▁ro	-419
ue	-420
ght	-421
▁des	-422
▁J	-423
ac	-424
way	-425
▁those	-426
▁also	-427
▁his	-428
▁cont	-429
ody	-430
▁That	-431
▁life	-432
vel	-433
▁spe	-434
▁she	-435
▁lo	-436
ving	-437
king	-438
cent	-439
ves	-440
ob	-441
▁under	-442
▁ac	-443
▁ph	-444
▁most	-445
▁sy	-446
rain	-447
▁bet	-448
ated	-449
able	-450
ish	-451
ms	-452
▁ad	-453
▁co	-454
▁only	-455
ick	-456
other	-457
ber	-458
▁res	-459
ial	-460
ph	-461
▁take	-462
ations	-463
chn	-464
rough	-465
▁am	-466
pl	-467
▁day	-468
int	-469
uct	-470
▁hum	-471
▁show	-472
▁her	-473
▁good	-474
▁bl	-475
▁down	-476
ology	-477
▁different	-478
▁There	-479
▁ide	-480
▁even	-481
▁put	-482
▁does	-483
ase	-484
ict	-485
ire	-486
▁through	-487
▁around	-488
ance	-489
ning	-490
▁He	-491
▁many	-492
▁real	-493
▁pre	-494
▁What	-495
pe	-496
ak	-497
ange	-498
he	-499
ents	-500
ary	-501
te	-502
ark	-503
ric	-504
cess	-505
▁tell	-506
▁off	-507
▁being	-508
▁U	-509
▁use	-510
▁comm	-511
ible	-512
ert	-513
ank	-514
ject	-515
ade	-516
ne	-517
form	-518
ars	-519
▁thou	-520
▁happen	-521
ath	-522
▁too	-523
ors	-524
▁doing	-525
▁proble	-526
uc	-527
▁try	-528
▁br	-529
ww	-530
▁come	-531
xt	-532
▁em	-533
ful	-534
▁same	-535
wn	-536
ys	-537
ual	-538
▁fl	-539
iver	-540
ress	-541
▁big	-542
▁sm	-543
▁sc	-544
▁gen	-545
ically	-546
stem	-547
row	-548
urn	-549
▁fact	-550
ics	-551
▁three	-552
▁techn	-553
day	-554
tern	-555
tt	-556
▁Ch	-557
▁great	-558
ool	-559
ether	-560
▁wr	-561
lect	-562
ting	-563
▁child	-564
▁may	-565
▁If	-566
▁pers	-567
ower	-568
▁K	-569
▁count	-570
▁sur	-571
thing	-572
▁str	-573
illion	-574
ile	-575
ved	-576
ome	-577
body	-578
▁build	-579
ons	-580
▁ra	-581
▁human	-582
▁well	-583
▁find	-584
per	-585
▁called	-586
▁system	-587
▁inc	-588
we	-589
ces	-590
ious	-591
ied	-592
ord	-593
▁sim	-594
self	-595
▁gu	-596
be	-597
▁tra	-598
olut	-599
fter	-600
fore	-601
ren	-602
▁long	-603
ian	-604
▁fo	-605
▁again	-606
igh	-607
▁let	-608
▁made	-609
▁percent	-610
▁app	-611
av	-612
▁inv	-613
ating	-614
▁design	-615
▁dec	-616
cial	-617
ition	-618
▁ind	-619
▁Well	-620
erest	-621
▁stud	-622
▁quest	-623
▁own	-624
ize	-625
mer	-626
▁why	-627
les	-628
▁sec	-629
ft	-630
▁end	-631
▁bas	-632
▁bel	-633
▁lear	-634
▁underst	-635
▁should	-636
oss	-637
▁rem	-638
▁import	-639
▁Be	-640
▁play	-641
ew	-642
▁mean	-643
▁feel	-644
▁thought	-645
ates	-646
▁dr	-647
▁last	-648
000	-649
?"	-650
▁change	-651
▁person	-652
▁interest	-653
▁cour	-654
▁creat	-655
▁idea	-656
ted	-657
▁ob	-658
ub	-659
con	-660
▁col	-661
▁after	-662
▁went	-663
▁didn	-664
▁wom	-665
ull	-666
▁car	-667
▁3	-668
▁gl	-669
▁rel	-670
▁sort	-671
ise	-672
ough	-673
▁its	-674
ities	-675
▁important	-676
als	-677
▁sci	-678
▁hel	-679
▁today	-680
ility	-681
,000	-682
▁ask	-683
▁exper	-684
▁inst	-685
▁brain	-686
gan	-687
▁trans	-688
▁turn	-689
▁ins	-690
▁course	-691
▁give	-692
▁started	-693
▁understand	-694
▁story	-695
ese	-696
▁him	-697
ost	-698
ail	-699
ven	-700
▁exam	-701
▁another	-702
▁St	-703
▁bit	-704
▁sch	-705
▁art	-706
old	-707
▁Af	-708
▁point	-709
▁prod	-710
kes	-711
▁before	-712
▁gra	-713
▁ent	-714
▁plan	-715
▁power	-716
iness	-717
ular	-718
ily	-719
▁problem	-720
erg	-721
ix	-722
ave	-723
ros	-724
▁sl	-725
▁never	-726
▁cr	-727
velop	-728
▁better	-729
ists	-730
▁Thank	-731
▁ke	-732
▁10	-733
▁19	-734
..	-735
nds	-736
▁able	-737
▁help	-738
ense	-739
▁belie	-740
oth	-741
alth	-742
▁bo	-743
▁pat	-744
▁might	-745
▁inter	-746
▁came	-747
▁next	-748
▁kid	-749
▁ago	-750
▁cons	-751
und	-752
▁becom	-753
▁few	-754
lic	-755
ward	-756
▁water	-757
▁school	-758
▁found	-759
▁mon	-760
▁fam	-761
ather	-762
ature	-763
▁tog	-764
▁imag	-765
▁together	-766
▁mod	-767
co	-768
▁stu	-769
▁each	-770
▁still	-771
▁place	-772
▁comple	-773
▁pol	-774
read	-775
▁high	-776
ween	-777
▁technology	-778
▁comput	-779
▁Because	-780
▁ext	-781
▁develop	-782
ram	-783
ng	-784
ience	-785
ited	-786
▁ser	-787
iss	-788
▁Afric	-789
,"	-790
▁small	-791
▁min	-792
▁light	-793
cy	-794
▁whole	-795
ah	-796
▁V	-797
▁commun	-798
▁num	-799
ork	-800
▁used	-801
atch	-802
▁between	-803
▁learn	-804
▁done	-805
ness	-806
ata	-807
ific	-808
ized	-809
▁med	-810
▁question	-811
cept	-812
az	-813
alks	-814
▁20	-815
ways	-816
▁cre	-817
meric	-818
▁How	-819
▁old	-820
▁four	-821
▁When	-822
▁looking	-823
▁ter	-824
▁love	-825
▁grow	-826
▁fin	-827
ings	-828
▁children	-829
olution	-830
ably	-831
ered	-832
ures	-833
▁5	-834
▁cell	-835
▁mus	-836
▁cent	-837
▁read	-838
▁bi	-839
▁doesn	-840
▁second	-841
▁example	-842
▁expl	-843
ote	-844
▁move	-845
ger	-846
ative	-847
▁Americ	-848
ues	-849
arch	-850
▁million	-851
oney	-852
oc	-853
ale	-854
▁book	-855
conom	-856
▁op	-857
▁att	-858
ets	-859
ural	-860
ird	-861
▁ear	-862
▁met	-863
ug	-864
▁data	-865
▁wanted	-866
▁la	-867
▁partic	-868
▁sk	-869
▁eff	-870
▁word	-871
ross	-872
ertain	-873
▁el	-874
▁far	-875
selves	-876
▁mom	-877
formation	-878
ml	-879
here	-880
gin	-881
ope	-882
▁care	-883
▁bus	-884
ract	-885
▁away	-886
▁always	-887
▁poss	-888
▁beh	-889
▁gener	-890
//	-891
://	-892
www	-893
talks	-894
▁project	-895
cer	-896
▁trying	-897
ttp	-898
▁http	-899
html	-900
▁ed	-901
▁lar	-902
▁reas	-903
▁hard	-904
▁working	-905
▁giv	-906
ock	-907
▁rec	-908
▁sub	-909
▁pict	-910
ational	-911
ED	-912
▁4	-913
ands	-914
▁Ind	-915
▁supp	-916
nce	-917
▁anim	-918
▁ever	-919
▁less	-920
▁money	-921
▁live	-922
▁doll	-923
▁vis	-924
▁believe	-925
▁women	-926
obal	-927
▁cap	-928
ments	-929
ism	-930
▁five	-931
ps	-932
▁econom	-933
▁chang	-934
▁rep	-935
▁space	-936
▁stuff	-937
aut	-938
ont	-939
▁Un	-940
▁everything	-941
iron	-942
nect	-943
▁health	-944
ergy	-945
vers	-946
▁cor	-947
ries	-948
▁inf	-949
▁mind	-950
▁fun	-951
▁run	-952
▁country	-953
▁prob	-954
uture	-955
▁took	-956
aces	-957
▁One	-958
▁kids	-959
atter	-960
▁food	-961
▁using	-962
▁form	-963
alf	-964
▁teach	-965
▁As	-966
▁thinking	-967
▁interesting	-968
air	-969
▁cou	-970
▁hand	-971
oy	-972
▁organ	-973
▁Africa	-974
▁maybe	-975
▁information	-976
rib	-977
▁says	-978
▁create	-979
led	-980
▁TED	-981
▁pres	-982
▁resp	-983
▁enough	-984
▁process	-985
pr	-986
▁left	-987
▁head	-988
▁quite	-989
▁comes	-990
its	-991
▁sing	-992
ines	-993
▁war	-994
▁These	-995
▁sense	-996
iew	-997
ogra	-998
▁open	-999
hip	-1000
ention	-1001
ks	-1002
lear	-1003
▁getting	-1004
ital	-1005
▁building	-1006
▁univer	-1007
▁spec	-1008
reen	-1009
▁means	-1010
▁future	-1011
ulture	-1012
▁energy	-1013
▁dem	-1014
cus	-1015
ten	-1016
▁eng	-1017
▁Here	-1018
▁elect	-1019
ever	-1020
▁reg	-1021
ouse	-1022
▁best	-1023
▁begin	-1024
▁happened	-1025
▁ca	-1026
▁sol	-1027
▁grou	-1028
▁wond	-1029
▁become	-1030
ier	-1031
▁probably	-1032
▁beaut	-1033
sw	-1034
▁She	-1035
ner	-1036
▁conf	-1037
▁home	-1038
▁frie	-1039
▁number	-1040
▁dollars	-1041
▁An	-1042
▁making	-1043
▁gr	-1044
▁prog	-1045
▁business	-1046
▁pie	-1047
tty	-1048
viron	-1049
▁compan	-1050
▁lead	-1051
▁talking	-1052
▁month	-1053
man	-1054
▁My	-1055
▁room	-1056
▁mark	-1057
me	-1058
vern	-1059
ories	-1060
▁pub	-1061
▁times	-1062
iting	-1063
▁Is	-1064
ient	-1065
▁connect	-1066
▁else	-1067
▁set	-1068
▁answ	-1069
▁air	-1070
ident	-1071
▁coming	-1072
▁hist	-1073
▁pretty	-1074
▁side	-1075
▁anything	-1076
imate	-1077
str	-1078
▁cur	-1079
▁200	-1080
▁pop	-1081
▁sign	-1082
▁product	-1083
idd	-1084
▁half	-1085
▁body	-1086
▁walk	-1087
▁char	-1088
▁dist	-1089
▁keep	-1090
▁simple	-1091
▁without	-1092
▁def	-1093
ins	-1094
▁add	-1095
▁red	-1096
▁minut	-1097
▁makes	-1098
ake	-1099
arth	-1100
▁iss	-1101
▁contro	-1102
▁social	-1103
▁fig	-1104
▁science	-1105
ety	-1106
ering	-1107
▁goes	-1108
lf	-1109
ograph	-1110
ash	-1111
ots	-1112
▁music	-1113
gest	-1114
▁bring	-1115
io	-1116
▁govern	-1117
ced	-1118
▁basically	-1119
ts	-1120
▁phot	-1121
imes	-1122
▁moment	-1123
angu	-1124
▁allow	-1125
▁wee	-1126
▁seen	-1127
▁phys	-1128
▁environ	-1129
med	-1130
▁model	-1131
▁across	-1132
▁such	-1133
▁val	-1134
▁bad	-1135
▁top	-1136
▁New	-1137
▁pass	-1138
▁reason	-1139
▁countries	-1140
▁saw	-1141
ior	-1142
▁opp	-1143
▁sound	-1144
▁stand	-1145
ortun	-1146
▁happens	-1147
ken	-1148
▁lives	-1149
▁planet	-1150
▁cam	-1151
▁hope	-1152
ember	-1153
▁ways	-1154
uring	-1155
▁Earth	-1156
▁matter	-1157
ince	-1158
▁picture	-1159
ices	-1160
iter	-1161
▁ord	-1162
▁educ	-1163
▁ey	-1164
▁case	-1165
ina	-1166
▁Se	-1167
▁six	-1168
▁told	-1169
▁ty	-1170
irl	-1171
▁acc	-1172
▁computer	-1173
▁living	-1174
llow	-1175
▁mach	-1176
▁bre	-1177
ott	-1178
▁OK	-1179
▁For	-1180
where	-1181
▁particular	-1182
ike	-1183
▁ideas	-1184
ty	-1185
▁langu	-1186
▁problems	-1187
ided	-1188
▁rese	-1189
▁having	-1190
ction	-1191
▁young	-1192
▁No	-1193
most	-1194
▁sit	-1195
▁days	-1196
▁stop	-1197
▁scient	-1198
▁level	-1199
▁experience	-1200
ying	-1201
▁prot	-1202
▁job	-1203
▁list	-1204
ead	-1205
ulation	-1206
▁Al	-1207
ime	-1208
▁hour	-1209
▁family	-1210
▁eas	-1211
kay	-1212
▁soci	-1213
ization	-1214
▁det	-1215
▁vide	-1216
▁All	-1217
▁Let	-1218
ught	-1219
▁aut	-1220
▁mor	-1221
aterial	-1222
▁self	-1223
▁inside	-1224
▁certain	-1225
▁billion	-1226
aps	-1227
uck	-1228
▁asked	-1229
▁later	-1230
▁research	-1231
arr	-1232
eng	-1233
ilt	-1234
▁wonder	-1235
ality	-1236
▁looks	-1237
▁saying	-1238
ling	-1239
▁both	-1240
▁global	-1241
▁single	-1242
▁effect	-1243
▁complete	-1244
▁environment	-1245
▁incred	-1246
uce	-1247
▁contin	-1248
orn	-1249
unch	-1250
▁thous	-1251
▁par	-1252
▁amaz	-1253
...	-1254
▁hear	-1255
▁disco	-1256
itive	-1257
▁equ	-1258
br	-1259
ov	-1260
ivity	-1261
hat	-1262
▁guy	-1263
iful	-1264
▁che	-1265
▁6	-1266
▁fil	-1267
▁heart	-1268
▁history	-1269
▁yet	-1270
ream	-1271
▁wrong	-1272
▁almost	-1273
de	-1274
▁mil	-1275
▁suc	-1276
▁prof	-1277
▁possible	-1278
▁mag	-1279
▁15	-1280
▁sw	-1281
▁vir	-1282
▁figure	-1283
osed	-1284
▁ref	-1285
the	-1286
uge	-1287
side	-1288
▁once	-1289
▁'	-1290
ex	-1291
to	-1292
lish	-1293
▁watch	-1294
▁dev	-1295
▁news	-1296
▁test	-1297
less	-1298
▁while	-1299
▁material	-1300
ants	-1301
ury	-1302
ages	-1303
▁looked	-1304
▁polit	-1305
ene	-1306
▁within	-1307
▁rest	-1308
▁sure	-1309
▁...	-1310
arent	-1311
▁dise	-1312
▁pain	-1313
ready	-1314
▁cancer	-1315
▁rob	-1316
▁dire	-1317
▁India	-1318
pect	-1319
▁heard	-1320
▁9	-1321
▁Br	-1322
▁amazing	-1323
▁true	-1324
▁cost	-1325
▁beautiful	-1326
▁lab	-1327
ivid	-1328
work	-1329
▁cells	-1330
▁answer	-1331
eah	-1332
▁Why	-1333
▁50	-1334
▁Or	-1335
▁age	-1336
ional	-1337
▁unt	-1338
▁exc	-1339
▁nothing	-1340
▁nature	-1341
▁large	-1342
▁universe	-1343
▁piece	-1344
ield	-1345
▁treat	-1346
▁30	-1347
▁works	-1348
▁everybody	-1349
▁couple	-1350
▁God	-1351
▁kill	-1352
▁whether	-1353
▁At	-1354
ately	-1355
aster	-1356
iddle	-1357
▁often	-1358
ired	-1359
▁exact	-1360
up	-1361
ane	-1362
▁already	-1363
▁fore	-1364
▁group	-1365
▁imagine	-1366
▁men	-1367
▁girl	-1368
▁[	-1369
▁remember	-1370
aw	-1371
atic	-1372
land	-1373
▁tre	-1374
▁video	-1375
ivers	-1376
ared	-1377
ator	-1378
▁oce	-1379
vious	-1380
▁months	-1381
▁language	-1382
▁ass	-1383
acter	-1384
▁loc	-1385
rop	-1386
ases	-1387
▁100	-1388
▁adv	-1389
▁public	-1390
▁face	-1391
ush	-1392
▁must	-1393
bs	-1394
▁quick	-1395
▁follow	-1396
▁places	-1397
ians	-1398
▁aff	-1399
▁cra	-1400
▁pos	-1401
▁arch	-1402
ully	-1403
▁leg	-1404
▁line	-1405
▁chall	-1406
urs	-1407
▁ret	-1408
▁entire	-1409
cle	-1410
▁myself	-1411
▁deep	-1412
▁control	-1413
▁abs	-1414
▁spend	-1415
▁words	-1416
▁community	-1417
▁Intern	-1418
▁built	-1419
▁market	-1420
get	-1421
▁object	-1422
▁wa	-1423
▁kinds	-1424
▁taking	-1425
▁8	-1426
▁United	-1427
▁experim	-1428
▁minutes	-1429
▁dra	-1430
▁front	-1431
ware	-1432
▁cond	-1433
▁engine	-1434
oice	-1435
▁mem	-1436
▁class	-1437
▁night	-1438
▁woman	-1439
undred	-1440
aper	-1441
outh	-1442
▁species	-1443
▁land	-1444
▁appro	-1445
▁itself	-1446
▁order	-1447
▁education	-1448
▁free	-1449
ability	-1450
▁7	-1451
ives	-1452
▁nat	-1453
▁net	-1454
▁incre	-1455
▁prop	-1456
▁train	-1457
▁complex	-1458
▁view	-1459
app	-1460
▁di	-1461
▁Every	-1462
▁individ	-1463
▁someone	-1464
etic	-1465
▁huge	-1466
▁Then	-1467
▁stories	-1468
▁somebody	-1469
ision	-1470
▁decided	-1471
▁cut	-1472
ucture	-1473
▁animals	-1474
▁Fr	-1475
▁state	-1476
▁oil	-1477
▁until	-1478
▁though	-1479
▁happening	-1480
▁tool	-1481
▁wind	-1482
▁hundred	-1483
▁mother	-1484
▁result	-1485
cl	-1486
▁ourselves	-1487
face	-1488
ustr	-1489
▁city	-1490
▁ones	-1491
▁focus	-1492
▁deal	-1493
▁culture	-1494
▁completely	-1495
▁house	-1496
▁success	-1497
ret	-1498
▁fly	-1499
ined	-1500
dd	-1501
▁isn	-1502
line	-1503
▁individual	-1504
▁Sh	-1505
▁bab	-1506
▁gets	-1507
▁States	-1508
▁z	-1509
▁past	-1510
▁rather	-1511
▁exactly	-1512
▁wasn	-1513
itect	-1514
ium	-1515
▁pay	-1516
ming	-1517
▁bott	-1518
▁name	-1519
bers	-1520
ats	-1521
itut	-1522
▁turns	-1523
oh	-1524
itting	-1525
asure	-1526
▁since	-1527
▁Internet	-1528
▁government	-1529
▁themselves	-1530
▁math	-1531
▁Ar	-1532
▁meet	-1533
ee	-1534
of	-1535
▁behav	-1536
▁share	-1537
uro	-1538
ames	-1539
▁close	-1540
▁won	-1541
came	-1542
nov	-1543
▁12	-1544
▁along	-1545
▁Do	-1546
▁happy	-1547
▁third	-1548
cul	-1549
end	-1550
gen	-1551
▁fund	-1552
ien	-1553
▁shap	-1554
▁became	-1555
▁guys	-1556
▁mass	-1557
▁pred	-1558
▁issues	-1559
▁learned	-1560
sy	-1561
ogn	-1562
▁company	-1563
▁amount	-1564
▁students	-1565
ters	-1566
▁least	-1567
▁opportun	-1568
ibly	-1569
▁America	-1570
▁knew	-1571
aking	-1572
ising	-1573
▁av	-1574
icult	-1575
▁liter	-1576
▁shows	-1577
wards	-1578
▁friends	-1579
ental	-1580
olved	-1581
omet	-1582
▁couldn	-1583
ctor	-1584
▁listen	-1585
▁game	-1586
▁present	-1587
ribut	-1588
▁disease	-1589
istic	-1590
▁mess	-1591
▁created	-1592
▁pattern	-1593
The	-1594
▁ele	-1595
▁early	-1596
astic	-1597
▁machine	-1598
▁questions	-1599
▁Chr	-1600
▁aud	-1601
▁clear	-1602
▁invest	-1603
ients	-1604
cc	-1605
▁hy	-1606
▁lots	-1607
▁ocean	-1608
▁difference	-1609
iqu	-1610
not	-1611
▁Can	-1612
haps	-1613
▁hours	-1614
▁speak	-1615
sh	-1616
▁rad	-1617
▁wonderful	-1618
gle	-1619
▁mot	-1620
▁collect	-1621
▁natural	-1622
▁difficult	-1623
Well	-1624
▁area	-1625
▁moving	-1626
▁society	-1627
▁learning	-1628
▁architect	-1629
▁outside	-1630
ones	-1631
▁seven	-1632
▁systems	-1633
▁Eng	-1634
▁var	-1635
thers	-1636
▁expect	-1637
▁cir	-1638
▁oper	-1639
▁short	-1640
▁explain	-1641
vered	-1642
▁hold	-1643
▁program	-1644
▁prov	-1645
chnology	-1646
▁da	-1647
▁coll	-1648
▁gave	-1649
▁law	-1650
▁non	-1651
inary	-1652
▁extra	-1653
▁study	-1654
▁sometimes	-1655
▁takes	-1656
ero	-1657
ples	-1658
▁Some	-1659
▁bro	-1660
▁sym	-1661
▁beginning	-1662
fect	-1663
▁everyone	-1664
▁relations	-1665
ern	-1666
▁York	-1667
rod	-1668
ump	-1669
▁sens	-1670
▁worked	-1671
▁step	-1672
▁team	-1673
▁terr	-1674
ential	-1675
▁taken	-1676
ery	-1677
aring	-1678
▁fall	-1679
▁American	-1680
cience	-1681
▁against	-1682
▁parent	-1683
erv	-1684
ination	-1685
hy	-1686
era	-1687
▁18	-1688
▁chem	-1689
▁field	-1690
▁others	-1691
▁China	-1692
▁ve	-1693
▁terms	-1694
ron	-1695
▁mic	-1696
ider	-1697
▁green	-1698
ides	-1699
▁population	-1700
▁dig	-1701
olute	-1702
ological	-1703
▁evolution	-1704
att	-1705
▁Pe	-1706
▁ple	-1707
▁black	-1708
▁eight	-1709
orld	-1710
▁ant	-1711
ially	-1712
▁full	-1713
▁needs	-1714
▁century	-1715
▁instead	-1716
ove	-1717
ither	-1718
▁miss	-1719
rew	-1720
▁middle	-1721
▁protect	-1722
itch	-1723
▁pot	-1724
▁thousands	-1725
▁low	-1726
▁norm	-1727
▁exist	-1728
▁behavior	-1729
ler	-1730
▁leave	-1731
▁seeing	-1732
▁powerful	-1733
▁recent	-1734
▁interact	-1735
illions	-1736
▁break	-1737
▁parts	-1738
NA	-1739
ipp	-1740
▁innov	-1741
ged	-1742
▁ris	-1743
▁trad	-1744
xy	-1745
▁rev	-1746
▁sun	-1747
▁emot	-1748
▁Okay	-1749
verage	-1750
jor	-1751
itions	-1752
▁yourself	-1753
▁relationship	-1754
▁typ	-1755
▁whatever	-1756
▁sug	-1757
assion	-1758
▁finally	-1759
ule	-1760
▁eyes	-1761
▁cannot	-1762
▁record	-1763
▁perhaps	-1764
▁Man	-1765
▁fail	-1766
▁network	-1767
▁obvious	-1768
ude	-1769
▁eat	-1770
come	-1771
▁hands	-1772
▁turned	-1773
▁communic	-1774
▁del	-1775
▁feet	-1776
▁film	-1777
▁death	-1778
▁buy	-1779
▁cle	-1780
iving	-1781
▁absolute	-1782
sych	-1783
▁common	-1784
▁during	-1785
▁interested	-1786
vent	-1787
▁Not	-1788
▁dep	-1789
reme	-1790
▁occ	-1791
▁orig	-1792
▁perfect	-1793
▁fre	-1794
urope	-1795
▁began	-1796
▁support	-1797
▁squ	-1798
▁incl	-1799
▁super	-1800
▁ability	-1801
ton	-1802
▁jo	-1803
▁tot	-1804
▁size	-1805
▁tried	-1806
▁lim	-1807
▁easy	-1808
▁reach	-1809
▁personal	-1810
▁tem	-1811
▁es	-1812
ison	-1813
ouch	-1814
▁colle	-1815
ills	-1816
fully	-1817
▁major	-1818
▁behind	-1819
▁longer	-1820
bo	-1821
▁jour	-1822
iversity	-1823
▁photograph	-1824
orth	-1825
▁Europe	-1826
▁perform	-1827
▁situ	-1828
▁needed	-1829
▁On	-1830
ased	-1831
▁surpr	-1832
▁quickly	-1833
iol	-1834
▁40	-1835
year	-1836
▁gone	-1837
▁impro	-1838
ann	-1839
uction	-1840
avor	-1841
▁cal	-1842
▁vers	-1843
rought	-1844
▁fish	-1845
▁mole	-1846
▁paper	-1847
▁media	-1848
hor	-1849
▁ess	-1850
cious	-1851
ole	-1852
▁sent	-1853
▁pract	-1854
▁consum	-1855
elt	-1856
▁week	-1857
▁changed	-1858
technology	-1859
els	-1860
▁surv	-1861
▁Z	-1862
▁sum	-1863
▁image	-1864
▁given	-1865
▁resour	-1866
yn	-1867
ply	-1868
▁drug	-1869
▁father	-1870
▁mov	-1871
▁opt	-1872
▁Just	-1873
▁psych	-1874
▁ground	-1875
ev	-1876
You	-1877
ibility	-1878
▁access	-1879
What	-1880
omen	-1881
▁DNA	-1882
ented	-1883
▁friend	-1884
▁realized	-1885
ney	-1886
▁pick	-1887
▁scale	-1888
▁spent	-1889
osp	-1890
ilar	-1891
▁poor	-1892
▁event	-1893
▁known	-1894
cing	-1895
▁stre	-1896
▁measure	-1897
▁special	-1898
uses	-1899
▁cool	-1900
▁emb	-1901
▁insp	-1902
gl	-1903
▁To	-1904
ledge	-1905
▁blue	-1906
▁local	-1907
▁surface	-1908
▁ill	-1909
▁incredible	-1910
idence	-1911
▁grand	-1912
▁simply	-1913
▁structure	-1914
unt	-1915
▁yes	-1916
izing	-1917
▁foot	-1918
▁press	-1919
▁repres	-1920
▁25	-1921
▁serious	-1922
▁sitting	-1923
▁approach	-1924
▁desc	-1925
▁recogn	-1926
ala	-1927
lt	-1928
ony	-1929
▁nice	-1930
put	-1931
▁conv	-1932
▁direct	-1933
▁starting	-1934
ru	-1935
oll	-1936
▁dark	-1937
▁Right	-1938
▁force	-1939
▁People	-1940
ik	-1941
▁serv	-1942
▁phone	-1943
▁feeling	-1944
▁opportunity	-1945
▁lost	-1946
▁slow	-1947
▁stay	-1948
▁produc	-1949
▁feed	-1950
▁famil	-1951
▁predict	-1952
urb	-1953
▁May	-1954
▁saf	-1955
▁civ	-1956
▁fast	-1957
ustain	-1958
▁World	-1959
▁ident	-1960
▁humans	-1961
▁indust	-1962
▁technolog	-1963
▁compassion	-1964
▁parents	-1965
▁economic	-1966
iny	-1967
ards	-1968
esign	-1969
▁books	-1970
▁bottom	-1971
ift	-1972
ators	-1973
▁pull	-1974
▁blood	-1975
▁relig	-1976
▁draw	-1977
▁wrote	-1978
▁brought	-1979
▁ice	-1980
▁dest	-1981
▁ge	-1982
rent	-1983
▁cop	-1984
▁requ	-1985
ode	-1986
▁dream	-1987
uth	-1988
▁mult	-1989
▁democ	-1990
▁animal	-1991
▁ste	-1992
ument	-1993
▁visual	-1994
▁experiment	-1995
oms	-1996
▁har	-1997
▁spread	-1998
▁changes	-1999
ales	-2000
▁win	-2001
▁growth	-2002
▁strong	-2003
▁climate	-2004
▁extreme	-2005
bor	-2006
▁obs	-2007
ellig	-2008
▁post	-2009
▁either	-2010
▁English	-2011
▁ap	-2012
▁felt	-2013
▁wall	-2014
▁weeks	-2015
lev	-2016
dden	-2017
▁miles	-2018
▁robot	-2019
▁touch	-2020
▁companies	-2021
how	-2022
▁cult	-2023
▁color	-2024
▁sudden	-2025
▁concept	-2026
▁growing	-2027
gs	-2028
hood	-2029
▁value	-2030
▁travel	-2031
▁pur	-2032
ains	-2033
▁stra	-2034
ived	-2035
▁gives	-2036
iod	-2037
pre	-2038
▁Tw	-2039
▁arg	-2040
▁bene	-2041
apt	-2042
▁mar	-2043
▁main	-2044
▁vill	-2045
ows	-2046
▁cy	-2047
▁vol	-2048
▁images	-2049
▁literally	-2050
inal	-2051
▁near	-2052
▁rock	-2053
▁based	-2054
▁average	-2055
▁patient	-2056
▁political	-2057
par	-2058
ances	-2059
imens	-2060
▁Yeah	-2061
▁write	-2062
▁morning	-2063
▁born	-2064
▁stat	-2065
▁guess	-2066
ised	-2067
▁impact	-2068
▁respons	-2069
▁die	-2070
▁din	-2071
▁forward	-2072
▁developed	-2073
ral	-2074
▁er	-2075
port	-2076
ively	-2077
▁crit	-2078
▁prin	-2079
▁song	-2080
erence	-2081
eg	-2082
enge	-2083
▁hor	-2084
▁sil	-2085
▁soft	-2086
▁civil	-2087
ression	-2088
ext	-2089
iet	-2090
▁box	-2091
▁sho	-2092
▁viol	-2093
▁enc	-2094
anger	-2095
▁repl	-2096
▁technologies	-2097
▁key	-2098
▁thank	-2099
▁white	-2100
▁center	-2101
▁wouldn	-2102
entially	-2103
▁economy	-2104
erm	-2105
chie	-2106
cially	-2107
▁shape	-2108
▁theory	-2109
▁reality	-2110
abor	-2111
▁circ	-2112
▁running	-2113
head	-2114
▁cities	-2115
▁sell	-2116
▁computers	-2117
▁deg	-2118
▁favor	-2119
▁knowledge	-2120
bon	-2121
▁fear	-2122
▁CA	-2123
▁sea	-2124
icine	-2125
▁areas	-2126
▁const	-2127
▁tools	-2128
▁giving	-2129
▁fac	-2130
▁flo	-2131
▁sex	-2132
▁discovered	-2133
▁understanding	-2134
zy	-2135
eed	-2136
▁sour	-2137
▁11	-2138
▁Pr	-2139
ging	-2140
iant	-2141
▁baby	-2142
▁send	-2143
▁affect	-2144
▁happiness	-2145
like	-2146
▁hot	-2147
▁dead	-2148
▁fight	-2149
▁audience	-2150
aly	-2151
▁worth	-2152
▁modern	-2153
▁playing	-2154
▁stage	-2155
▁absolutely	-2156
▁hosp	-2157
▁mathem	-2158
▁electric	-2159
▁challenge	-2160
▁development	-2161
amed	-2162
light	-2163
▁intern	-2164
▁talked	-2165
▁similar	-2166
▁tradition	-2167
ley	-2168
oon	-2169
▁lay	-2170
▁profess	-2171
▁scientists	-2172
ensive	-2173
▁knows	-2174
▁seems	-2175
▁institut	-2176
▁period	-2177
▁incredibly	-2178
icy	-2179
▁Ph	-2180
▁telling	-2181
ai	-2182
phere	-2183
▁save	-2184
▁neigh	-2185
▁intellig	-2186
▁movement	-2187
ohn	-2188
▁avail	-2189
uel	-2190
▁eye	-2191
enn	-2192
por	-2193
cond	-2194
▁With	-2195
▁depe	-2196
▁describ	-2197
lu	-2198
aged	-2199
▁risk	-2200
▁compet	-2201
▁developing	-2202
asc	-2203
ites	-2204
▁industry	-2205
ique	-2206
ister	-2207
▁text	-2208
▁situation	-2209
ief	-2210
ateg	-2211
▁arm	-2212
▁bur	-2213
istan	-2214
▁comb	-2215
▁path	-2216
▁rich	-2217
▁realize	-2218
▁aren	-2219
▁seem	-2220
▁fundam	-2221
▁patients	-2222
▁physical	-2223
▁sn	-2224
▁nuc	-2225
▁ball	-2226
▁wish	-2227
▁suggest	-2228
▁sustain	-2229
▁road	-2230
▁ult	-2231
▁South	-2232
▁alone	-2233
▁anyone	-2234
▁leaders	-2235
▁numbers	-2236
▁millions	-2237
rad	-2238
▁lif	-2239
urity	-2240
▁becomes	-2241
po	-2242
aur	-2243
ival	-2244
▁poll	-2245
▁instr	-2246
▁meaning	-2247
▁fur	-2248
ption	-2249
▁haven	-2250
▁except	-2251
▁showed	-2252
▁univers	-2253
ified	-2254
▁bird	-2255
▁achie	-2256
science	-2257
▁Our	-2258
▁est	-2259
oring	-2260
▁includ	-2261
▁soon	-2262
▁type	-2263
▁produce	-2264
▁creating	-2265
ips	-2266
▁Goo	-2267
▁rul	-2268
▁cars	-2269
▁sold	-2270
▁tiny	-2271
▁character	-2272
ped	-2273
ung	-2274
▁De	-2275
racy	-2276
vert	-2277
▁map	-2278
▁benef	-2279
▁girls	-2280
▁solution	-2281
▁attention	-2282
▁materials	-2283
▁transform	-2284
▁prom	-2285
ishing	-2286
mers	-2287
▁truth	-2288
▁bigger	-2289
oke	-2290
▁199	-2291
▁device	-2292
▁current	-2293
by	-2294
▁hon	-2295
▁defin	-2296
▁anybody	-2297
▁subject	-2298
50	-2299
Oh	-2300
irth	-2301
asing	-2302
▁pictures	-2303
▁available	-2304
ma	-2305
bit	-2306
▁sle	-2307
▁camp	-2308
▁breat	-2309
▁reasons	-2310
▁schools	-2311
▁recently	-2312
ges	-2313
▁16	-2314
▁table	-2315
▁extraord	-2316
▁ec	-2317
ency	-2318
view	-2319
▁emerg	-2320
▁normal	-2321
pecially	-2322
oud	-2323
ploy	-2324
▁arr	-2325
inese	-2326
▁priv	-2327
▁smart	-2328
▁bacter	-2329
▁designed	-2330
▁mount	-2331
▁hundreds	-2332
eth	-2333
umb	-2334
▁By	-2335
yond	-2336
▁Any	-2337
verty	-2338
▁flow	-2339
▁towards	-2340
▁neg	-2341
▁drive	-2342
idge	-2343
arily	-2344
▁rate	-2345
▁micro	-2346
ences	-2347
▁John	-2348
▁fire	-2349
▁issue	-2350
▁tells	-2351
▁groups	-2352
▁putting	-2353
ny	-2354
chan	-2355
▁dom	-2356
▁dou	-2357
▁emp	-2358
▁Com	-2359
▁clos	-2360
▁skin	-2361
▁necess	-2362
▁resources	-2363
oph	-2364
▁60	-2365
ster	-2366
▁carbon	-2367
▁involved	-2368
▁generation	-2369
▁suff	-2370
▁clean	-2371
▁Chinese	-2372
ertainment	-2373
let	-2374
lict	-2375
rand	-2376
▁died	-2377
▁solve	-2378
▁track	-2379
▁Google	-2380
min	-2381
▁changing	-2382
acy	-2383
pid	-2384
▁ce	-2385
▁lived	-2386
ilities	-2387
▁challeng	-2388
▁Re	-2389
ished	-2390
▁fair	-2391
▁prim	-2392
▁among	-2393
▁beyond	-2394
▁Oh	-2395
▁Yes	-2396
ously	-2397
▁speed	-2398
▁attack	-2399
pan	-2400
▁Am	-2401
▁graph	-2402
▁bed	-2403
▁movie	-2404
osphere	-2405
▁gas	-2406
▁basic	-2407
▁function	-2408
ored	-2409
▁lea	-2410
itary	-2411
▁office	-2412
▁medical	-2413
ades	-2414
▁link	-2415
▁tend	-2416
▁princi	-2417
▁convers	-2418
ify	-2419
rip	-2420
▁syn	-2421
▁Inst	-2422
▁grad	-2423
▁virt	-2424
▁nobody	-2425
▁biology	-2426
▁obviously	-2427
▁especially	-2428
ires	-2429
▁asking	-2430
▁chance	-2431
▁danger	-2432
met	-2433
cuss	-2434
▁flu	-2435
▁moved	-2436
▁sever	-2437
▁vision	-2438
▁further	-2439
▁positive	-2440
for	-2441
une	-2442
oose	-2443
usion	-2444
▁wants	-2445
▁transl	-2446
medi	-2447
▁sat	-2448
design	-2449
ressed	-2450
▁Where	-2451
▁examples	-2452
rel	-2453
room	-2454
▁bal	-2455
▁hit	-2456
global	-2457
ground	-2458
▁First	-2459
▁writing	-2460
akes	-2461
iction	-2462
▁general	-2463
▁message	-2464
▁showing	-2465
▁projects	-2466
▁potential	-2467
▁architecture	-2468
oun	-2469
▁Im	-2470
▁unf	-2471
cient	-2472
▁birth	-2473
▁voice	-2474
▁several	-2475
▁revolution	-2476
uit	-2477
▁bar	-2478
▁neur	-2479
▁activ	-2480
▁plant	-2481
▁quality	-2482
▁bunch	-2483
▁plants	-2484
▁starts	-2485
IV	-2486
ned	-2487
▁fa	-2488
▁dam	-2489
▁div	-2490
▁spir	-2491
▁choice	-2492
▁complic	-2493
▁nuclear	-2494
▁peace	-2495
▁evidence	-2496
▁certainly	-2497
▁ast	-2498
▁capital	-2499
icle	-2500
▁door	-2501
▁fing	-2502
▁nine	-2503
▁check	-2504
▁report	-2505
▁chemical	-2506
▁Ge	-2507
▁HIV	-2508
▁earth	-2509
▁stick	-2510
▁action	-2511
▁introd	-2512
▁screen	-2513
▁village	-2514
▁experien	-2515
▁extraordinary	-2516
iar	-2517
ran	-2518
rast	-2519
▁block	-2520
▁trust	-2521
▁digital	-2522
▁innovation	-2523
ky	-2524
▁Of	-2525
▁aw	-2526
▁Brit	-2527
▁fant	-2528
▁onto	-2529
▁scientific	-2530
ask	-2531
▁ep	-2532
apan	-2533
▁totally	-2534
▁particularly	-2535
ids	-2536
▁pu	-2537
▁son	-2538
▁vac	-2539
ought	-2540
▁Maybe	-2541
▁cross	-2542
▁rules	-2543
▁exciting	-2544
▁thousand	-2545
▁sequ	-2546
▁separ	-2547
▁camera	-2548
▁search	-2549
▁sounds	-2550
▁student	-2551
▁14	-2552
▁fix	-2553
itten	-2554
▁carry	-2555
▁African	-2556
▁account	-2557
▁objects	-2558
▁supposed	-2559
ey	-2560
▁games	-2561
▁solar	-2562
▁biggest	-2563
lex	-2564
ror	-2565
▁named	-2566
▁Christ	-2567
▁street	-2568
▁Cl	-2569
pped	-2570
used	-2571
▁Don	-2572
▁log	-2573
▁Japan	-2574
▁moral	-2575
▁software	-2576
▁everywhere	-2577
uly	-2578
▁80	-2579
▁Most	-2580
▁mechan	-2581
▁journey	-2582
sect	-2583
▁bom	-2584
oices	-2585
▁magn	-2586
ission	-2587
▁sleep	-2588
▁detail	-2589
▁likely	-2590
olutions	-2591
▁discover	-2592
book	-2593
tend	-2594
▁Chris	-2595
▁online	-2596
▁perspect	-2597
rest	-2598
▁rain	-2599
▁sorts	-2600
▁minute	-2601
▁passion	-2602
▁walking	-2603
lam	-2604
rom	-2605
▁pa	-2606
▁lose	-2607
isions	-2608
others	-2609
▁meant	-2610
▁series	-2611
▁continu	-2612
▁extremely	-2613
imb	-2614
avid	-2615
more	-2616
erson	-2617
▁react	-2618
▁trees	-2619
▁constr	-2620
▁context	-2621
mend	-2622
▁Car	-2623
▁adult	-2624
▁hospital	-2625
erve	-2626
ners	-2627
▁Ste	-2628
prene	-2629
▁gala	-2630
▁webs	-2631
reprene	-2632
▁mathemat	-2633
▁teachers	-2634
▁conscious	-2635
pro	-2636
▁cris	-2637
▁earl	-2638
▁aware	-2639
culture	-2640
ops	-2641
ulf	-2642
iers	-2643
▁West	-2644
▁cook	-2645
▁molec	-2646
▁immedi	-2647
▁poverty	-2648
▁represent	-2649
▁essentially	-2650
lo	-2651
▁13	-2652
cise	-2653
▁oxy	-2654
▁goal	-2655
▁mine	-2656
estern	-2657
▁After	-2658
▁forms	-2659
▁notice	-2660
▁connected	-2661
ute	-2662
▁Le	-2663
▁boy	-2664
igher	-2665
▁Look	-2666
▁grew	-2667
▁apart	-2668
▁talks	-2669
▁remark	-2670
▁surger	-2671
men	-2672
eter	-2673
isms	-2674
▁diag	-2675
▁price	-2676
▁points	-2677
▁17	-2678
ture	-2679
▁dro	-2680
▁rid	-2681
antly	-2682
illed	-2683
▁safe	-2684
▁tree	-2685
iation	-2686
▁effic	-2687
▁waste	-2688
▁appear	-2689
▁higher	-2690
▁medicine	-2691
▁position	-2692
▁security	-2693
sc	-2694
▁Ag	-2695
▁Cal	-2696
urban	-2697
▁pack	-2698
▁site	-2699
istics	-2700
▁ready	-2701
▁conflict	-2702
ef	-2703
▁Pro	-2704
▁mob	-2705
▁sky	-2706
▁fine	-2707
▁prote	-2708
▁results	-2709
▁teacher	-2710
▁favorite	-2711
▁watching	-2712
▁democracy	-2713
▁complicated	-2714
ze	-2715
mit	-2716
udd	-2717
cape	-2718
▁led	-2719
ctors	-2720
▁push	-2721
▁wife	-2722
▁North	-2723
ossible	-2724
▁concer	-2725
▁somehow	-2726
▁collabor	-2727
▁neighbor	-2728
inct	-2729
▁War	-2730
▁hom	-2731
▁Even	-2732
▁fasc	-2733
▁role	-2734
▁above	-2735
▁discuss	-2736
▁eventually	-2737
ghan	-2738
▁Mar	-2739
▁infect	-2740
▁taught	-2741
▁suddenly	-2742
go	-2743
▁af	-2744
▁imm	-2745
right	-2746
ulate	-2747
▁ended	-2748
▁depend	-2749
▁allowed	-2750
mb	-2751
ama	-2752
amp	-2753
rage	-2754
▁swe	-2755
▁phil	-2756
▁Which	-2757
▁author	-2758
▁expert	-2759
▁creative	-2760
▁buildings	-2761
▁Bl	-2762
▁pieces	-2763
▁excited	-2764
▁signific	-2765
iger	-2766
▁Mars	-2767
▁mist	-2768
▁assum	-2769
▁lower	-2770
▁minds	-2771
▁fundamental	-2772
ches	-2773
iven	-2774
play	-2775
▁heav	-2776
▁disapp	-2777
▁content	-2778
▁somewhere	-2779
We	-2780
aul	-2781
useum	-2782
▁town	-2783
▁cause	-2784
▁genes	-2785
ologist	-2786
▁detect	-2787
▁national	-2788
▁distribut	-2789
dom	-2790
oles	-2791
onse	-2792
▁East	-2793
▁phen	-2794
▁plastic	-2795
▁bacteria	-2796
▁perspective	-2797
▁Q	-2798
ring	-2799
odies	-2800
▁glass	-2801
▁lands	-2802
▁older	-2803
▁doctor	-2804
▁larger	-2805
▁trou	-2806
▁wild	-2807
▁Afghan	-2808
▁beauty	-2809
▁brains	-2810
▁continue	-2811
▁patterns	-2812
▁products	-2813
No	-2814
nal	-2815
ffic	-2816
▁fem	-2817
▁alive	-2818
▁launch	-2819
▁activity	-2820
▁ann	-2821
epend	-2822
▁code	-2823
▁fram	-2824
▁meth	-2825
▁print	-2826
▁shown	-2827
▁stars	-2828
▁please	-2829
▁temper	-2830
izations	-2831
▁impossible	-2832
▁dog	-2833
▁Char	-2834
▁jump	-2835
▁star	-2836
▁crazy	-2837
▁influ	-2838
▁throw	-2839
▁beings	-2840
▁source	-2841
▁reading	-2842
▁smaller	-2843
▁version	-2844
▁successful	-2845
joy	-2846
ube	-2847
onstr	-2848
elling	-2849
though	-2850
▁calcul	-2851
▁phenomen	-2852
uf	-2853
anc	-2854
ils	-2855
rap	-2856
▁Sw	-2857
back	-2858
soci	-2859
▁wait	-2860
▁worse	-2861
▁models	-2862
▁respect	-2863
▁military	-2864
▁progress	-2865
ID	-2866
▁spect	-2867
▁crisis	-2868
▁listening	-2869
▁solutions	-2870
zz	-2871
ana	-2872
wood	-2873
▁cart	-2874
▁okay	-2875
▁rele	-2876
▁enorm	-2877
▁magic	-2878
▁killed	-2879
▁robots	-2880
▁college	-2881
▁written	-2882
lim	-2883
▁Sch	-2884
atory	-2885
▁rise	-2886
▁sand	-2887
▁virus	-2888
▁faster	-2889
▁decision	-2890
▁response	-2891
▁training	-2892
ortunately	-2893
▁conditions	-2894
.,	-2895
▁rece	-2896
▁swim	-2897
▁truly	-2898
▁forest	-2899
▁skills	-2900
▁threat	-2901
▁improve	-2902
▁largest	-2903
▁usually	-2904
▁machines	-2905
▁standing	-2906
▁contribut	-2907
▁including	-2908
▁treatment	-2909
▁traditional	-2910
ynam	-2911
▁Rob	-2912
▁deb	-2913
▁tur	-2914
thern	-2915
▁kept	-2916
▁late	-2917
▁forth	-2918
▁allows	-2919
▁return	-2920
ares	-2921
iling	-2922
▁card	-2923
▁purp	-2924
▁shark	-2925
▁critical	-2926
!"	-2927
Th	-2928
oes	-2929
fort	-2930
ping	-2931
▁198	-2932
▁blog	-2933
▁luck	-2934
▁page	-2935
▁policy	-2936
▁spirit	-2937
▁achieve	-2938
▁consider	-2939
▁ultimate	-2940
▁individuals	-2941
mic	-2942
uss	-2943
▁legs	-2944
ration	-2945
▁enjoy	-2946
▁accept	-2947
▁indeed	-2948
▁finding	-2949
▁studies	-2950
▁fantastic	-2951
▁communities	-2952
▁TV	-2953
lebr	-2954
nces	-2955
▁upon	-2956
▁uses	-2957
▁yeah	-2958
▁blind	-2959
inating	-2960
▁secret	-2961
▁mention	-2962
▁Ex	-2963
▁Who	-2964
▁Like	-2965
▁David	-2966
▁prison	-2967
▁greater	-2968
▁seconds	-2969
▁strange	-2970
▁increase	-2971
▁recognize	-2972
▁port	-2973
▁Those	-2974
▁himself	-2975
▁strateg	-2976
▁Ab	-2977
▁oh	-2978
edom	-2979
rect	-2980
sequ	-2981
▁cat	-2982
itude	-2983
ounds	-2984
▁babies	-2985
ologists	-2986
▁earlier	-2987
▁reflect	-2988
▁therefore	-2989
▁temperature	-2990
bol	-2991
onom	-2992
▁sou	-2993
orrow	-2994
▁drugs	-2995
▁telev	-2996
▁afford	-2997
▁Another	-2998
▁straight	-2999
▁expensive	-3000
wh	-3001
ores	-3002
ried	-3003
▁Har	-3004
▁doc	-3005
▁thr	-3006
▁shot	-3007
▁zero	-3008
▁cases	-3009
▁cover	-3010
▁dynam	-3011
▁labor	-3012
▁actual	-3013
▁address	-3014
▁propert	-3015
▁publish	-3016
▁website	-3017
▁dangerous	-3018
anda	-3019
iest	-3020
ript	-3021
ining	-3022
▁marr	-3023
▁occur	-3024
▁surprising	-3025
iced	-3026
▁eth	-3027
▁hop	-3028
▁bank	-3029
inated	-3030
▁urban	-3031
▁Second	-3032
▁effort	-3033
▁healthy	-3034
▁invented	-3035
▁entreprene	-3036
fer	-3037
ste	-3038
▁mal	-3039
▁finan	-3040
ustrial	-3041
▁surgery	-3042
▁anywhere	-3043
▁decisions	-3044
iti	-3045
▁21	-3046
iles	-3047
resh	-3048
▁kil	-3049
▁mis	-3050
▁jobs	-3051
▁range	-3052
▁trick	-3053
▁select	-3054
▁service	-3055
▁University	-3056
edia	-3057
▁sal	-3058
osing	-3059
▁final	-3060
▁simpl	-3061
▁slide	-3062
▁worry	-3063
▁celebr	-3064
▁daught	-3065
▁determ	-3066
atically	-3067
▁humanity	-3068
▁environmental	-3069
add	-3070
eny	-3071
▁Are	-3072
aging	-3073
ently	-3074
▁insect	-3075
▁genetic	-3076
▁following	-3077
▁increasing	-3078
▁conversation	-3079
▁hyd	-3080
▁Somet	-3081
▁trial	-3082
▁colleag	-3083
▁physics	-3084
▁demonstr	-3085
win	-3086
▁196	-3087
▁prep	-3088
▁Islam	-3089
▁lines	-3090
▁invent	-3091
▁remind	-3092
▁familiar	-3093
▁television	-3094
SA	-3095
▁et	-3096
▁cold	-3097
▁board	-3098
▁famous	-3099
rams	-3100
▁Web	-3101
▁aid	-3102
▁atm	-3103
▁veh	-3104
▁web	-3105
▁creativity	-3106
▁remarkable	-3107
IDS	-3108
time	-3109
▁tar	-3110
ellow	-3111
▁roll	-3112
▁capac	-3113
▁drink	-3114
▁store	-3115
▁whose	-3116
▁choose	-3117
▁unique	-3118
▁values	-3119
▁walked	-3120
▁Western	-3121
▁anymore	-3122
▁evolved	-3123
▁violence	-3124
▁500	-3125
▁Act	-3126
▁tap	-3127
▁hair	-3128
▁dinos	-3129
▁types	-3130
▁anyway	-3131
▁saving	-3132
▁Mc	-3133
▁Two	-3134
attle	-3135
▁anal	-3136
▁fold	-3137
▁rand	-3138
▁floor	-3139
▁funny	-3140
▁provide	-3141
▁specific	-3142
▁teaching	-3143
▁immediately	-3144
▁Dr	-3145
▁Sp	-3146
umor	-3147
▁exh	-3148
▁sus	-3149
antic	-3150
▁weren	-3151
▁various	-3152
▁families	-3153
▁Americans	-3154
▁conference	-3155
▁understood	-3156
▁electricity	-3157
▁engineering	-3158
na	-3159
▁90	-3160
▁En	-3161
itiz	-3162
orry	-3163
▁whe	-3164
▁copy	-3165
▁fuel	-3166
▁heat	-3167
ography	-3168
▁levels	-3169
▁multip	-3170
▁weight	-3171
▁direction	-3172
▁Afghanistan	-3173
▁organization	-3174
af	-3175
▁Go	-3176
▁coun	-3177
▁costs	-3178
▁dimens	-3179
▁employ	-3180
▁engage	-3181
ibr	-3182
raq	-3183
▁Ad	-3184
rees	-3185
▁mut	-3186
▁pig	-3187
▁crow	-3188
▁weap	-3189
▁autom	-3190
▁catch	-3191
▁artist	-3192
▁oxygen	-3193
▁slight	-3194
▁clearly	-3195
▁instance	-3196
entertainment	-3197
unk	-3198
▁Mus	-3199
aries	-3200
ystem	-3201
▁rule	-3202
▁income	-3203
▁physic	-3204
▁random	-3205
▁driving	-3206
▁although	-3207
▁connection	-3208
bi	-3209
uced	-3210
▁Tod	-3211
▁airpl	-3212
▁summer	-3213
▁explore	-3214
▁express	-3215
▁survive	-3216
▁particip	-3217
▁production	-3218
▁i	-3219
itor	-3220
▁His	-3221
▁cry	-3222
▁Rich	-3223
▁Your	-3224
ashion	-3225
▁flying	-3226
▁struct	-3227
ays	-3228
▁pen	-3229
rastr	-3230
▁Imag	-3231
▁desp	-3232
ashing	-3233
▁freedom	-3234
▁cultural	-3235
▁standard	-3236
▁terrible	-3237
▁complexity	-3238
▁X	-3239
How	-3240
oty	-3241
▁197	-3242
▁alg	-3243
▁nut	-3244
▁ran	-3245
▁broad	-3246
▁bodies	-3247
▁commer	-3248
▁forces	-3249
▁prevent	-3250
▁becoming	-3251
▁enormous	-3252
▁original	-3253
▁throughout	-3254
aim	-3255
oid	-3256
vest	-3257
aling	-3258
▁hole	-3259
▁citiz	-3260
▁integ	-3261
itation	-3262
▁useful	-3263
▁respond	-3264
▁National	-3265
▁interview	-3266
▁intelligence	-3267
iam	-3268
▁Pl	-3269
ancy	-3270
olve	-3271
▁Dan	-3272
▁Dar	-3273
▁agric	-3274
▁performance	-3275
cks	-3276
off	-3277
cles	-3278
▁etc	-3279
lands	-3280
▁dance	-3281
▁consequ	-3282
▁meeting	-3283
▁willing	-3284
▁greatest	-3285
▁infrastr	-3286
▁international	-3287
son	-3288
ained	-3289
cules	-3290
erman	-3291
▁boys	-3292
▁manage	-3293
▁played	-3294
▁focused	-3295
▁politics	-3296
▁atmosphere	-3297
arm	-3298
key	-3299
iring	-3300
▁appl	-3301
▁clin	-3302
▁below	-3303
▁region	-3304
▁tremend	-3305
▁practice	-3306
rag	-3307
▁ir	-3308
empt	-3309
iate	-3310
rical	-3311
▁coff	-3312
▁Indian	-3313
▁bought	-3314
▁causes	-3315
▁compon	-3316
▁rights	-3317
▁produced	-3318
▁relative	-3319
▁communication	-3320
eral	-3321
wise	-3322
▁Col	-3323
▁hur	-3324
▁jud	-3325
istry	-3326
▁Paul	-3327
▁task	-3328
▁ahead	-3329
▁concl	-3330
▁wealth	-3331
▁Imagine	-3332
▁controll	-3333
▁mountain	-3334
▁painting	-3335
▁emotional	-3336
amb	-3337
ugh	-3338
cell	-3339
▁fat	-3340
eless	-3341
throp	-3342
▁vari	-3343
▁wire	-3344
▁mental	-3345
▁notion	-3346
▁square	-3347
▁trouble	-3348
▁electron	-3349
▁profound	-3350
▁religion	-3351
▁creatures	-3352
▁Ed	-3353
cope	-3354
icon	-3355
▁lad	-3356
ables	-3357
ondon	-3358
▁Iraq	-3359
▁chair	-3360
▁encou	-3361
▁decide	-3362
▁symbol	-3363
▁doctors	-3364
▁popular	-3365
▁waiting	-3366
0,	-3367
ri	-3368
▁Ne	-3369
ened	-3370
▁Par	-3371
▁fit	-3372
▁mid	-3373
▁sam	-3374
▁tun	-3375
board	-3376
ening	-3377
▁gent	-3378
▁tiss	-3379
▁loved	-3380
▁match	-3381
▁motiv	-3382
▁London	-3383
▁destro	-3384
▁supply	-3385
▁massive	-3386
▁molecules	-3387
▁challenges	-3388
Why	-3389
ceed	-3390
life	-3391
ufact	-3392
▁dram	-3393
▁bread	-3394
▁decade	-3395
▁purpose	-3396
▁24	-3397
▁trib	-3398
▁rough	-3399
▁method	-3400
▁societ	-3401
▁states	-3402
▁directly	-3403
▁experiments	-3404
It	-3405
bb	-3406
amm	-3407
▁hall	-3408
▁park	-3409
uments	-3410
▁apply	-3411
▁quant	-3412
▁forget	-3413
▁capacity	-3414
▁independ	-3415
▁inspired	-3416
▁pressure	-3417
yl	-3418
cut	-3419
ios	-3420
reg	-3421
yle	-3422
izes	-3423
▁mix	-3424
iforn	-3425
rench	-3426
▁City	-3427
anging	-3428
atives	-3429
▁basis	-3430
▁climb	-3431
▁closer	-3432
▁mostly	-3433
▁neurons	-3434
▁private	-3435
▁Californ	-3436
▁possibly	-3437
ander	-3438
▁term	-3439
illiant	-3440
▁breast	-3441
ervation	-3442
▁surround	-3443
▁financial	-3444
fl	-3445
▁CO	-3446
▁sca	-3447
ratic	-3448
rogen	-3449
▁radio	-3450
▁coffee	-3451
▁philos	-3452
▁switch	-3453
▁institutions	-3454
▁infrastructure	-3455
ax	-3456
ray	-3457
ulner	-3458
▁Cent	-3459
▁birds	-3460
▁raise	-3461
▁twice	-3462
vention	-3463
▁10,000	-3464
▁desert	-3465
▁honest	-3466
▁California	-3467
ett	-3468
aign	-3469
▁ang	-3470
▁pan	-3471
anced	-3472
▁drop	-3473
▁strug	-3474
▁total	-3475
▁worst	-3476
▁belief	-3477
▁broken	-3478
▁flight	-3479
▁histor	-3480
▁neighborhood	-3481
kn	-3482
ica	-3483
rab	-3484
▁70	-3485
iber	-3486
orge	-3487
uman	-3488
▁300	-3489
arian	-3490
itted	-3491
stein	-3492
verse	-3493
▁vacc	-3494
▁Think	-3495
▁Today	-3496
▁calls	-3497
▁cheap	-3498
▁optim	-3499
▁altern	-3500
▁shared	-3501
▁hearing	-3502
▁manufact	-3503
▁organisms	-3504
▁Sc	-3505
isco	-3506
otic	-3507
water	-3508
▁From	-3509
▁paid	-3510
▁metap	-3511
▁shock	-3512
▁trade	-3513
ception	-3514
▁Richard	-3515
▁creates	-3516
▁sustainable	-3517
pes	-3518
cies	-3519
reci	-3520
▁fab	-3521
▁ign	-3522
▁ing	-3523
▁parad	-3524
▁eating	-3525
▁gentle	-3526
▁central	-3527
▁programs	-3528
▁speaking	-3529
▁designers	-3530
▁biological	-3531
▁governments	-3532
edd	-3533
olit	-3534
iding	-3535
▁loss	-3536
▁trip	-3537
▁email	-3538
▁active	-3539
▁police	-3540
▁answers	-3541
▁planets	-3542
▁services	-3543
▁commercial	-3544
▁Per	-3545
▁reb	-3546
ement	-3547
icity	-3548
▁Mich	-3549
▁arts	-3550
▁base	-3551
▁none	-3552
▁liber	-3553
▁farmers	-3554
▁fashion	-3555
▁scientist	-3556
▁tremendous	-3557
aria	-3558
uild	-3559
arter	-3560
▁doub	-3561
▁hous	-3562
▁reco	-3563
▁tele	-3564
▁oppos	-3565
▁Middle	-3566
▁associ	-3567
▁career	-3568
▁corner	-3569
▁feature	-3570
▁restaur	-3571
▁networks	-3572
▁spending	-3573
0.	-3574
▁$	-3575
ked	-3576
cest	-3577
ears	-3578
esth	-3579
exic	-3580
▁San	-3581
▁Life	-3582
▁visit	-3583
▁bridge	-3584
▁nation	-3585
▁terror	-3586
▁effects	-3587
▁effective	-3588
5,	-3589
▁iP	-3590
ball	-3591
load	-3592
▁tom	-3593
icles	-3594
idden	-3595
▁seas	-3596
▁seed	-3597
mission	-3598
▁German	-3599
▁charge	-3600
▁societies	-3601
▁imagination	-3602
ha	-3603
▁eg	-3604
ises	-3605
▁wis	-3606
inate	-3607
▁Asia	-3608
▁Will	-3609
▁fort	-3610
▁sick	-3611
▁Again	-3612
▁ancest	-3613
▁helped	-3614
▁memory	-3615
▁ancient	-3616
▁workers	-3617
▁slightly	-3618
▁transport	-3619
ech	-3620
ira	-3621
engu	-3622
mark	-3623
uate	-3624
phone	-3625
▁laws	-3626
▁mort	-3627
▁scan	-3628
▁tens	-3629
▁enter	-3630
oration	-3631
▁vulner	-3632
▁attract	-3633
▁contact	-3634
lications	-3635
▁diseases	-3636
▁background	-3637
▁industrial	-3638
▁Fe	-3639
ford	-3640
ooper	-3641
▁AIDS	-3642
▁gene	-3643
▁wood	-3644
dimens	-3645
▁Mexic	-3646
▁Niger	-3647
▁mouth	-3648
▁rapid	-3649
▁easily	-3650
▁genome	-3651
▁gotten	-3652
▁mobile	-3653
▁window	-3654
▁bringing	-3655
▁published	-3656
irt	-3657
▁Con	-3658
ustom	-3659
▁race	-3660
health	-3661
▁photos	-3662
▁symmet	-3663
▁Instead	-3664
▁artists	-3665
▁missing	-3666
▁differences	-3667
rie	-3668
ued	-3669
hand	-3670
ulpt	-3671
▁puzz	-3672
▁stem	-3673
▁chick	-3674
▁cloud	-3675
▁feels	-3676
▁magaz	-3677
▁fairly	-3678
▁sculpt	-3679
▁degrees	-3680
▁devices	-3681
▁display	-3682
▁helping	-3683
▁noticed	-3684
▁sharing	-3685
▁elements	-3686
▁significant	-3687
gy	-3688
ael	-3689
ille	-3690
raft	-3691
▁nor	-3692
▁lack	-3693
▁tast	-3694
▁vast	-3695
▁seemed	-3696
▁attempt	-3697
▁comfort	-3698
▁mission	-3699
▁campaign	-3700
do	-3701
▁Mr	-3702
▁Tr	-3703
▁ur	-3704
esis	-3705
term	-3706
▁Very	-3707
▁rare	-3708
▁tour	-3709
▁diagn	-3710
▁shift	-3711
▁expand	-3712
▁lights	-3713
▁balance	-3714
▁virtual	-3715
ification	-3716
rim	-3717
▁ut	-3718
adem	-3719
▁gun	-3720
▁join	-3721
▁adapt	-3722
▁laugh	-3723
▁newsp	-3724
▁brings	-3725
▁choices	-3726
▁addition	-3727
▁daughter	-3728
▁diversity	-3729
▁landscape	-3730
▁particles	-3731
▁responsibility	-3732
ami	-3733
▁bud	-3734
▁Bill	-3735
▁Iran	-3736
▁Many	-3737
▁beat	-3738
▁dying	-3739
▁frequ	-3740
osystem	-3741
dimensional	-3742
▁definition	-3743
oom	-3744
▁Nor	-3745
▁ban	-3746
▁disc	-3747
▁harm	-3748
▁dollar	-3749
▁integr	-3750
▁passed	-3751
▁reduce	-3752
▁yellow	-3753
▁moments	-3754
▁studying	-3755
▁condition	-3756
▁colleagues	-3757
▁possibility	-3758
IT	-3759
inc	-3760
mar	-3761
rupt	-3762
vity	-3763
▁unc	-3764
▁Bang	-3765
▁reve	-3766
icking	-3767
▁aspect	-3768
▁master	-3769
▁museum	-3770
▁stream	-3771
▁volunt	-3772
▁journal	-3773
▁brilliant	-3774
olf	-3775
▁Co	-3776
fish	-3777
raid	-3778
▁Aud	-3779
▁Ben	-3780
▁Sun	-3781
▁hus	-3782
house	-3783
orith	-3784
▁bomb	-3785
▁host	-3786
▁meas	-3787
▁1,000	-3788
▁pengu	-3789
ication	-3790
▁appreci	-3791
▁knowing	-3792
▁stopped	-3793
▁turning	-3794
▁molecule	-3795
▁ecosystem	-3796
▁Me	-3797
▁NA	-3798
oman	-3799
▁rot	-3800
▁tax	-3801
based	-3802
oting	-3803
pping	-3804
▁Good	-3805
▁boat	-3806
▁burn	-3807
▁shop	-3808
antage	-3809
ellect	-3810
▁Thanks	-3811
▁highly	-3812
▁tissue	-3813
▁necessarily	-3814
▁opportunities	-3815
ius	-3816
ses	-3817
zen	-3818
aced	-3819
▁400	-3820
▁dad	-3821
▁ver	-3822
itely	-3823
▁More	-3824
▁gold	-3825
▁hero	-3826
▁plat	-3827
▁fully	-3828
▁afraid	-3829
▁finger	-3830
▁pollut	-3831
▁figured	-3832
▁structures	-3833
9,	-3834
▁El	-3835
▁Nob	-3836
icate	-3837
ording	-3838
▁grass	-3839
▁sorry	-3840
▁tough	-3841
▁Muslim	-3842
▁slowly	-3843
▁forever	-3844
▁algorith	-3845
▁sequence	-3846
▁languages	-3847
▁communicate	-3848
▁competition	-3849
▁fascinating	-3850
▁civilization	-3851
my	-3852
▁Ha	-3853
▁Ob	-3854
▁fro	-3855
▁org	-3856
▁forg	-3857
▁male	-3858
▁repe	-3859
▁vict	-3860
ifying	-3861
▁offic	-3862
▁surge	-3863
▁Darwin	-3864
▁French	-3865
▁custom	-3866
▁concent	-3867
▁decades	-3868
▁trained	-3869
▁citizens	-3870
▁emotions	-3871
▁partners	-3872
▁religious	-3873
▁suffering	-3874
cop	-3875
aurs	-3876
olds	-3877
▁Bra	-3878
▁joy	-3879
▁tor	-3880
eared	-3881
itute	-3882
▁Arab	-3883
▁Russ	-3884
▁seat	-3885
▁wide	-3886
ildren	-3887
▁novel	-3888
▁stren	-3889
▁demand	-3890
▁events	-3891
▁wisdom	-3892
▁negative	-3893
▁differently	-3894
8,	-3895
gth	-3896
aker	-3897
band	-3898
etry	-3899
▁Bar	-3900
▁bul	-3901
▁inj	-3902
▁tit	-3903
celer	-3904
▁note	-3905
terday	-3906
▁accom	-3907
▁photo	-3908
▁caught	-3909
▁desire	-3910
▁shares	-3911
▁related	-3912
▁streets	-3913
▁intellect	-3914
▁statistics	-3915
7,	-3916
ada	-3917
mon	-3918
tle	-3919
▁Red	-3920
apers	-3921
using	-3922
▁conc	-3923
▁cred	-3924
▁lapt	-3925
▁spot	-3926
▁Great	-3927
▁breath	-3928
▁spaces	-3929
ographic	-3930
▁capture	-3931
▁foreign	-3932
val	-3933
war	-3934
apse	-3935
roll	-3936
▁Gen	-3937
▁Res	-3938
ipped	-3939
▁bone	-3940
▁moon	-3941
▁ship	-3942
▁agree	-3943
▁brief	-3944
▁crowd	-3945
▁habit	-3946
▁lucky	-3947
▁maint	-3948
▁moves	-3949
▁emotion	-3950
▁insects	-3951
▁strength	-3952
▁necessary	-3953
▁phenomenon	-3954
uary	-3955
▁201	-3956
▁Big	-3957
▁Her	-3958
▁sad	-3959
▁ske	-3960
craft	-3961
▁Cong	-3962
icated	-3963
▁Austr	-3964
▁fresh	-3965
▁pages	-3966
▁smell	-3967
▁double	-3968
▁nearly	-3969
▁therap	-3970
▁unlike	-3971
ifically	-3972
▁Charles	-3973
▁correct	-3974
▁element	-3975
▁markets	-3976
▁planning	-3977
▁Everybody	-3978
▁concerned	-3979
mp	-3980
hen	-3981
reet	-3982
▁150	-3983
▁See	-3984
▁ble	-3985
▁fol	-3986
▁odd	-3987
artment	-3988
instein	-3989
▁damage	-3990
▁female	-3991
▁grandm	-3992
▁opened	-3993
▁British	-3994
▁benefit	-3995
▁metaphor	-3996
oot	-3997
set	-3998
pper	-3999
urch	-4000
▁Did	-4001
atell	-4002
etics	-4003
iable	-4004
owing	-4005
▁hell	-4006
▁mamm	-4007
▁analy	-4008
▁epide	-4009
▁faces	-4010
▁giant	-4011
▁helps	-4012
▁letter	-4013
▁signal	-4014
▁destroy	-4015
▁equival	-4016
▁insight	-4017
▁matters	-4018
▁warming	-4019
▁Actually	-4020
▁airplane	-4021
▁opposite	-4022
wide	-4023
▁intu	-4024
owered	-4025
▁plane	-4026
▁subst	-4027
connect	-4028
▁batter	-4029
▁holding	-4030
▁leading	-4031
▁Einstein	-4032
▁accident	-4033
▁creation	-4034
▁document	-4035
▁mathematics	-4036
▁consciousness	-4037
rum	-4038
vey	-4039
This	-4040
roud	-4041
ysis	-4042
place	-4043
▁meat	-4044
aining	-4045
icians	-4046
▁exhib	-4047
▁truck	-4048
▁adults	-4049
▁artific	-4050
▁weapons	-4051
▁distance	-4052
▁platform	-4053
edy	-4054
ees	-4055
▁Gu	-4056
arts	-4057
cked	-4058
uing	-4059
▁Bas	-4060
▁gar	-4061
▁mir	-4062
essel	-4063
▁Keny	-4064
inally	-4065
▁leads	-4066
▁motor	-4067
▁prost	-4068
▁consid	-4069
▁muscle	-4070
▁remote	-4071
▁satell	-4072
▁sister	-4073
▁Washing	-4074
▁brother	-4075
▁traffic	-4076
▁separate	-4077
▁efficient	-4078
▁Washington	-4079
bel	-4080
▁Fl	-4081
airs	-4082
anes	-4083
▁amb	-4084
▁adop	-4085
▁drag	-4086
▁frag	-4087
▁purs	-4088
ulated	-4089
▁mouse	-4090
▁noise	-4091
▁offer	-4092
▁stuck	-4093
ometers	-4094
▁colors	-4095
▁easier	-4096
▁resist	-4097
▁reward	-4098
▁deliver	-4099
▁install	-4100
▁prototy	-4101
▁designer	-4102
▁everyday	-4103
▁experiences	-4104
1,	-4105
cil	-4106
squ	-4107
ume	-4108
▁alt	-4109
▁nan	-4110
▁cand	-4111
▁libr	-4112
change	-4113
▁Green	-4114
▁bright	-4115
▁thinks	-4116
▁versus	-4117
▁vessel	-4118
▁members	-4119
▁studied	-4120
▁benefits	-4121
▁describe	-4122
▁entirely	-4123
▁previous	-4124
▁childhood	-4125
▁organizations	-4126
▁relationships	-4127
If	-4128
new	-4129
▁1.	-4130
▁Gl	-4131
athy	-4132
ogen	-4133
oses	-4134
vere	-4135
xies	-4136
▁MIT	-4137
▁hun	-4138
▁tag	-4139
organ	-4140
▁exer	-4141
▁iron	-4142
▁king	-4143
▁shel	-4144
▁tail	-4145
ipping	-4146
▁brand	-4147
▁party	-4148
▁weird	-4149
▁commit	-4150
▁dreams	-4151
▁sector	-4152
▁article	-4153
▁capable	-4154
▁organic	-4155
▁finished	-4156
▁identity	-4157
▁operating	-4158
▁president	-4159
▁intelligent	-4160
▁professional	-4161
bl	-4162
▁Je	-4163
▁Su	-4164
▁Te	-4165
race	-4166
▁hyp	-4167
itter	-4168
ortex	-4169
ulous	-4170
▁myth	-4171
ancing	-4172
▁bound	-4173
▁lunch	-4174
▁proud	-4175
▁deeply	-4176
▁Michael	-4177
▁precise	-4178
▁regular	-4179
▁billions	-4180
▁magazine	-4181
▁influence	-4182
▁principles	-4183
▁importantly	-4184
educ	-4185
happ	-4186
roph	-4187
what	-4188
▁fill	-4189
▁foss	-4190
▁load	-4191
▁narr	-4192
itable	-4193
urally	-4194
▁coast	-4195
▁grown	-4196
▁shoes	-4197
▁extend	-4198
▁failed	-4199
▁galaxy	-4200
▁acceler	-4201
▁require	-4202
ibilities	-4203
▁Sometimes	-4204
▁advantage	-4205
▁construct	-4206
▁dinosaurs	-4207
▁investment	-4208
2,	-4209
hi	-4210
ald	-4211
urd	-4212
enty	-4213
▁bag	-4214
▁cos	-4215
ength	-4216
▁Take	-4217
▁ants	-4218
▁gard	-4219
▁glob	-4220
ensity	-4221
▁Franc	-4222
▁Times	-4223
▁crime	-4224
▁inner	-4225
▁legal	-4226
▁quote	-4227
▁synth	-4228
▁begins	-4229
▁cooper	-4230
▁degree	-4231
▁dinner	-4232
▁meters	-4233
▁oceans	-4234
▁ordinary	-4235
▁perfectly	-4236
▁collective	-4237
▁equivalent	-4238
▁unfortunately	-4239
▁fu	-4240
omas	-4241
oted	-4242
▁Val	-4243
▁spl	-4244
▁edge	-4245
▁hate	-4246
▁horr	-4247
▁cycle	-4248
▁rural	-4249
usiness	-4250
▁Anyway	-4251
▁attach	-4252
▁motion	-4253
▁stupid	-4254
ognitive	-4255
▁counter	-4256
▁leaving	-4257
▁mothers	-4258
▁worried	-4259
▁compared	-4260
▁engineer	-4261
▁galaxies	-4262
▁economics	-4263
atr	-4264
▁ax	-4265
ured	-4266
▁dry	-4267
▁coal	-4268
▁spin	-4269
▁whom	-4270
▁quiet	-4271
▁walls	-4272
▁Mexico	-4273
▁incent	-4274
▁despite	-4275
▁highest	-4276
▁illustr	-4277
▁protein	-4278
▁Audience	-4279
▁otherwise	-4280
▁principle	-4281
▁ultimately	-4282
yr	-4283
vis	-4284
▁1,	-4285
▁Sm	-4286
elly	-4287
▁Wik	-4288
▁und	-4289
erves	-4290
umber	-4291
▁anti	-4292
▁mill	-4293
▁nerv	-4294
▁wear	-4295
▁accur	-4296
▁claim	-4297
▁faith	-4298
▁steps	-4299
issions	-4300
▁corpor	-4301
▁movies	-4302
▁phones	-4303
▁toward	-4304
▁factory	-4305
▁wearing	-4306
▁pleasure	-4307
▁resource	-4308
▁yesterday	-4309
ux	-4310
aff	-4311
can	-4312
ham	-4313
oop	-4314
pet	-4315
ager	-4316
over	-4317
▁Min	-4318
▁tox	-4319
print	-4320
▁Once	-4321
▁Over	-4322
▁astr	-4323
▁band	-4324
▁bits	-4325
▁empt	-4326
▁fell	-4327
▁opin	-4328
▁poem	-4329
▁roof	-4330
▁soil	-4331
▁avoid	-4332
▁prior	-4333
▁round	-4334
▁veget	-4335
▁conduct	-4336
▁curious	-4337
▁managed	-4338
▁replace	-4339
▁theater	-4340
▁volunte	-4341
▁fighting	-4342
▁normally	-4343
▁artificial	-4344
▁evolutionary	-4345
Yes	-4346
ara	-4347
lin	-4348
cend	-4349
resp	-4350
▁cro	-4351
icing	-4352
known	-4353
▁dial	-4354
idents	-4355
▁invis	-4356
▁advert	-4357
▁closed	-4358
▁convin	-4359
▁lesson	-4360
▁losing	-4361
▁target	-4362
▁justice	-4363
▁signals	-4364
▁succeed	-4365
▁argument	-4366
▁described	-4367
▁seriously	-4368
▁agriculture	-4369
▁alternative	-4370
▁generations	-4371
▁responsible	-4372
▁entrepreneurs	-4373
20	-4374
ok	-4375
bre	-4376
aled	-4377
cket	-4378
oint	-4379
ront	-4380
▁era	-4381
▁fle	-4382
order	-4383
▁auth	-4384
▁flat	-4385
▁gang	-4386
▁glam	-4387
▁2,000	-4388
▁coral	-4389
▁layer	-4390
▁names	-4391
▁sugar	-4392
▁tumor	-4393
akistan	-4394
iration	-4395
▁circle	-4396
▁fourth	-4397
▁hidden	-4398
▁island	-4399
▁speech	-4400
▁drawing	-4401
▁majority	-4402
▁soldiers	-4403
▁chemistry	-4404
▁engineers	-4405
▁dimensions	-4406
▁transformation	-4407
gn	-4408
ns	-4409
ait	-4410
▁lat	-4411
ublic	-4412
▁Phil	-4413
▁peak	-4414
▁river	-4415
▁fellow	-4416
▁fields	-4417
▁harder	-4418
▁proper	-4419
▁raised	-4420
ulations	-4421
▁failure	-4422
▁shouldn	-4423
▁vehicle	-4424
▁contract	-4425
▁discovery	-4426
▁hopefully	-4427
uff	-4428
ophy	-4429
▁App	-4430
▁Cam	-4431
▁Med	-4432
▁bra	-4433
▁mig	-4434
▁sac	-4435
agers	-4436
uries	-4437
▁Each	-4438
▁arms	-4439
▁bear	-4440
▁core	-4441
▁stim	-4442
▁tick	-4443
▁Three	-4444
▁aging	-4445
▁camer	-4446
▁heads	-4447
▁negot	-4448
entally	-4449
▁finish	-4450
▁sharks	-4451
▁victim	-4452
▁invited	-4453
▁nervous	-4454
▁weather	-4455
▁feelings	-4456
▁multiple	-4457
▁property	-4458
▁strategy	-4459
▁continent	-4460
▁distribution	-4461
▁intellectual	-4462
1.	-4463
▁den	-4464
▁held	-4465
▁pray	-4466
▁reef	-4467
▁rout	-4468
acters	-4469
▁crash	-4470
▁diver	-4471
▁holes	-4472
▁wheel	-4473
▁circum	-4474
▁exists	-4475
▁pounds	-4476
▁shapes	-4477
▁station	-4478
▁Anderson	-4479
▁Pakistan	-4480
▁disaster	-4481
▁feedback	-4482
▁tomorrow	-4483
▁Everything	-4484
▁characters	-4485
odes	-4486
rael	-4487
essed	-4488
▁gall	-4489
▁hadn	-4490
ipment	-4491
▁teeth	-4492
ruption	-4493
▁dynamic	-4494
▁malaria	-4495
▁treated	-4496
▁believed	-4497
▁investig	-4498
▁surprise	-4499
▁survival	-4500
▁mentioned	-4501
▁universal	-4502
▁constantly	-4503
▁instrument	-4504
2.	-4505
ls	-4506
oe	-4507
ox	-4508
fit	-4509
cipl	-4510
uros	-4511
▁Sim	-4512
▁Tur	-4513
▁mel	-4514
▁nur	-4515
iency	-4516
lease	-4517
▁Does	-4518
▁Have	-4519
▁NASA	-4520
▁enem	-4521
▁nutr	-4522
▁argue	-4523
▁infin	-4524
▁Austral	-4525
▁England	-4526
▁husband	-4527
▁opening	-4528
▁roughly	-4529
▁setting	-4530
▁viruses	-4531
▁cultures	-4532
▁equipment	-4533
▁construction	-4534
30	-4535
4,	-4536
Hey	-4537
osh	-4538
iors	-4539
rate	-4540
▁cow	-4541
▁pet	-4542
anted	-4543
isher	-4544
owers	-4545
▁agre	-4546
▁disp	-4547
▁teen	-4548
▁weak	-4549
ession	-4550
parent	-4551
▁destr	-4552
▁manip	-4553
olitics	-4554
▁experts	-4555
▁extract	-4556
▁keeping	-4557
▁letters	-4558
▁Japanese	-4559
▁consumer	-4560
▁independent	-4561
.'	-4562
ym	-4563
▁99	-4564
gets	-4565
gypt	-4566
vard	-4567
▁pal	-4568
▁init	-4569
▁intr	-4570
▁surf	-4571
▁vent	-4572
▁warm	-4573
ctions	-4574
▁chann	-4575
▁horse	-4576
▁paral	-4577
▁debate	-4578
▁stress	-4579
▁followed	-4580
▁electrical	-4581
▁grandmother	-4582
ago	-4583
car	-4584
ipl	-4585
nam	-4586
now	-4587
▁Mil	-4588
▁god	-4589
▁smo	-4590
▁tal	-4591
▁ten	-4592
▁Alex	-4593
▁Kore	-4594
▁chim	-4595
▁soph	-4596
▁wave	-4597
itness	-4598
▁click	-4599
▁fract	-4600
▁grade	-4601
▁sport	-4602
▁Israel	-4603
▁medium	-4604
▁100,000	-4605
▁However	-4606
▁married	-4607
▁classroom	-4608
▁designing	-4609
▁interface	-4610
▁mortality	-4611
▁consequences	-4612
igm	-4613
zil	-4614
▁35	-4615
semb	-4616
▁ton	-4617
asion	-4618
gling	-4619
▁diet	-4620
▁recy	-4621
▁resc	-4622
▁Would	-4623
telling	-4624
▁George	-4625
▁School	-4626
▁bottle	-4627
▁factor	-4628
▁Harvard	-4629
▁typical	-4630
▁emerging	-4631
▁hydrogen	-4632
▁spectrum	-4633
▁businesses	-4634
▁importance	-4635
ae	-4636
Don	-4637
irm	-4638
ola	-4639
zed	-4640
That	-4641
pher	-4642
lying	-4643
▁silk	-4644
acific	-4645
pected	-4646
▁Egypt	-4647
▁Kenya	-4648
▁equal	-4649
▁heavy	-4650
▁Brazil	-4651
▁belong	-4652
▁unless	-4653
▁cameras	-4654
▁dealing	-4655
▁Institute	-4656
▁according	-4657
▁chemicals	-4658
▁invention	-4659
▁restaurant	-4660
ras	-4661
olly	-4662
rade	-4663
sing	-4664
▁Bab	-4665
▁Face	-4666
▁abst	-4667
▁desk	-4668
▁vote	-4669
ipedia	-4670
lement	-4671
ushing	-4672
▁categ	-4673
▁folks	-4674
▁mosqu	-4675
▁saved	-4676
▁scene	-4677
▁solid	-4678
▁explan	-4679
▁facing	-4680
▁gather	-4681
▁leaves	-4682
▁picked	-4683
▁sphere	-4684
▁Nigeria	-4685
▁limited	-4686
▁launched	-4687
▁essential	-4688
▁invisible	-4689
▁Gal	-4690
▁Rep	-4691
▁pil	-4692
neath	-4693
▁shif	-4694
▁awful	-4695
▁daily	-4696
▁lifet	-4697
▁limit	-4698
▁north	-4699
▁paint	-4700
▁rates	-4701
▁smile	-4702
▁spoke	-4703
▁Thomas	-4704
▁filled	-4705
▁leader	-4706
▁Britain	-4707
▁appropr	-4708
▁arrived	-4709
▁compare	-4710
▁covered	-4711
▁European	-4712
▁exercise	-4713
▁processes	-4714
▁leadership	-4715
au	-4716
alt	-4717
har	-4718
van	-4719
aked	-4720
hist	-4721
▁fed	-4722
▁TEDx	-4723
▁date	-4724
▁loud	-4725
▁scen	-4726
▁Their	-4727
▁pregn	-4728
▁south	-4729
anthrop	-4730
▁battle	-4731
▁contem	-4732
▁organs	-4733
▁worlds	-4734
▁details	-4735
evolution	-4736
▁abstract	-4737
▁requires	-4738
▁cognitive	-4739
▁currently	-4740
▁kilometers	-4741
6,	-4742
wr	-4743
ino	-4744
ula	-4745
▁Gh	-4746
down	-4747
▁agg	-4748
▁due	-4749
▁sla	-4750
iplom	-4751
orous	-4752
▁Swed	-4753
▁biom	-4754
▁hasn	-4755
▁impl	-4756
▁ride	-4757
▁James	-4758
▁chain	-4759
▁empty	-4760
▁grain	-4761
▁perce	-4762
alities	-4763
▁cutting	-4764
▁primary	-4765
education	-4766
▁carefully	-4767
▁newspaper	-4768
▁practical	-4769
▁sophistic	-4770
▁technical	-4771
▁university	-4772
▁photographs	-4773
rog	-4774
cast	-4775
▁Rem	-4776
iques	-4777
▁Mont	-4778
▁nest	-4779
▁puts	-4780
▁liked	-4781
▁relev	-4782
▁serve	-4783
▁stock	-4784
osition	-4785
▁budget	-4786
▁micros	-4787
▁Twitter	-4788
▁sources	-4789
▁organized	-4790
▁worldwide	-4791
▁represents	-4792
▁consumption	-4793
▁specifically	-4794
▁entertainment	-4795
▁Ac	-4796
bert	-4797
ocol	-4798
▁Atl	-4799
▁Tom	-4800
▁poo	-4801
▁rom	-4802
▁Pres	-4803
▁dish	-4804
▁ends	-4805
▁lawy	-4806
▁pure	-4807
▁unex	-4808
▁wine	-4809
▁Prize	-4810
▁shall	-4811
ressive	-4812
▁caused	-4813
▁compar	-4814
▁conver	-4815
▁fossil	-4816
▁inform	-4817
▁paying	-4818
politics	-4819
▁rapidly	-4820
▁prepared	-4821
▁sentence	-4822
▁existence	-4823
▁molecular	-4824
▁components	-4825
▁convention	-4826
▁perception	-4827
▁underneath	-4828
▁interaction	-4829
▁increasingly	-4830
60	-4831
mun	-4832
iage	-4833
onds	-4834
road	-4835
▁Int	-4836
▁ded	-4837
▁spo	-4838
lines	-4839
▁YouT	-4840
▁farm	-4841
▁lady	-4842
▁reci	-4843
▁shut	-4844
▁valu	-4845
itchen	-4846
▁estab	-4847
▁input	-4848
▁frustr	-4849
▁reprod	-4850
▁safety	-4851
▁nations	-4852
▁selling	-4853
▁epidemic	-4854
▁generally	-4855
▁producing	-4856
▁introduced	-4857
ij	-4858
sp	-4859
log	-4860
aser	-4861
iano	-4862
▁Nat	-4863
scale	-4864
▁King	-4865
▁Park	-4866
▁bran	-4867
▁sites	-4868
▁steel	-4869
▁sweet	-4870
▁reform	-4871
▁solved	-4872
▁winter	-4873
▁Pacific	-4874
▁YouTube	-4875
▁radical	-4876
▁reaction	-4877
▁thoughts	-4878
▁Wikipedia	-4879
▁expression	-4880
▁protection	-4881
▁possibilities	-4882
uh	-4883
eal	-4884
mas	-4885
orb	-4886
chest	-4887
usual	-4888
▁Last	-4889
▁dots	-4890
▁evil	-4891
▁hang	-4892
▁lect	-4893
▁lens	-4894
▁suit	-4895
▁compl	-4896
▁minim	-4897
▁prove	-4898
▁reven	-4899
▁Robert	-4900
▁ingred	-4901
▁interp	-4902
▁mirror	-4903
▁status	-4904
▁videos	-4905
▁calling	-4906
▁contain	-4907
▁lessons	-4908
▁partner	-4909
▁circumst	-4910
▁convince	-4911
▁generate	-4912
▁identify	-4913
▁penguins	-4914
▁Francisco	-4915
▁emissions	-4916
▁associated	-4917
▁considered	-4918
▁effectively	-4919
3,	-4920
80	-4921
bur	-4922
iot	-4923
mus	-4924
ris	-4925
▁75	-4926
amin	-4927
berg	-4928
care	-4929
soft	-4930
▁194	-4931
▁Ant	-4932
▁Art	-4933
▁gap	-4934
cking	-4935
▁clip	-4936
▁flex	-4937
ension	-4938
olving	-4939
▁Women	-4940
▁homes	-4941
ulating	-4942
▁Center	-4943
▁advent	-4944
▁assign	-4945
▁buying	-4946
▁driven	-4947
▁height	-4948
▁chicken	-4949
▁killing	-4950
▁players	-4951
▁suppose	-4952
▁affected	-4953
▁creature	-4954
▁exchange	-4955
▁swimming	-4956
▁computing	-4957
▁encourage	-4958
▁definitely	-4959
▁environments	-4960
▁mathematical	-4961
spe	-4962
bors	-4963
▁lic	-4964
▁mak	-4965
▁scr	-4966
▁tow	-4967
athan	-4968
creat	-4969
▁Mark	-4970
▁mile	-4971
▁rein	-4972
minist	-4973
social	-4974
▁Frank	-4975
▁broke	-4976
▁recon	-4977
▁skill	-4978
▁stood	-4979
▁teles	-4980
▁academ	-4981
▁clever	-4982
▁define	-4983
▁fortun	-4984
▁houses	-4985
▁cartoon	-4986
▁cooking	-4987
▁gravity	-4988
▁unusual	-4989
▁analysis	-4990
▁mistakes	-4991
▁proteins	-4992
▁sunlight	-4993
▁valuable	-4994
▁discussion	-4995
▁relatively	-4996
▁presentation	-4997
RI	-4998
esh	-4999
▁'9	-5000
▁Ke	-5001
Look	-5002
irty	-5003
tech	-5004
▁mer	-5005
rooms	-5006
▁Budd	-5007
▁hits	-5008
▁aston	-5009
▁clock	-5010
▁metal	-5011
▁theme	-5012
▁cortex	-5013
▁fabric	-5014
▁Science	-5015
▁singing	-5016
▁expected	-5017
▁lifetime	-5018
▁ancestors	-5019
▁establish	-5020
▁democratic	-5021
▁techniques	-5022
DP	-5023
gal	-5024
rat	-5025
▁45	-5026
comp	-5027
ingu	-5028
zing	-5029
▁row	-5030
eline	-5031
estic	-5032
point	-5033
▁gras	-5034
▁ring	-5035
▁sees	-5036
▁tall	-5037
▁user	-5038
engine	-5039
▁colon	-5040
▁credit	-5041
▁deeper	-5042
▁player	-5043
▁fingers	-5044
▁kitchen	-5045
▁reverse	-5046
vironment	-5047
▁Facebook	-5048
▁marketing	-5049
▁satellite	-5050
▁surprised	-5051
▁connections	-5052
▁experienced	-5053
rs	-5054
tr	-5055
top	-5056
▁Em	-5057
▁Mo	-5058
whel	-5059
▁Mic	-5060
▁que	-5061
ework	-5062
olves	-5063
▁2000	-5064
▁asks	-5065
▁bees	-5066
▁liqu	-5067
▁myst	-5068
▁tons	-5069
▁atoms	-5070
▁cloth	-5071
▁forgot	-5072
▁length	-5073
▁prefer	-5074
▁depends	-5075
▁testing	-5076
▁framework	-5077
▁introduce	-5078
▁neighbors	-5079
▁typically	-5080
▁personally	-5081
▁—	-5082
equ	-5083
lly	-5084
ota	-5085
psy	-5086
foot	-5087
rets	-5088
umps	-5089
▁Eth	-5090
▁lie	-5091
▁rhy	-5092
being	-5093
human	-5094
iture	-5095
sters	-5096
vable	-5097
▁Gulf	-5098
▁inev	-5099
▁wake	-5100
porary	-5101
▁antib	-5102
▁goods	-5103
▁shoot	-5104
▁laptop	-5105
▁sexual	-5106
▁centers	-5107
▁release	-5108
▁vaccine	-5109
▁astronom	-5110
▁overwhel	-5111
▁selection	-5112
▁wondering	-5113
▁collaboration	-5114
isf	-5115
abet	-5116
xide	-5117
▁Haw	-5118
▁Jul	-5119
▁pun	-5120
▁van	-5121
aters	-5122
riend	-5123
▁diam	-5124
▁kick	-5125
▁tank	-5126
▁zoom	-5127
illing	-5128
ortion	-5129
▁Steve	-5130
▁curve	-5131
▁films	-5132
▁honor	-5133
▁ideal	-5134
▁polio	-5135
▁sympt	-5136
▁Street	-5137
▁boring	-5138
▁regard	-5139
▁string	-5140
▁voices	-5141
▁consist	-5142
▁corresp	-5143
▁variety	-5144
▁convinced	-5145
▁movements	-5146
▁pollution	-5147
▁depression	-5148
▁efficiency	-5149
▁properties	-5150
▁situations	-5151
▁destruction	-5152
ss	-5153
fin	-5154
ita	-5155
▁AB	-5156
Yeah	-5157
cons	-5158
keys	-5159
oved	-5160
▁Sat	-5161
▁nar	-5162
clear	-5163
icago	-5164
▁Bank	-5165
▁gest	-5166
▁nurs	-5167
▁runs	-5168
▁added	-5169
▁notes	-5170
▁occup	-5171
▁users	-5172
▁waves	-5173
ptember	-5174
ultural	-5175
▁applied	-5176
▁quantum	-5177
▁explains	-5178
▁received	-5179
▁mountains	-5180
▁vulnerable	-5181
▁combination	-5182
▁sophisticated	-5183
8.	-5184
bes	-5185
hab	-5186
▁Qu	-5187
atin	-5188
ener	-5189
▁Ber	-5190
▁Mac	-5191
▁Pal	-5192
▁bio	-5193
music	-5194
retch	-5195
stand	-5196
▁Five	-5197
▁Jack	-5198
▁furn	-5199
▁hurt	-5200
▁joke	-5201
▁lies	-5202
astern	-5203
encies	-5204
forest	-5205
▁fewer	-5206
▁frank	-5207
▁resil	-5208
▁risks	-5209
▁sides	-5210
▁trend	-5211
▁Canada	-5212
▁analog	-5213
▁liquid	-5214
▁poetry	-5215
▁Chicago	-5216
▁battery	-5217
▁falling	-5218
▁figures	-5219
▁library	-5220
▁mistake	-5221
▁musical	-5222
▁opinion	-5223
▁privile	-5224
▁transpl	-5225
▁watched	-5226
▁advanced	-5227
▁birthday	-5228
▁carrying	-5229
▁infected	-5230
▁President	-5231
▁September	-5232
▁interests	-5233
▁radiation	-5234
▁psychology	-5235
▁technological	-5236
PA	-5237
no	-5238
itz	-5239
▁CE	-5240
▁ju	-5241
just	-5242
omes	-5243
▁Dep	-5244
▁Jan	-5245
▁Lar	-5246
▁rat	-5247
▁rub	-5248
▁Bush	-5249
▁Gold	-5250
▁blow	-5251
▁pump	-5252
▁tape	-5253
▁wars	-5254
comput	-5255
orders	-5256
▁bombs	-5257
▁error	-5258
▁initi	-5259
▁taste	-5260
▁hoping	-5261
▁spring	-5262
▁whales	-5263
lication	-5264
▁Project	-5265
▁promise	-5266
▁quarter	-5267
▁sending	-5268
▁location	-5269
▁struggle	-5270
▁wireless	-5271
▁Basically	-5272
▁behaviors	-5273
▁disappear	-5274
▁operation	-5275
▁mathematic	-5276
▁passionate	-5277
▁circumstances	-5278
ua	-5279
500	-5280
ato	-5281
oly	-5282
▁Ug	-5283
hold	-5284
▁600	-5285
▁Dem	-5286
▁GDP	-5287
aving	-5288
story	-5289
▁Four	-5290
▁Stan	-5291
▁acqu	-5292
▁eggs	-5293
▁gift	-5294
▁soul	-5295
profit	-5296
unting	-5297
▁3,000	-5298
▁Other	-5299
▁facts	-5300
▁keeps	-5301
▁ought	-5302
▁ridic	-5303
▁signs	-5304
▁tests	-5305
▁upper	-5306
▁Valley	-5307
▁acting	-5308
▁driver	-5309
▁explos	-5310
▁forced	-5311
▁relate	-5312
▁studio	-5313
business	-5314
▁dropped	-5315
▁intense	-5316
▁administ	-5317
▁rational	-5318
▁gentlemen	-5319
▁increased	-5320
▁entrepreneur	-5321
iel	-5322
sch	-5323
▁II	-5324
▁py	-5325
bble	-5326
icip	-5327
olar	-5328
▁Jew	-5329
▁Mon	-5330
▁pin	-5331
alled	-5332
gment	-5333
itals	-5334
itual	-5335
think	-5336
▁cast	-5337
▁dogs	-5338
athers	-5339
econom	-5340
making	-5341
▁Could	-5342
itarian	-5343
perform	-5344
▁blocks	-5345
▁formed	-5346
▁papers	-5347
▁patent	-5348
▁pulled	-5349
▁season	-5350
children	-5351
▁harvest	-5352
▁therapy	-5353
▁collapse	-5354
▁director	-5355
▁occurred	-5356
▁suggests	-5357
▁employees	-5358
▁professor	-5359
▁behavioral	-5360
▁corruption	-5361
▁transition	-5362
▁explanation	-5363
▁politicians	-5364
▁fundamentally	-5365
Do	-5366
agn	-5367
bal	-5368
emb	-5369
ito	-5370
uls	-5371
▁Ah	-5372
cont	-5373
▁Cop	-5374
▁fal	-5375
▁vag	-5376
erved	-5377
third	-5378
▁Also	-5379
▁Come	-5380
▁Mart	-5381
▁decl	-5382
▁erad	-5383
▁pair	-5384
▁poly	-5385
▁pros	-5386
▁snow	-5387
▁5,000	-5388
▁Woman	-5389
▁beach	-5390
▁eleph	-5391
▁split	-5392
▁stone	-5393
▁diplom	-5394
▁garden	-5395
▁member	-5396
inations	-5397
ographer	-5398
▁burning	-5399
▁decline	-5400
▁discipl	-5401
▁fishing	-5402
▁paralle	-5403
▁vessels	-5404
▁messages	-5405
▁paradigm	-5406
▁whenever	-5407
▁continued	-5408
▁interpret	-5409
▁protected	-5410
▁activities	-5411
▁profession	-5412
▁institution	-5413
My	-5414
han	-5415
▁23	-5416
▁La	-5417
Okay	-5418
anta	-5419
asks	-5420
grad	-5421
ideo	-5422
look	-5423
osis	-5424
tail	-5425
well	-5426
▁Sec	-5427
▁dat	-5428
icted	-5429
raham	-5430
▁bicy	-5431
▁corn	-5432
▁fert	-5433
▁grid	-5434
▁vert	-5435
apping	-5436
stream	-5437
▁expon	-5438
▁pitch	-5439
▁shame	-5440
▁thick	-5441
▁hypoth	-5442
▁thanks	-5443
ollywood	-5444
▁Germany	-5445
▁circuit	-5446
▁defined	-5447
▁include	-5448
▁outcome	-5449
▁reached	-5450
▁visible	-5451
▁witness	-5452
▁equation	-5453
▁organism	-5454
▁presence	-5455
▁naturally	-5456
▁technique	-5457
▁traveling	-5458
▁controlled	-5459
▁foundation	-5460
▁productive	-5461
5.	-5462
ec	-5463
ams	-5464
cal	-5465
xim	-5466
▁Hy	-5467
ifth	-5468
iled	-5469
▁Boy	-5470
▁Che	-5471
▁Lad	-5472
▁Pat	-5473
▁beg	-5474
belie	-5475
icide	-5476
▁Stud	-5477
▁cere	-5478
▁diss	-5479
▁plot	-5480
▁thin	-5481
▁unit	-5482
arrass	-5483
isters	-5484
▁Since	-5485
▁cents	-5486
▁coord	-5487
▁decre	-5488
▁hyper	-5489
through	-5490
▁critic	-5491
▁deploy	-5492
▁evolve	-5493
▁former	-5494
▁pollen	-5495
▁sample	-5496
▁slides	-5497
aneously	-5498
▁closely	-5499
▁comment	-5500
▁courage	-5501
▁dancing	-5502
▁designs	-5503
▁evening	-5504
▁monkeys	-5505
▁options	-5506
▁concepts	-5507
▁dramatic	-5508
▁graduate	-5509
▁measured	-5510
▁required	-5511
▁hospitals	-5512
▁reference	-5513
▁philosophy	-5514
▁inspiration	-5515
▁researchers	-5516
▁manufacturing	-5517
azz	-5518
iop	-5519
que	-5520
sum	-5521
▁DH	-5522
▁ru	-5523
adow	-5524
case	-5525
ctic	-5526
uits	-5527
▁nav	-5528
▁san	-5529
cence	-5530
oston	-5531
▁Ange	-5532
▁Gree	-5533
▁TEDT	-5534
▁bare	-5535
▁fake	-5536
▁item	-5537
▁mush	-5538
▁sets	-5539
iosity	-5540
▁Never	-5541
▁colum	-5542
▁depth	-5543
▁dress	-5544
▁falls	-5545
▁flies	-5546
▁Uganda	-5547
▁drives	-5548
▁ritual	-5549
▁senses	-5550
▁severe	-5551
▁writer	-5552
▁amounts	-5553
▁balloon	-5554
▁factors	-5555
▁frankly	-5556
▁however	-5557
▁parking	-5558
▁surgeon	-5559
▁younger	-5560
▁Republic	-5561
▁marriage	-5562
▁relevant	-5563
▁stronger	-5564
▁Australia	-5565
▁embarrass	-5566
▁literature	-5567
▁unexpected	-5568
▁instruments	-5569
AR	-5570
obs	-5571
org	-5572
aren	-5573
doll	-5574
omic	-5575
sour	-5576
wich	-5577
▁Law	-5578
▁cha	-5579
▁dot	-5580
▁iPh	-5581
▁pip	-5582
▁sen	-5583
akers	-5584
andem	-5585
earch	-5586
enced	-5587
▁bill	-5588
▁boom	-5589
▁busy	-5590
▁capt	-5591
▁elev	-5592
▁icon	-5593
▁isol	-5594
▁maps	-5595
▁ment	-5596
▁tack	-5597
ternal	-5598
▁Micro	-5599
▁estim	-5600
▁piano	-5601
▁plate	-5602
▁polic	-5603
▁recom	-5604
▁refer	-5605
▁staff	-5606
▁Nobody	-5607
▁Number	-5608
▁advice	-5609
▁handle	-5610
▁myster	-5611
▁neuros	-5612
▁accompl	-5613
▁breathe	-5614
▁extinct	-5615
▁unknown	-5616
▁Africans	-5617
▁recorded	-5618
▁transfer	-5619
▁determine	-5620
▁explained	-5621
▁spiritual	-5622
▁conclusion	-5623
▁management	-5624
▁appropriate	-5625
▁exploration	-5626
/1	-5627
mi	-5628
anz	-5629
asm	-5630
pox	-5631
ums	-5632
▁Ro	-5633
erge	-5634
ogue	-5635
▁adm	-5636
▁bow	-5637
▁mad	-5638
abled	-5639
comes	-5640
rated	-5641
▁Step	-5642
▁club	-5643
▁ears	-5644
▁gain	-5645
▁vibr	-5646
▁Bible	-5647
▁bones	-5648
▁frame	-5649
▁plans	-5650
▁plays	-5651
▁sight	-5652
▁church	-5653
▁geomet	-5654
▁puzzle	-5655
▁review	-5656
▁spider	-5657
▁volume	-5658
medicine	-5659
▁somewhat	-5660
▁vehicles	-5661
▁footprint	-5662
▁implement	-5663
▁algorithms	-5664
▁electronic	-5665
▁innovative	-5666
▁meaningful	-5667
▁processing	-5668
70	-5669
dr	-5670
rem	-5671
rey	-5672
▁BF	-5673
arre	-5674
gers	-5675
tery	-5676
▁Hom	-5677
▁Mal	-5678
▁ens	-5679
eness	-5680
green	-5681
inder	-5682
state	-5683
ucing	-5684
▁Amaz	-5685
▁Jeff	-5686
▁dign	-5687
▁flew	-5688
▁hung	-5689
▁trig	-5690
▁cards	-5691
▁domin	-5692
▁doubt	-5693
▁false	-5694
▁guide	-5695
▁insur	-5696
▁pyram	-5697
▁rhyth	-5698
▁rooms	-5699
▁shell	-5700
▁title	-5701
▁desper	-5702
▁inject	-5703
▁remain	-5704
etically	-5705
▁autonom	-5706
▁encoura	-5707
▁largely	-5708
▁remains	-5709
▁victims	-5710
▁trillion	-5711
▁wherever	-5712
▁authority	-5713
▁exploring	-5714
▁functions	-5715
▁underwater	-5716
la	-5717
ta	-5718
nes	-5719
▁Ma	-5720
▁US	-5721
abol	-5722
oons	-5723
zero	-5724
▁Vir	-5725
▁Yet	-5726
▁asp	-5727
▁fan	-5728
▁irr	-5729
▁pul	-5730
itory	-5731
▁golf	-5732
▁hide	-5733
▁mere	-5734
▁nose	-5735
▁plus	-5736
dollar	-5737
▁Found	-5738
▁Mount	-5739
▁Paris	-5740
▁boxes	-5741
▁dense	-5742
▁flood	-5743
▁goals	-5744
▁memor	-5745
▁teams	-5746
▁whale	-5747
▁wings	-5748
▁Boston	-5749
▁Ethiop	-5750
▁Museum	-5751
▁divide	-5752
▁fright	-5753
▁linked	-5754
▁satisf	-5755
▁authent	-5756
▁engaged	-5757
▁illness	-5758
▁orchest	-5759
▁overall	-5760
▁records	-5761
▁solving	-5762
abilities	-5763
▁instruct	-5764
▁internal	-5765
▁magnetic	-5766
▁occasion	-5767
▁pregnant	-5768
▁symmetry	-5769
▁awareness	-5770
▁component	-5771
▁appreciate	-5772
▁economists	-5773
▁simplicity	-5774
▁challenging	-5775
▁comfortable	-5776
▁educational	-5777
▁applications	-5778
▁implications	-5779
Wh	-5780
But	-5781
lph	-5782
▁2.	-5783
illy	-5784
otes	-5785
▁Cap	-5786
▁Day	-5787
▁phr	-5788
romos	-5789
world	-5790
▁neut	-5791
▁pill	-5792
▁admit	-5793
▁chest	-5794
▁dolph	-5795
▁songs	-5796
▁toler	-5797
inction	-5798
ription	-5799
unclear	-5800
▁France	-5801
▁Sweden	-5802
▁encoun	-5803
▁hunger	-5804
▁latest	-5805
▁output	-5806
▁rocket	-5807
▁traged	-5808
▁Eastern	-5809
▁command	-5810
▁regions	-5811
▁constant	-5812
▁existing	-5813
▁horrible	-5814
▁wondered	-5815
▁centuries	-5816
▁measuring	-5817
▁commitment	-5818
▁astonishing	-5819
In	-5820
Is	-5821
Os	-5822
mm	-5823
cel	-5824
▁Ox	-5825
bage	-5826
cean	-5827
mber	-5828
rete	-5829
▁250	-5830
▁Eve	-5831
▁Sil	-5832
▁bes	-5833
▁Narr	-5834
▁acts	-5835
▁mira	-5836
herent	-5837
▁Count	-5838
▁Inter	-5839
▁breed	-5840
▁hotel	-5841
▁liver	-5842
▁logic	-5843
▁style	-5844
▁topic	-5845
▁walks	-5846
▁assist	-5847
▁bubble	-5848
▁correl	-5849
▁deaths	-5850
▁extent	-5851
▁script	-5852
▁attacks	-5853
▁causing	-5854
▁chimpan	-5855
▁empathy	-5856
▁violent	-5857
▁instinct	-5858
▁official	-5859
▁Christmas	-5860
▁presented	-5861
▁sensitive	-5862
▁physically	-5863
▁automatically	-5864
tan	-5865
hour	-5866
imic	-5867
pend	-5868
rich	-5869
▁Ice	-5870
▁Tal	-5871
▁bee	-5872
▁tea	-5873
force	-5874
iters	-5875
ounce	-5876
under	-5877
▁bike	-5878
▁lets	-5879
▁milk	-5880
▁plug	-5881
▁sulf	-5882
father	-5883
▁About	-5884
▁State	-5885
▁Union	-5886
▁While	-5887
▁jelly	-5888
▁orbit	-5889
uilding	-5890
▁Please	-5891
▁prices	-5892
▁remove	-5893
▁careful	-5894
▁chromos	-5895
▁classic	-5896
▁diction	-5897
▁empower	-5898
▁operate	-5899
▁windows	-5900
▁Everyone	-5901
▁distinct	-5902
▁election	-5903
▁villages	-5904
▁Microsoft	-5905
▁furniture	-5906
▁mechanism	-5907
▁confidence	-5908
▁transformed	-5909
4.	-5910
7.	-5911
iat	-5912
▁Rw	-5913
mble	-5914
rors	-5915
▁10,	-5916
▁Get	-5917
▁Jim	-5918
▁ate	-5919
▁cru	-5920
▁nit	-5921
▁tab	-5922
ician	-5923
power	-5924
▁Girl	-5925
▁army	-5926
▁lung	-5927
▁obst	-5928
▁Ghana	-5929
▁Obama	-5930
▁accum	-5931
▁flash	-5932
▁multi	-5933
▁navig	-5934
▁prize	-5935
▁roads	-5936
▁skull	-5937
▁vital	-5938
▁fisher	-5939
▁perman	-5940
▁Islamic	-5941
▁divided	-5942
▁feeding	-5943
▁flowers	-5944
▁painful	-5945
▁unbelie	-5946
▁features	-5947
▁infinite	-5948
▁romantic	-5949
▁sandwich	-5950
▁speakers	-5951
creativity	-5952
▁celebrate	-5953
▁laboratory	-5954
▁percentage	-5955
▁conventional	-5956
9.	-5957
▁.	-5958
200	-5959
arp	-5960
erry	-5961
fall	-5962
ifer	-5963
▁Air	-5964
▁Del	-5965
▁Des	-5966
▁Los	-5967
▁Unf	-5968
▁ped	-5969
▁raw	-5970
▁rig	-5971
ifest	-5972
iform	-5973
▁clim	-5974
▁cosm	-5975
▁root	-5976
▁stro	-5977
▁till	-5978
▁tube	-5979
▁wing	-5980
orking	-5981
ounced	-5982
▁Brown	-5983
▁Korea	-5984
▁chart	-5985
▁datab	-5986
▁enemy	-5987
▁globe	-5988
▁stack	-5989
astroph	-5990
ternoon	-5991
▁astero	-5992
▁option	-5993
▁pandem	-5994
▁pocket	-5995
▁repair	-5996
▁scream	-5997
▁spoken	-5998
▁appears	-5999
▁charity	-6000
▁collaps	-6001
▁funding	-6002
▁sensors	-6003
▁stretch	-6004
▁accurate	-6005
▁meetings	-6006
▁Something	-6007
▁breathing	-6008
▁identical	-6009
▁prototype	-6010
▁sculpture	-6011
▁standards	-6012
▁uncertain	-6013
▁architects	-6014
▁exhibition	-6015
▁advertising	-6016
▁participate	-6017
ads	-6018
leg	-6019
rol	-6020
▁Bi	-6021
ardo	-6022
lock	-6023
▁Jes	-6024
▁Lab	-6025
▁dio	-6026
arant	-6027
psych	-6028
usive	-6029
▁chap	-6030
▁cock	-6031
esthes	-6032
▁angle	-6033
▁chose	-6034
▁horiz	-6035
▁indic	-6036
▁neuro	-6037
▁storm	-6038
▁tries	-6039
▁whist	-6040
▁filter	-6041
▁iPhone	-6042
▁marine	-6043
▁profit	-6044
▁rising	-6045
▁scared	-6046
▁Finally	-6047
▁actions	-6048
▁combine	-6049
▁existed	-6050
▁poorest	-6051
▁aircraft	-6052
▁apparent	-6053
▁combined	-6054
▁dynamics	-6055
▁provides	-6056
▁released	-6057
▁shoulder	-6058
▁smallpox	-6059
▁subjects	-6060
▁afternoon	-6061
▁copyright	-6062
▁spreading	-6063
▁telephone	-6064
▁connecting	-6065
▁transplant	-6066
▁distributed	-6067
▁Unfortunately	-6068
▁transportation	-6069
ena	-6070
▁65	-6071
ello	-6072
uous	-6073
▁Jon	-6074
▁Ros	-6075
▁der	-6076
▁lin	-6077
▁shr	-6078
▁Gore	-6079
▁elim	-6080
▁hook	-6081
▁limb	-6082
▁loop	-6083
▁tent	-6084
▁Child	-6085
▁White	-6086
▁crack	-6087
▁knock	-6088
▁laser	-6089
▁sales	-6090
▁toxic	-6091
▁Before	-6092
▁Island	-6093
▁Virgin	-6094
▁behave	-6095
▁commod	-6096
▁defend	-6097
▁facial	-6098
▁interf	-6099
▁joined	-6100
▁ladies	-6101
▁monkey	-6102
▁obstac	-6103
▁plenty	-6104
▁smooth	-6105
▁stands	-6106
anthropy	-6107
▁channel	-6108
▁classes	-6109
▁concert	-6110
▁dignity	-6111
▁herself	-6112
▁origami	-6113
▁passing	-6114
▁tonight	-6115
▁wanting	-6116
economics	-6117
▁Narrator	-6118
▁clinical	-6119
▁dinosaur	-6120
▁parallel	-6121
▁translate	-6122
▁catastroph	-6123
▁directions	-6124
▁controlling	-6125
▁dramatically	-6126
jo	-6127
ari	-6128
nda	-6129
hips	-6130
▁aim	-6131
▁gut	-6132
▁toy	-6133
▁uns	-6134
▁Cons	-6135
▁Next	-6136
▁crim	-6137
▁cure	-6138
▁emph	-6139
▁jail	-6140
▁wash	-6141
ietnam	-6142
▁Apple	-6143
▁craft	-6144
▁pharm	-6145
▁pleas	-6146
▁recyc	-6147
▁seats	-6148
▁seeds	-6149
imately	-6150
▁Design	-6151
▁embedd	-6152
▁enable	-6153
▁genius	-6154
▁heroes	-6155
▁lifest	-6156
▁lovely	-6157
▁poison	-6158
▁trials	-6159
▁dioxide	-6160
▁finance	-6161
▁opposed	-6162
▁silence	-6163
velopment	-6164
▁allowing	-6165
▁surfaces	-6166
ologically	-6167
▁Christian	-6168
▁inspiring	-6169
▁recommend	-6170
▁Foundation	-6171
▁healthcare	-6172
▁incentives	-6173
▁mechanical	-6174
▁productivity	-6175
ek	-6176
aks	-6177
ani	-6178
box	-6179
oca	-6180
vas	-6181
▁22	-6182
▁27	-6183
▁32	-6184
▁Jo	-6185
▁RB	-6186
aint	-6187
ecut	-6188
emen	-6189
kins	-6190
phil	-6191
▁Bur	-6192
▁Spe	-6193
▁Tim	-6194
▁eld	-6195
▁tri	-6196
▁wip	-6197
▁Pole	-6198
▁Port	-6199
▁gray	-6200
▁horm	-6201
▁pace	-6202
called	-6203
▁Latin	-6204
▁dozen	-6205
▁faced	-6206
▁humor	-6207
▁label	-6208
▁sheep	-6209
▁stunt	-6210
▁suppl	-6211
iveness	-6212
▁assume	-6213
▁heaven	-6214
▁origin	-6215
▁proced	-6216
▁reject	-6217
▁repeat	-6218
▁advance	-6219
▁delight	-6220
▁density	-6221
▁equally	-6222
▁offered	-6223
▁download	-6224
▁floating	-6225
▁overcome	-6226
▁particle	-6227
▁printing	-6228
▁properly	-6229
▁symptoms	-6230
▁corporate	-6231
▁depending	-6232
▁dimension	-6233
▁statement	-6234
▁surrounded	-6235
▁disappeared	-6236
▁potentially	-6237
ka	-6238
aci	-6239
nel	-6240
▁26	-6241
▁Op	-6242
anny	-6243
etch	-6244
food	-6245
list	-6246
quar	-6247
▁Bon	-6248
▁Mad	-6249
▁Mor	-6250
▁ben	-6251
▁tum	-6252
▁wel	-6253
esity	-6254
iance	-6255
inger	-6256
while	-6257
▁1950	-6258
▁High	-6259
▁acid	-6260
▁barr	-6261
▁nets	-6262
▁pref	-6263
phones	-6264
▁Grand	-6265
▁Human	-6266
▁Peter	-6267
▁angry	-6268
▁conce	-6269
▁explo	-6270
▁phase	-6271
▁purch	-6272
▁rocks	-6273
▁tight	-6274
▁weigh	-6275
▁Health	-6276
▁Oxford	-6277
▁absorb	-6278
▁gender	-6279
▁immune	-6280
▁narrow	-6281
▁oldest	-6282
▁rescue	-6283
▁stayed	-6284
▁survey	-6285
▁Vietnam	-6286
▁William	-6287
▁clothes	-6288
▁diagram	-6289
▁earthqu	-6290
▁entered	-6291
▁exposed	-6292
▁pyramid	-6293
▁samples	-6294
▁savings	-6295
▁section	-6296
▁spectac	-6297
▁touched	-6298
▁Congress	-6299
▁Remember	-6300
▁Research	-6301
▁appeared	-6302
▁lighting	-6303
▁obsessed	-6304
▁textbook	-6305
▁Hollywood	-6306
▁collected	-6307
▁consumers	-6308
▁economies	-6309
▁increases	-6310
▁intuitive	-6311
▁accessible	-6312
▁demonstrate	-6313
▁manufacture	-6314
▁sustainability	-6315
3.	-6316
der	-6317
gly	-6318
hol	-6319
usi	-6320
▁KB	-6321
ords	-6322
prod	-6323
utch	-6324
▁Wal	-6325
▁anx	-6326
▁gig	-6327
▁tro	-6328
class	-6329
eters	-6330
▁Only	-6331
▁clus	-6332
▁enth	-6333
▁ille	-6334
▁ours	-6335
▁wise	-6336
angers	-6337
commun	-6338
mented	-6339
usions	-6340
▁Democ	-6341
▁cliff	-6342
▁dirty	-6343
▁fixed	-6344
▁gradu	-6345
▁grows	-6346
▁lying	-6347
▁polar	-6348
▁20,000	-6349
▁Russia	-6350
▁chocol	-6351
▁execut	-6352
▁limits	-6353
▁neuron	-6354
▁stable	-6355
▁carried	-6356
▁metabol	-6357
▁muscles	-6358
▁pretend	-6359
▁pushing	-6360
connected	-6361
▁drinking	-6362
▁embedded	-6363
▁estimate	-6364
▁manifest	-6365
▁reaching	-6366
▁treating	-6367
▁animation	-6368
▁backwards	-6369
▁resistance	-6370
▁interactive	-6371
▁architectural	-6372
Let	-6373
agh	-6374
imp	-6375
oir	-6376
sey	-6377
▁NG	-6378
▁Sa	-6379
char	-6380
coll	-6381
ione	-6382
oded	-6383
oned	-6384
thal	-6385
▁9/1	-6386
▁Bel	-6387
▁Mah	-6388
▁Sur	-6389
eller	-6390
esome	-6391
flies	-6392
osure	-6393
▁bath	-6394
▁eleg	-6395
▁murd	-6396
▁pool	-6397
▁zone	-6398
imeter	-6399
▁Video	-6400
▁adopt	-6401
▁delic	-6402
▁digit	-6403
▁roots	-6404
▁scary	-6405
▁smoke	-6406
▁agreed	-6407
▁button	-6408
▁negoti	-6409
▁trends	-6410
▁airport	-6411
▁aspects	-6412
▁embrace	-6413
▁guarant	-6414
▁happier	-6415
▁lecture	-6416
▁license	-6417
▁nowhere	-6418
▁suicide	-6419
▁maintain	-6420
▁organize	-6421
▁recovery	-6422
▁conflicts	-6423
▁curiosity	-6424
▁destroyed	-6425
▁narrative	-6426
▁precisely	-6427
▁afterwards	-6428
▁controvers	-6429
▁microscope	-6430
storytelling	-6431
▁ingredients	-6432
▁probability	-6433
Be	-6434
And	-6435
asy	-6436
den	-6437
ida	-6438
opy	-6439
rav	-6440
ups	-6441
eart	-6442
lymp	-6443
onic	-6444
rous	-6445
▁195	-6446
▁Bay	-6447
▁hey	-6448
andel	-6449
angle	-6450
itors	-6451
obile	-6452
▁1990	-6453
▁Hans	-6454
▁June	-6455
▁ages	-6456
▁axis	-6457
▁bold	-6458
▁caps	-6459
▁grab	-6460
▁lift	-6461
▁pupp	-6462
ership	-6463
hattan	-6464
unning	-6465
▁Antar	-6466
▁Olymp	-6467
▁alien	-6468
▁imper	-6469
▁proof	-6470
▁spots	-6471
▁toile	-6472
uration	-6473
▁conven	-6474
▁frozen	-6475
▁prosth	-6476
▁tribes	-6477
changing	-6478
▁January	-6479
▁Nothing	-6480
▁Perhaps	-6481
▁bicycle	-6482
▁mystery	-6483
▁pulling	-6484
▁session	-6485
invention	-6486
▁Ethiopia	-6487
▁Stanford	-6488
▁achieved	-6489
▁attached	-6490
▁attribut	-6491
▁contrast	-6492
▁graphics	-6493
▁outcomes	-6494
▁provided	-6495
▁vertical	-6496
▁Manhattan	-6497
▁adventure	-6498
▁dedicated	-6499
▁recording	-6500
▁virtually	-6501
environment	-6502
▁industries	-6503
▁conversations	-6504
EC	-6505
St	-6506
hh	-6507
oor	-6508
sec	-6509
▁$1	-6510
chem	-6511
gent	-6512
keep	-6513
osen	-6514
▁Bob	-6515
▁Hey	-6516
▁Pol	-6517
▁bat	-6518
▁bon	-6519
▁hem	-6520
ended	-6521
ingly	-6522
iogen	-6523
orter	-6524
pring	-6525
tical	-6526
▁Part	-6527
▁bubb	-6528
▁chip	-6529
▁firm	-6530
▁fulf	-6531
▁pour	-6532
▁publ	-6533
▁rely	-6534
▁scar	-6535
▁Haiti	-6536
▁anger	-6537
▁chief	-6538
▁links	-6539
▁phant	-6540
▁realm	-6541
▁relax	-6542
▁renew	-6543
▁stere	-6544
▁uncom	-6545
▁upset	-6546
▁Martin	-6547
▁Really	-6548
▁Rwanda	-6549
▁adoles	-6550
▁chosen	-6551
▁flower	-6552
▁paraly	-6553
▁refuge	-6554
▁thrown	-6555
▁briefly	-6556
▁concern	-6557
▁consume	-6558
▁defense	-6559
▁granted	-6560
▁initial	-6561
▁neither	-6562
▁recover	-6563
▁regener	-6564
▁removed	-6565
▁scratch	-6566
▁tragedy	-6567
happiness	-6568
▁calculate	-6569
▁providing	-6570
▁religions	-6571
▁collection	-6572
▁greenhouse	-6573
▁underlying	-6574
▁recognition	-6575
▁agricultural	-6576
▁vulnerability	-6577
aws	-6578
bar	-6579
uum	-6580
conf	-6581
ests	-6582
rary	-6583
udes	-6584
west	-6585
▁Leg	-6586
▁Moo	-6587
▁Pre	-6588
▁Ten	-6589
▁cab	-6590
▁hip	-6591
▁hol	-6592
▁jug	-6593
acing	-6594
brain	-6595
iders	-6596
inter	-6597
nding	-6598
stage	-6599
▁1960	-6600
▁flip	-6601
▁laid	-6602
▁neat	-6603
▁stri	-6604
▁ther	-6605
action	-6606
market	-6607
▁River	-6608
▁aside	-6609
▁brown	-6610
▁bucks	-6611
▁fears	-6612
▁flour	-6613
▁fluid	-6614
forward	-6615
history	-6616
▁50,000	-6617
▁Howard	-6618
▁adjust	-6619
▁arrest	-6620
▁assemb	-6621
▁candid	-6622
▁escape	-6623
▁hearts	-6624
▁portra	-6625
▁scales	-6626
▁struck	-6627
esthesia	-6628
▁anticip	-6629
▁obesity	-6630
▁Northern	-6631
▁breaking	-6632
▁hardware	-6633
▁constrain	-6634
▁elsewhere	-6635
▁emergency	-6636
▁encounter	-6637
performance	-6638
▁department	-6639
▁fascinated	-6640
▁governance	-6641
▁performing	-6642
▁recognized	-6643
▁application	-6644
▁personality	-6645
▁breakthrough	-6646
▁conservation	-6647
▁psychological	-6648
].	-6649
fe	-6650
uan	-6651
▁95	-6652
expl	-6653
free	-6654
lete	-6655
onym	-6656
ubes	-6657
ulum	-6658
▁Dis	-6659
▁Ray	-6660
▁Sar	-6661
▁Six	-6662
▁enh	-6663
▁meg	-6664
agger	-6665
archy	-6666
going	-6667
ribly	-6668
▁Tony	-6669
▁bull	-6670
▁butt	-6671
▁fool	-6672
▁mice	-6673
▁pile	-6674
▁prem	-6675
▁rail	-6676
▁rush	-6677
▁tuna	-6678
▁ugly	-6679
future	-6680
lation	-6681
uctive	-6682
▁Black	-6683
▁House	-6684
▁shrim	-6685
▁tired	-6686
▁compos	-6687
▁emphas	-6688
▁excell	-6689
▁volcan	-6690
▁worker	-6691
▁General	-6692
▁conserv	-6693
▁distant	-6694
▁footage	-6695
▁inspire	-6696
▁monitor	-6697
▁suspect	-6698
▁Atlantic	-6699
▁contains	-6700
▁illusion	-6701
▁imagined	-6702
▁northern	-6703
▁produces	-6704
▁frequency	-6705
▁glamorous	-6706
▁intention	-6707
▁reduction	-6708
engineering	-6709
▁contribute	-6710
▁integrated	-6711
▁journalist	-6712
▁resilience	-6713
▁volunteers	-6714
▁consequence	-6715
▁grandfather	-6716
▁photography	-6717
▁characteristics	-6718
6.	-6719
uk	-6720
ye	-6721
za	-6722
low	-6723
▁Hi	-6724
grow	-6725
iens	-6726
rant	-6727
rint	-6728
▁Bro	-6729
▁cup	-6730
aming	-6731
opher	-6732
▁Arch	-6733
▁Long	-6734
▁biod	-6735
▁brib	-6736
▁carr	-6737
▁cave	-6738
▁dile	-6739
▁dust	-6740
▁ethn	-6741
erving	-6742
source	-6743
▁Nobel	-6744
▁Scott	-6745
▁Space	-6746
▁abund	-6747
▁drawn	-6748
▁drove	-6749
▁exped	-6750
▁maxim	-6751
▁mixed	-6752
▁opens	-6753
▁spell	-6754
▁wound	-6755
▁yours	-6756
erences	-6757
▁Nature	-6758
▁intrig	-6759
▁layers	-6760
▁locked	-6761
▁mainly	-6762
▁nurses	-6763
▁regret	-6764
▁scenar	-6765
▁vacuum	-6766
▁Muslims	-6767
▁beliefs	-6768
▁phantom	-6769
▁brothers	-6770
▁crossing	-6771
▁football	-6772
▁repeated	-6773
▁continues	-6774
▁physicist	-6775
▁Revolution	-6776
▁populations	-6777
ban	-6778
mod	-6779
▁2,	-6780
▁Up	-6781
half	-6782
kind	-6783
oran	-6784
▁Cor	-6785
▁Fin	-6786
▁Lou	-6787
▁ack	-6788
▁aer	-6789
alian	-6790
level	-6791
omics	-6792
▁Hill	-6793
▁bars	-6794
▁dict	-6795
▁dive	-6796
▁glad	-6797
▁grat	-6798
▁leap	-6799
▁mate	-6800
▁pigs	-6801
▁subs	-6802
abetes	-6803
mitted	-6804
ptions	-6805
▁Cambr	-6806
▁Super	-6807
▁aesth	-6808
▁dilem	-6809
▁fifth	-6810
▁fuels	-6811
▁holds	-6812
▁proto	-6813
▁units	-6814
▁usual	-6815
▁utter	-6816
▁actors	-6817
▁breaks	-6818
▁degrad	-6819
▁emerge	-6820
▁landed	-6821
▁phrase	-6822
▁placed	-6823
▁robust	-6824
▁signed	-6825
▁tested	-6826
▁weapon	-6827
▁Angeles	-6828
▁illegal	-6829
▁sensory	-6830
▁slavery	-6831
▁traject	-6832
▁darkness	-6833
▁includes	-6834
▁pandemic	-6835
▁tracking	-6836
psychology	-6837
▁apartment	-6838
▁depressed	-6839
▁describes	-6840
▁musicians	-6841
▁privilege	-6842
▁earthquake	-6843
▁engagement	-6844
▁strategies	-6845
▁improvement	-6846
▁innovations	-6847
▁interacting	-6848
▁spectacular	-6849
▁contemporary	-6850
▁universities	-6851
DA	-6852
Can	-6853
aze	-6854
enh	-6855
▁id	-6856
fold	-6857
onna	-6858
oust	-6859
▁10-	-6860
▁Oct	-6861
▁Sou	-6862
▁bug	-6863
▁inh	-6864
▁obl	-6865
▁sed	-6866
gence	-6867
happy	-6868
iment	-6869
night	-6870
▁Blue	-6871
▁Time	-6872
▁adap	-6873
▁beer	-6874
▁cash	-6875
▁cott	-6876
▁hack	-6877
▁mail	-6878
semble	-6879
umines	-6880
▁blogs	-6881
▁cyber	-6882
▁drill	-6883
▁edges	-6884
▁fiber	-6885
▁pilot	-6886
▁strip	-6887
▁Amazon	-6888
▁Steven	-6889
▁borrow	-6890
▁crying	-6891
▁curric	-6892
▁inches	-6893
▁linear	-6894
▁retire	-6895
▁sacred	-6896
▁shaped	-6897
▁shrimp	-6898
▁anthrop	-6899
▁circles	-6900
▁hanging	-6901
▁housing	-6902
▁methods	-6903
▁reports	-6904
▁whereas	-6905
▁artistic	-6906
▁facility	-6907
▁involves	-6908
▁microbes	-6909
▁minister	-6910
▁policies	-6911
▁traveled	-6912
▁accidents	-6913
▁generated	-6914
▁paintings	-6915
▁qualities	-6916
▁separated	-6917
▁terrorism	-6918
▁collecting	-6919
▁correspond	-6920
▁ridiculous	-6921
▁observation	-6922
▁predictions	-6923
▁biodiversity	-6924
MS	-6925
hr	-6926
che	-6927
law	-6928
mal	-6929
vit	-6930
▁Bo	-6931
▁Bu	-6932
ault	-6933
heim	-6934
iday	-6935
imal	-6936
ropy	-6937
thur	-6938
uity	-6939
yrus	-6940
▁'60	-6941
▁Fre	-6942
▁Hel	-6943
▁ain	-6944
▁ham	-6945
▁jun	-6946
▁lun	-6947
opath	-6948
▁1970	-6949
▁Flor	-6950
▁Hall	-6951
▁Sund	-6952
▁cute	-6953
▁pink	-6954
energy	-6955
othing	-6956
struct	-6957
▁Congo	-6958
▁Italy	-6959
▁Jesus	-6960
▁Ocean	-6961
▁burst	-6962
▁crops	-6963
▁likes	-6964
▁medic	-6965
▁miser	-6966
▁pione	-6967
▁sauce	-6968
▁sharp	-6969
▁spont	-6970
▁trash	-6971
▁tribe	-6972
▁youth	-6973
angible	-6974
▁devast	-6975
▁killer	-6976
▁legacy	-6977
▁offers	-6978
ventions	-6979
▁amongst	-6980
▁awesome	-6981
▁disturb	-6982
▁forests	-6983
▁hitting	-6984
▁letting	-6985
▁receive	-6986
▁torture	-6987
▁writers	-6988
▁climbing	-6989
▁conclude	-6990
▁engaging	-6991
▁focusing	-6992
▁mosquito	-6993
▁sleeping	-6994
▁stations	-6995
▁chocolate	-6996
▁insurance	-6997
▁lifestyle	-6998
▁Department	-6999
▁optimistic	-7000
▁resolution	-7001
▁simulation	-7002
▁cooperation	-7003
▁translation	-7004
▁unbelievable	-7005
-1	-7006
ET	-7007
va	-7008
bul	-7009
lyn	-7010
▁GP	-7011
▁IM	-7012
▁PM	-7013
cers	-7014
exas	-7015
liam	-7016
ober	-7017
ocin	-7018
rict	-7019
wart	-7020
▁700	-7021
▁800	-7022
▁Que	-7023
▁Sov	-7024
▁ooh	-7025
There	-7026
capes	-7027
gener	-7028
icket	-7029
worth	-7030
▁Comp	-7031
▁Ford	-7032
▁Josh	-7033
▁Wall	-7034
▁dumb	-7035
▁excl	-7036
▁meal	-7037
▁rent	-7038
▁tone	-7039
▁toys	-7040
Americ	-7041
icious	-7042
utical	-7043
▁Moore	-7044
▁Third	-7045
▁blank	-7046
▁cryst	-7047
▁nerve	-7048
▁spark	-7049
▁agenda	-7050
▁attend	-7051
▁barrel	-7052
▁colony	-7053
▁farmer	-7054
▁hardly	-7055
▁powers	-7056
▁shadow	-7057
▁stores	-7058
▁suffer	-7059
▁surely	-7060
▁transp	-7061
▁trucks	-7062
▁Nations	-7063
▁Neander	-7064
▁October	-7065
▁charges	-7066
▁clients	-7067
▁diverse	-7068
▁efforts	-7069
▁enthusi	-7070
▁fiction	-7071
▁habitat	-7072
▁raising	-7073
▁revenue	-7074
▁symbols	-7075
▁Somebody	-7076
▁concrete	-7077
▁diabetes	-7078
▁domestic	-7079
▁fabulous	-7080
▁elections	-7081
▁positions	-7082
▁variation	-7083
▁apparently	-7084
▁functional	-7085
▁traditions	-7086
▁computation	-7087
▁uncertainty	-7088
▁International	-7089
ali	-7090
auc	-7091
nat	-7092
raw	-7093
see	-7094
sun	-7095
ails	-7096
apor	-7097
arsh	-7098
cost	-7099
iban	-7100
icop	-7101
mind	-7102
rons	-7103
with	-7104
▁MRI	-7105
▁Net	-7106
▁Sam	-7107
▁fib	-7108
▁ink	-7109
asses	-7110
isten	-7111
▁dump	-7112
▁rice	-7113
▁salt	-7114
aching	-7115
izarre	-7116
mingly	-7117
▁Texas	-7118
▁aband	-7119
▁actor	-7120
▁disag	-7121
▁fruit	-7122
▁genoc	-7123
▁paras	-7124
▁reson	-7125
▁tasks	-7126
▁wired	-7127
liament	-7128
▁branch	-7129
▁margin	-7130
▁neural	-7131
▁orange	-7132
▁pushed	-7133
▁silent	-7134
▁sticks	-7135
▁tumors	-7136
▁Florida	-7137
▁Redwood	-7138
▁Taliban	-7139
▁cheaper	-7140
▁instant	-7141
▁picking	-7142
▁serving	-7143
aceutical	-7144
▁distract	-7145
▁elephant	-7146
▁entering	-7147
▁unlikely	-7148
▁airplanes	-7149
▁explosion	-7150
▁jellyfish	-7151
▁paralyzed	-7152
▁permanent	-7153
▁telescope	-7154
▁transcend	-7155
▁affordable	-7156
▁boundaries	-7157
▁capability	-7158
▁ecosystems	-7159
▁expectancy	-7160
▁proportion	-7161
▁represented	-7162
▁photographer	-7163
▁transmission	-7164
▁globalization	-7165
▁communications	-7166
▁representation	-7167
aj	-7168
aby	-7169
bed	-7170
dis	-7171
elf	-7172
ndr	-7173
▁Cr	-7174
▁Ty	-7175
When	-7176
ahar	-7177
ding	-7178
lets	-7179
uces	-7180
zees	-7181
▁120	-7182
▁191	-7183
▁Sea	-7184
▁Ser	-7185
▁Sus	-7186
▁hat	-7187
ckets	-7188
itous	-7189
maker	-7190
ogram	-7191
women	-7192
ynman	-7193
▁Camp	-7194
▁Same	-7195
▁Sing	-7196
▁cous	-7197
▁dear	-7198
▁flag	-7199
▁leaf	-7200
▁sits	-7201
▁sole	-7202
▁stom	-7203
minute	-7204
▁Peace	-7205
▁Smith	-7206
▁Yemen	-7207
▁agent	-7208
▁chron	-7209
▁finds	-7210
▁glaci	-7211
▁males	-7212
▁shake	-7213
▁skept	-7214
▁threw	-7215
viously	-7216
▁30,000	-7217
▁acknow	-7218
▁builds	-7219
▁buried	-7220
▁capita	-7221
▁clinic	-7222
▁hungry	-7223
▁ignore	-7224
▁needle	-7225
▁relief	-7226
▁secure	-7227
▁subtle	-7228
▁theore	-7229
▁Johnson	-7230
▁bizarre	-7231
▁comprom	-7232
▁emerged	-7233
▁entropy	-7234
▁imagery	-7235
▁robotic	-7236
▁controls	-7237
▁disorder	-7238
▁dominant	-7239
▁extended	-7240
▁geometry	-7241
▁incident	-7242
▁inherent	-7243
▁perceive	-7244
▁colleague	-7245
▁daughters	-7246
▁philosoph	-7247
▁searching	-7248
▁synthetic	-7249
▁explaining	-7250
▁historical	-7251
▁constructed	-7252
▁discoveries	-7253
▁transparent	-7254
▁interactions	-7255
▁photographed	-7256
CA	-7257
OK	-7258
So	-7259
eps	-7260
ixt	-7261
kin	-7262
▁CD	-7263
▁ub	-7264
ason	-7265
ette	-7266
evin	-7267
icks	-7268
iler	-7269
itan	-7270
omin	-7271
▁Aug	-7272
▁LED	-7273
▁Sal	-7274
▁cyl	-7275
▁dow	-7276
aning	-7277
gency	-7278
licit	-7279
ostic	-7280
tocin	-7281
umble	-7282
▁Give	-7283
▁Homo	-7284
▁Star	-7285
▁cham	-7286
▁fung	-7287
▁gaps	-7288
▁seek	-7289
arency	-7290
ibrary	-7291
iverse	-7292
ughter	-7293
▁Gates	-7294
▁intim	-7295
▁judge	-7296
▁legit	-7297
▁memes	-7298
▁persu	-7299
▁score	-7300
▁silly	-7301
▁spray	-7302
▁yield	-7303
▁Newton	-7304
▁adding	-7305
▁column	-7306
▁extrem	-7307
▁formal	-7308
▁funded	-7309
▁halluc	-7310
▁invite	-7311
▁jumped	-7312
▁lawyer	-7313
▁manual	-7314
▁simult	-7315
▁sports	-7316
▁stages	-7317
▁thresh	-7318
andering	-7319
novation	-7320
▁Feynman	-7321
▁Whereas	-7322
▁closing	-7323
▁methane	-7324
▁parties	-7325
▁promote	-7326
▁reminds	-7327
▁speaker	-7328
▁suspend	-7329
▁winning	-7330
▁Children	-7331
▁Minister	-7332
▁confront	-7333
▁morality	-7334
▁tendency	-7335
▁theories	-7336
▁Cambridge	-7337
▁immediate	-7338
▁predicted	-7339
▁protocell	-7340
otechnology	-7341
▁biologists	-7342
▁curriculum	-7343
▁dictionary	-7344
▁motivation	-7345
▁translated	-7346
▁exponential	-7347
▁restaurants	-7348
▁underground	-7349
▁experimental	-7350
▁institutional	-7351
▁pharmaceutical	-7352
dig	-7353
exp	-7354
omy	-7355
uba	-7356
uke	-7357
▁55	-7358
▁SW	-7359
▁na	-7360
agen	-7361
agon	-7362
ague	-7363
aves	-7364
bits	-7365
ghai	-7366
olas	-7367
osal	-7368
raph	-7369
▁Den	-7370
▁Ext	-7371
▁Mag	-7372
▁Was	-7373
▁cas	-7374
▁gro	-7375
▁tip	-7376
copes	-7377
ensus	-7378
ffect	-7379
jamin	-7380
ville	-7381
▁Leon	-7382
▁Talk	-7383
▁Walk	-7384
▁demo	-7385
▁hire	-7386
▁iPod	-7387
▁kiss	-7388
▁rats	-7389
▁whis	-7390
iences	-7391
▁Carol	-7392
▁Delhi	-7393
▁Stage	-7394
▁Watch	-7395
▁apple	-7396
▁champ	-7397
▁chaos	-7398
▁foods	-7399
▁gonna	-7400
▁kills	-7401
▁nucle	-7402
▁nurse	-7403
▁opera	-7404
▁reefs	-7405
▁sheet	-7406
▁tears	-7407
▁unpre	-7408
▁views	-7409
ishment	-7410
▁barely	-7411
▁observ	-7412
▁served	-7413
▁subway	-7414
▁Abraham	-7415
▁analyze	-7416
▁bubbles	-7417
▁ceiling	-7418
▁fragile	-7419
▁glamour	-7420
▁graphic	-7421
▁immense	-7422
▁involve	-7423
▁liberal	-7424
▁persist	-7425
▁puzzles	-7426
▁secrets	-7427
▁spreads	-7428
▁visited	-7429
▁academic	-7430
▁genetics	-7431
▁leverage	-7432
▁southern	-7433
▁Obviously	-7434
▁announced	-7435
▁committed	-7436
▁forgotten	-7437
▁physician	-7438
▁continuous	-7439
▁operations	-7440
▁description	-7441
▁genetically	-7442
▁successfully	-7443
▁collaborative	-7444
Ch	-7445
gr	-7446
col	-7447
dem	-7448
erd	-7449
ilm	-7450
ona	-7451
pie	-7452
tra	-7453
▁3.	-7454
▁Ap	-7455
▁JH	-7456
aret	-7457
born	-7458
fast	-7459
math	-7460
viol	-7461
▁20,	-7462
▁Far	-7463
▁Isn	-7464
▁Mod	-7465
▁Mom	-7466
▁Put	-7467
▁Wow	-7468
▁ski	-7469
▁wid	-7470
▁wra	-7471
iated	-7472
▁Coke	-7473
▁Cont	-7474
▁Coun	-7475
▁Jose	-7476
▁Rock	-7477
▁Shan	-7478
▁alph	-7479
▁dies	-7480
▁east	-7481
▁orph	-7482
▁suck	-7483
▁susp	-7484
▁tech	-7485
astics	-7486
ivered	-7487
ndrome	-7488
orious	-7489
urable	-7490
▁Koran	-7491
▁amate	-7492
▁audio	-7493
▁banks	-7494
▁blame	-7495
▁femin	-7496
▁outer	-7497
▁physi	-7498
▁prime	-7499
▁stair	-7500
▁stops	-7501
▁tooth	-7502
biology	-7503
century	-7504
embered	-7505
igation	-7506
▁Daniel	-7507
▁Mandel	-7508
▁Should	-7509
▁canopy	-7510
▁comedy	-7511
▁decent	-7512
▁missed	-7513
▁regime	-7514
▁senior	-7515
▁tracks	-7516
▁troops	-7517
▁vagina	-7518
interest	-7519
▁Central	-7520
▁beneath	-7521
▁bottles	-7522
▁helicop	-7523
▁reduced	-7524
▁asteroid	-7525
▁fraction	-7526
▁oxytocin	-7527
▁precious	-7528
▁shooting	-7529
▁transmit	-7530
▁exception	-7531
▁gathering	-7532
▁intuition	-7533
▁primitive	-7534
▁replicate	-7535
▁mysterious	-7536
▁protecting	-7537
▁struggling	-7538
▁assumptions	-7539
▁compassionate	-7540
ki	-7541
Who	-7542
apy	-7543
rob	-7544
tes	-7545
▁AI	-7546
erey	-7547
ewel	-7548
live	-7549
take	-7550
▁'70	-7551
▁Squ	-7552
▁Sud	-7553
▁egg	-7554
▁fet	-7555
▁wet	-7556
Sahar	-7557
anned	-7558
burgh	-7559
effic	-7560
lades	-7561
rence	-7562
trans	-7563
▁Adam	-7564
▁Gand	-7565
▁Mike	-7566
▁Span	-7567
▁Turn	-7568
▁Zero	-7569
▁bell	-7570
▁defe	-7571
▁odds	-7572
▁tied	-7573
▁trag	-7574
▁west	-7575
friend	-7576
lessly	-7577
nocent	-7578
vation	-7579
▁Charl	-7580
▁Dutch	-7581
▁Larry	-7582
▁Under	-7583
▁bears	-7584
▁begun	-7585
▁bored	-7586
▁camps	-7587
▁dough	-7588
▁eaten	-7589
▁immun	-7590
▁naked	-7591
▁schem	-7592
▁sixth	-7593
▁spill	-7594
▁surve	-7595
▁ubiqu	-7596
▁wider	-7597
Saharan	-7598
powered	-7599
working	-7600
▁Arctic	-7601
▁August	-7602
▁Turkey	-7603
▁cycles	-7604
▁expans	-7605
▁fertil	-7606
▁rarely	-7607
▁recess	-7608
▁skelet	-7609
▁talent	-7610
▁Islands	-7611
▁Whether	-7612
▁consult	-7613
▁crucial	-7614
▁forming	-7615
▁lawyers	-7616
▁mammals	-7617
▁offices	-7618
▁printed	-7619
▁printer	-7620
▁prosper	-7621
▁routine	-7622
▁sisters	-7623
▁statist	-7624
▁washing	-7625
▁Monterey	-7626
▁Secondly	-7627
▁Shanghai	-7628
▁accepted	-7629
▁captured	-7630
▁distingu	-7631
▁educated	-7632
▁figuring	-7633
▁Banglades	-7634
▁algorithm	-7635
▁classical	-7636
▁expanding	-7637
▁fortunate	-7638
▁gentleman	-7639
▁nutrition	-7640
▁practices	-7641
▁signature	-7642
▁assumption	-7643
▁difficulty	-7644
▁inevitable	-7645
▁originally	-7646
▁permission	-7647
▁rainforest	-7648
▁remembered	-7649
▁trajectory	-7650
▁chimpanzees	-7651
▁expectations	-7652
▁instructions	-7653
aid	-7654
ati	-7655
eda	-7656
iac	-7657
via	-7658
▁28	-7659
▁85	-7660
▁PC	-7661
▁["	-7662
aded	-7663
eday	-7664
ilit	-7665
izer	-7666
walk	-7667
ynth	-7668
▁'80	-7669
▁Ann	-7670
▁ash	-7671
▁cub	-7672
▁env	-7673
▁sav	-7674
▁sew	-7675
amine	-7676
anges	-7677
anzan	-7678
ctica	-7679
inson	-7680
olars	-7681
orden	-7682
▁Mary	-7683
▁Norm	-7684
▁Play	-7685
▁bind	-7686
▁biol	-7687
▁crew	-7688
▁dism	-7689
▁duck	-7690
▁hier	-7691
▁mode	-7692
▁tear	-7693
▁tsun	-7694
▁Trans	-7695
▁downt	-7696
▁embra	-7697
▁meter	-7698
▁owned	-7699
▁redef	-7700
▁restr	-7701
▁tiles	-7702
▁traum	-7703
▁winds	-7704
related	-7705
▁Jewish	-7706
▁Soviet	-7707
▁Tanzan	-7708
▁aggreg	-7709
▁clouds	-7710
▁comics	-7711
▁dragon	-7712
▁ending	-7713
▁garage	-7714
▁injury	-7715
▁nerves	-7716
▁poster	-7717
▁rhythm	-7718
▁stroke	-7719
▁toilet	-7720
▁tricks	-7721
▁Iceland	-7722
▁adopted	-7723
▁ecology	-7724
▁enterpr	-7725
▁failing	-7726
▁impacts	-7727
▁magical	-7728
▁painted	-7729
▁portion	-7730
▁rebuild	-7731
▁synthes	-7732
▁wealthy	-7733
▁database	-7734
▁detailed	-7735
▁friendly	-7736
▁homework	-7737
▁magnific	-7738
▁memories	-7739
▁reported	-7740
▁terribly	-7741
▁customers	-7742
▁delivered	-7743
▁detection	-7744
▁highlight	-7745
▁realizing	-7746
▁responses	-7747
▁supported	-7748
▁Antarctica	-7749
▁compelling	-7750
▁determined	-7751
▁disappoint	-7752
▁ecological	-7753
▁vegetables	-7754
▁surprisingly	-7755
▁interestingly	-7756
Wow	-7757
eds	-7758
ini	-7759
sex	-7760
▁Ok	-7761
▁RS	-7762
▁gh	-7763
abil	-7764
agos	-7765
aped	-7766
cycl	-7767
enly	-7768
iety	-7769
illa	-7770
ourt	-7771
sell	-7772
umin	-7773
wind	-7774
▁202	-7775
▁350	-7776
▁Jud	-7777
▁Ven	-7778
▁ath	-7779
▁lob	-7780
▁tut	-7781
humor	-7782
istot	-7783
media	-7784
ysics	-7785
▁1980	-7786
▁Bron	-7787
▁Febr	-7788
▁Fore	-7789
▁Gene	-7790
▁Math	-7791
▁Mill	-7792
▁Wolf	-7793
▁bang	-7794
▁gate	-7795
▁guns	-7796
▁hill	-7797
▁hybr	-7798
▁inch	-7799
▁junk	-7800
▁logo	-7801
▁mall	-7802
▁meme	-7803
▁mesh	-7804
▁neck	-7805
▁sacr	-7806
ifully	-7807
person	-7808
soever	-7809
▁Brian	-7810
▁Hawai	-7811
▁energ	-7812
▁joint	-7813
▁legis	-7814
▁route	-7815
▁screw	-7816
▁tends	-7817
▁twist	-7818
▁uncle	-7819
▁weeke	-7820
▁wires	-7821
looking	-7822
poverty	-7823
reating	-7824
ressing	-7825
▁Scient	-7826
▁Within	-7827
▁arrive	-7828
▁caring	-7829
▁cheese	-7830
▁client	-7831
▁domain	-7832
▁golden	-7833
▁lowest	-7834
▁marvel	-7835
▁occurs	-7836
▁partly	-7837
▁recept	-7838
▁reveal	-7839
▁traits	-7840
American	-7841
▁Aristot	-7842
▁Russian	-7843
▁Stephen	-7844
▁chances	-7845
▁contrad	-7846
▁cricket	-7847
▁deserve	-7848
▁despair	-7849
▁fastest	-7850
▁formula	-7851
▁founded	-7852
▁origins	-7853
▁penguin	-7854
▁prepare	-7855
▁selfish	-7856
▁February	-7857
▁articles	-7858
▁clothing	-7859
▁flexible	-7860
▁genocide	-7861
▁globally	-7862
▁preserve	-7863
▁returned	-7864
▁shocking	-7865
▁shopping	-7866
▁smallest	-7867
▁substant	-7868
▁syndrome	-7869
▁audiences	-7870
▁	-7871
e	-7872
t	-7873
o	-7874
a	-7875
n	-7876
i	-7877
s	-7878
r	-7879
h	-7880
l	-7881
d	-7882
u	-7883
c	-7884
m	-7885
y	-7886
w	-7887
g	-7888
f	-7889
p	-7890
,	-7891
.	-7892
b	-7893
v	-7894
k	-7895
'	-7896
I	-7897
-	-7898
A	-7899
T	-7900
S	-7901
"	-7902
W	-7903
x	-7904
0	-7905
B	-7906
j	-7907
?	-7908
N	-7909
z	-7910
:	-7911
H	-7912
M	-7913
C	-7914
1	-7915
q	-7916
D	-7917
Y	-7918
E	-7919
O	-7920
_	-7921
P	-7922
2	-7923
G	-7924
L	-7925
/	-7926
R	-7927
F	-7928
5	-7929
♫	-7930
K	-7931
9	-7932
J	-7933
3	-7934
;	-7935
U	-7936
4	-7937
8	-7938
6	-7939
V	-7940
7	-7941
!	-7942
’	-7943
[	-7944
]	-7945
Z	-7946
Q	-7947
X	-7948
$	-7949
—	-7950
<	-7951
>	-7952
&	-7953
é	-7954
+	-7955
=	-7956
“	-7957
”	-7958
#	-7959
ö	-7960
)	-7961
@	-7962
á	-7963
ó	-7964
è	-7965
–	-7966
%	-7967
(	-7968
ä	-7969
í	-7970
ü	-7971
*	-7972
^	-7973
ê	-7974
ñ	-7975
£	-7976
É	-7977
ã	-7978
ø	-7979
\	-7980
Ç	-7981
à	-7982
â	-7983
ç	-7984
ë	-7985
ï	-7986
ú	-7987
ā	-7988
Ă	-7989
ē	-7990
Ť	-7991
̊	-7992
‘	-7993
你	-7994
葱	-7995
送	-7996
