{"<|EOS|>": 0, "<|PAD|>": 1, "<|UNK|>": 2, "▁http": 3, "://": 4, "www": 5, ".": 6, "ted": 7, "com": 8, "/": 9, "talks": 10, "st": 11, "ep": 12, "hen": 13, "_": 14, "p": 15, "al": 16, "umb": 17, "i": 18, "f": 19, "o": 20, "llow": 21, "ing": 22, "the": 23, "mer": 24, "c": 25, "ury": 26, "tra": 27, "il": 28, "html": 29, "▁There": 30, "'": 31, "s": 32, "▁a": 33, "▁tight": 34, "▁and": 35, "▁surprising": 36, "▁link": 37, "▁between": 38, "▁the": 39, "▁ocean": 40, "▁health": 41, "▁ours": 42, ",": 43, "▁says": 44, "▁marine": 45, "▁bi": 46, "ologist": 47, "▁Stephen": 48, "▁Pal": 49, "▁He": 50, "▁shows": 51, "▁how": 52, "▁tox": 53, "ins": 54, "▁at": 55, "▁bottom": 56, "▁of": 57, "▁food": 58, "▁chain": 59, "▁find": 60, "▁their": 61, "▁way": 62, "▁into": 63, "▁our": 64, "▁bodies": 65, "▁with": 66, "▁shocking": 67, "▁story": 68, "▁toxic": 69, "▁cont": 70, "am": 71, "ination": 72, "▁from": 73, "▁Japanese": 74, "▁fish": 75, "▁market": 76, "▁His": 77, "▁work": 78, "▁points": 79, "▁forward": 80, "▁for": 81, "▁saving": 82, "▁oceans": 83, "▁--": 84, "▁humanity": 85, "health": 86, "mission": 87, "▁blue": 88, "ce": 89, "ans": 90, "science": 91, "▁8": 92, "9": 93, ":": 94, "▁F": 95, "▁mer": 96, "▁tra": 97, "▁It": 98, "▁can": 99, "▁be": 100, "▁very": 101, "▁complicated": 102, "▁thing": 103, "▁And": 104, "▁it": 105, "▁what": 106, "▁human": 107, "▁is": 108, "▁bringing": 109, "▁those": 110, "▁two": 111, "▁together": 112, "▁might": 113, "▁seem": 114, "▁da": 115, "unting": 116, "▁task": 117, "▁but": 118, "▁I": 119, "m": 120, "▁going": 121, "▁to": 122, "▁try": 123, "▁say": 124, "▁that": 125, "▁even": 126, "▁in": 127, "▁complexity": 128, "▁there": 129, "▁some": 130, "▁simple": 131, "▁them": 132, "es": 133, "▁think": 134, "▁if": 135, "▁we": 136, "▁understand": 137, "▁really": 138, "▁move": 139, "▁aren": 140, "t": 141, "▁about": 142, "▁complex": 143, "▁science": 144, "▁on": 145, "▁things": 146, "▁all": 147, "▁pretty": 148, "▁well": 149, "▁know": 150, "▁start": 151, "▁this": 152, "▁one": 153, "▁If": 154, "▁mom": 155, "ma": 156, "▁ain": 157, "▁happy": 158, "▁nobody": 159, "▁We": 160, "▁right": 161, "?": 162, "ve": 163, "▁experienced": 164, "▁just": 165, "▁take": 166, "▁build": 167, "▁then": 168, "▁go": 169, "▁next": 170, "▁step": 171, "▁which": 172, "▁That": 173, "▁theme": 174, "▁my": 175, "▁talk": 176, "re": 177, "▁making": 178, "▁un": 179, "happy": 180, "▁lot": 181, "▁different": 182, "▁ways": 183, "▁This": 184, "▁shot": 185, "▁Can": 186, "ner": 187, "y": 188, "▁R": 189, "ow": 190, "▁19": 191, "3": 192, "2.": 193, "▁time": 194, "▁had": 195, "▁biggest": 196, "▁industrial": 197, "ning": 198, "▁operation": 199, "▁west": 200, "▁coast": 201, "▁pil": 202, "ed": 203, "▁enormous": 204, "▁amounts": 205, "▁pollution": 206, "▁air": 207, "▁water": 208, "olf": 209, "▁B": 210, "ol": 211, "in": 212, "▁who": 213, "▁was": 214, "▁professor": 215, "▁H": 216, "op": 217, "kin": 218, "▁Mar": 219, "ine": 220, "▁St": 221, "ation": 222, "▁where": 223, "▁wrote": 224, "▁194": 225, "0": 226, "▁\"": 227, "The": 228, "▁f": 229, "um": 230, "▁sc": 231, "▁floating": 232, "lets": 233, "▁b": 234, "ay": 235, "▁were": 236, "▁so": 237, "▁bad": 238, "▁they": 239, "▁turned": 240, "▁lead": 241, "-": 242, "based": 243, "▁pain": 244, "ts": 245, "▁black": 246, ".\"": 247, "▁People": 248, "▁working": 249, "▁these": 250, "ies": 251, "▁could": 252, "▁barely": 253, "▁stay": 254, "▁day": 255, "▁because": 256, "▁smell": 257, "▁you": 258, "▁came": 259, "▁out": 260, "▁saying": 261, "▁They": 262, "You": 263, "▁You": 264, "▁money": 265, "▁community": 266, "▁people": 267, "▁deal": 268, "▁absorb": 269, "▁skin": 270, "▁needed": 271, "▁made": 272, ";": 273, "▁The": 274, "▁connection": 275, "▁actually": 276, "▁based": 277, "▁upon": 278, "▁another": 279, "▁couple": 280, "▁ad": 281, "ages": 282, "▁want": 283, "▁call": 284, "ch": 285, "▁min": 286, "now": 287, "▁hurt": 288, "▁whale": 289, "▁pyramid": 290, "▁life": 291, "▁...": 292, "▁Now": 293, "▁when": 294, "▁an": 295, "▁ec": 296, "▁looks": 297, "▁have": 298, "▁tell": 299, "▁look": 300, "▁see": 301, "▁than": 302, "▁regular": 303, "▁person": 304, "▁inter": 305, "connect": 306, "ions": 307, "▁base": 308, "▁pl": 309, "ank": 310, "ton": 311, "▁small": 312, "▁animals": 313, "▁are": 314, "▁middle": 315, "▁up": 316, "▁diagram": 317, "▁flow": 318, "▁top": 319, "ologists": 320, "▁trying": 321, "▁preserve": 322, "S": 323, "ave": 324, "▁why": 325, "▁does": 326, "▁matter": 327, "▁Because": 328, "▁j": 329, "▁shouldn": 330, "▁fright": 331, "ening": 332, "▁happen": 333, "▁P": 334, "oll": 335, "ut": 336, "ants": 337, "▁pollut": 338, "▁been": 339, "▁created": 340, "▁by": 341, "▁us": 342, "▁molecules": 343, "▁like": 344, "▁PC": 345, "B": 346, "▁broken": 347, "▁down": 348, "▁dr": 349, "ift": 350, "▁passed": 351, "▁pred": 352, "ators": 353, "▁doing": 354, "▁accum": 355, "ulate": 356, "▁bring": 357, "▁home": 358, "▁thought": 359, "d": 360, "▁invent": 361, "▁little": 362, "▁game": 363, "▁don": 364, "▁play": 365, "▁here": 366, "ro": 367, "▁chocolate": 368, "▁Imagine": 369, "▁got": 370, "▁boat": 371, "▁given": 372, "▁pe": 373, "an": 374, "▁do": 375, "▁much": 376, "▁Put": 377, "▁your": 378, "▁pocket": 379, "▁Su": 380, "pp": 381, "ose": 382, "▁rules": 383, "▁every": 384, "▁offer": 385, "▁somebody": 386, "▁drink": 387, "▁give": 388, "▁too": 389, "▁What": 390, "ll": 391, "▁will": 392, "▁moving": 393, "▁through": 394, "▁society": 395, "unk": 396, "est": 397, "▁st": 398, "iest": 399, "▁no": 400, "▁mechanism": 401, "▁anywhere": 402, "▁bigger": 403, "▁pile": 404, "▁ind": 405, "ig": 406, "ible": 407, "▁exactly": 408, "▁happens": 409, "D": 410, "▁suppose": 411, "▁instead": 412, "▁lovely": 413, "▁chocol": 414, "ates": 415, "▁get": 416, "▁Well": 417, "▁would": 418, "▁eating": 419, "▁passing": 420, "▁around": 421, "ulating": 422, "▁pass": 423, "▁group": 424, "▁not": 425, "▁any": 426, "▁difference": 427, "▁something": 428, "▁natural": 429, "▁o": 430, "me": 431, "g": 432, "a": 433, "3,": 434, "▁great": 435, "▁examples": 436, "▁unfortunately": 437, "▁dolph": 438, "▁Sar": 439, "as": 440, "ota": 441, "▁Bay": 442, "▁Texas": 443, "▁North": 444, "▁Carol": 445, "ina": 446, "▁eat": 447, "▁being": 448, "▁fat": 449, "u": 450, "ble": 451, "▁mother": 452, "▁only": 453, "▁In": 454, "▁milk": 455, "▁Here": 456, "▁load": 457, "▁Ad": 458, "ult": 459, "▁males": 460, "▁huge": 461, "▁J": 462, "ven": 463, "iles": 464, "em": 465, "ales": 466, "▁after": 467, "▁first": 468, "▁c": 469, "alf": 470, "▁already": 471, "▁lower": 472, "▁Those": 473, "▁fem": 474, "▁own": 475, "▁off": 476, "pring": 477, "▁survive": 478, "▁death": 479, "▁rate": 480, "▁born": 481, "▁female": 482, "▁60": 483, "▁80": 484, "▁percent": 485, "▁These": 486, "▁mothers": 487, "▁pump": 488, "▁full": 489, "ant": 490, "▁most": 491, "▁die": 492, "▁reprod": 493, "uce": 494, "▁terrible": 495, "▁price": 496, "▁pay": 497, "ulation": 498, "born": 499, "ator": 500, "▁turns": 501, "▁course": 502, "▁also": 503, "▁meat": 504, "▁comes": 505, "▁same": 506, "▁places": 507, "▁photographed": 508, "▁gro": 509, "cer": 510, "▁store": 511, "▁To": 512, "ky": 513, "▁or": 514, "▁fact": 515, "▁did": 516, "▁few": 517, "▁years": 518, "▁ago": 519, "▁learn": 520, "▁sm": 521, "ug": 522, "gle": 523, "▁molecular": 524, "▁biology": 525, "▁lab": 526, "▁use": 527, "▁genetically": 528, "▁test": 529, "▁DNA": 530, "▁samples": 531, "▁identify": 532, "▁Some": 533, "▁illegal": 534, "▁But": 535, "▁Even": 536, "▁though": 537, "▁label": 538, "▁liver": 539, "▁bl": 540, "ub": 541, "ber": 542, "▁parts": 543, "▁dio": 544, "x": 545, "▁heavy": 546, "▁met": 547, "als": 548, "▁ate": 549, "▁sold": 550, "▁as": 551, "▁world": 552, "▁tragedy": 553, "▁populations": 554, "▁data": 555, "▁remember": 556, "▁sitting": 557, "▁desk": 558, "▁knew": 559, "▁markets": 560, "to": 561, "th": 562, "ree": 563, "4": 564, "00": 565, "▁times": 566, "▁ever": 567, "▁allowed": 568, "▁E": 569, "PA": 570, "▁thinking": 571, "Well": 572, "▁scientific": 573, "▁discovery": 574, ",\"": 575, "▁awful": 576, "▁career": 577, "▁broke": 578, "▁prot": 579, "ocol": 580, "▁publish": 581, "▁jour": 582, "n": 583, "▁begin": 584, "▁sent": 585, "▁pol": 586, "ite": 587, "▁letter": 588, "▁Minister": 589, "▁Health": 590, "▁Japan": 591, "▁simply": 592, "▁point": 593, "▁int": 594, "er": 595, "able": 596, "▁situation": 597, "▁may": 598, "▁breast": 599, "eed": 600, "▁young": 601, "▁children": 602, "▁buying": 603, "▁healthy": 604, "▁led": 605, "▁whole": 606, "▁series": 607, "▁other": 608, "▁campaign": 609, "▁proud": 610, "▁difficult": 611, "▁buy": 612, "▁anything": 613, "▁inc": 614, "or": 615, "rect": 616, "ly": 617, "▁still": 618, "▁selling": 619, "▁believe": 620, "▁least": 621, "▁correct": 622, "▁longer": 623, "▁isn": 624, "▁diet": 625, "▁communities": 626, "ad": 627, "ian": 628, "▁ar": 629, "ctic": 630, "▁United": 631, "▁States": 632, "▁European": 633, "▁se": 634, "▁whales": 635, "▁leads": 636, "▁g": 637, "ath": 638, "ered": 639, "▁ended": 640, "▁women": 641, "▁cannot": 642, "▁feed": 643, "▁part": 644, "▁means": 645, "▁immune": 646, "▁systems": 647, "▁comprom": 648, "ised": 649, "▁development": 650, "▁attention": 651, "▁over": 652, "▁last": 653, "▁decade": 654, "▁has": 655, "▁reduced": 656, "▁problem": 657, "▁changing": 658, "▁particularly": 659, "▁taken": 660, "▁order": 661, "▁solve": 662, "▁good": 663, "▁particular": 664, "▁ac": 665, "ute": 666, "▁nothing": 667, "▁breaking": 668, "▁back": 669, "▁sew": 670, "▁line": 671, "▁cl": 672, "og": 673, "ged": 674, "▁nutr": 675, "ients": 676, "age": 677, "▁fertil": 678, "izer": 679, "▁end": 680, "▁heard": 681, "▁before": 682, "▁red": 683, "▁t": 684, "ides": 685, "▁example": 686, "oms": 687, "▁alg": 688, "ae": 689, "▁causing": 690, "▁neuro": 691, "log": 692, "ical": 693, "▁damage": 694, "▁bacteria": 695, "▁viruses": 696, "▁sh": 697, "ots": 698, "ide": 699, "▁coming": 700, "ore": 701, "▁gen": 702, "us": 703, "▁vibr": 704, "io": 705, "▁includes": 706, "▁ch": 707, "era": 708, "▁How": 709, "▁many": 710, "▁seen": 711, "be": 712, "ach": 713, "▁closed": 714, "\"": 715, "▁sign": 716, "▁Why": 717, "med": 718, "ill": 719, "▁onto": 720, "▁beach": 721, "▁O": 722, "ft": 723, "en": 724, "ams": 725, "▁gone": 726, "▁state": 727, "▁park": 728, "▁national": 729, "▁big": 730, "▁front": 731, "C": 732, "l": 733, "osed": 734, "▁far": 735, "▁Not": 736, "▁often": 737, "▁wouldn": 738, "▁toler": 739, "ate": 740, "▁sw": 741, "ped": 742, "▁country": 743, "▁more": 744, "▁reason": 745, "▁either": 746, "▁question": 747, "▁clean": 748, "iness": 749, "▁organisms": 750, "▁turn": 751, "▁disease": 752, "ios": 753, "▁infect": 754, "▁create": 755, "▁graph": 756, "▁N": 757, "O": 758, "A": 759, "▁initi": 760, "ative": 761, "▁showing": 762, "▁rise": 763, "▁Sur": 764, "ers": 765, "▁incredibly": 766, "▁surf": 767, "▁sites": 768, "▁waves": 769, "▁weather": 770, "▁r": 771, "ider": 772, "▁fl": 773, "ashing": 774, "▁poo": 775, "▁al": 776, "ert": 777, "▁dangerous": 778, "▁place": 779, "▁carry": 780, "▁legacy": 781, "ion": 782, "▁long": 783, "▁carrying": 784, "▁antib": 785, "otic": 786, "▁resistance": 787, "▁genes": 788, "▁now": 789, "▁makes": 790, "▁harm": 791, "ful": 792, "▁gener": 793, "ating": 794, "▁kinds": 795, "▁chemicals": 796, "▁list": 797, "▁types": 798, "▁po": 799, "is": 800, "ons": 801, "▁come": 802, "▁shell": 803, "fish": 804, "▁poison": 805, "ater": 806, "▁di": 807, "arr": 808, "he": 809, "ic": 810, "▁neur": 811, "ot": 812, "ox": 813, "▁paraly": 814, "▁getting": 815, "ita": 816, "▁Cal": 817, "well": 818, "▁fam": 819, "ously": 820, "ced": 821, "▁interesting": 822, "▁brought": 823, "▁normal": 824, "▁ve": 825, "ctor": 826, "▁cop": 827, "od": 828, "▁Cop": 829, "▁cr": 830, "ust": 831, "ace": 832, "▁tiny": 833, "▁fraction": 834, "▁inch": 835, "▁legs": 836, "▁spark": 837, "▁epide": 838, "ics": 839, "▁port": 840, "▁along": 841, "▁increased": 842, "▁concent": 843, "ration": 844, "▁make": 845, "▁sure": 846, "ipping": 847, "▁doesn": 848, "ctors": 849, "▁So": 850, "▁major": 851, "▁problems": 852, "▁dis": 853, "rupt": 854, "▁ecosystem": 855, "▁block": 856, "▁sort": 857, "▁bunch": 858, "oe": 859, "▁Pl": 860, "umber": 861, "▁he": 862, "▁fix": 863, "▁hope": 864, "▁spots": 865, "▁able": 866, "▁fixed": 867, "▁gr": 868, "ips": 869, "▁issues": 870, "▁begun": 871, "▁Monterey": 872, "▁started": 873, "▁dist": 874, "ressed": 875, "▁industry": 876, "▁attend": 877, "2,": 878, "▁picture": 879, "▁200": 880, "9,": 881, "▁dramatically": 882, "▁ab": 883, "ated": 884, "▁greater": 885, "▁sense": 886, "▁individual": 887, "▁need": 888, "▁ecosystems": 889, "▁function": 890, "▁efforts": 891, "▁better": 892, "▁150": 893, "▁didn": 894, "▁accident": 895, "ally": 896, "▁happened": 897, "▁put": 898, "▁effort": 899, "▁pione": 900, "ering": 901, "▁spirit": 902, "▁On": 903, "▁left": 904, "▁Jul": 905, "ia": 906, "att": 907, "▁h": 908, "omet": 909, "own": 910, "▁Pacific": 911, "▁G": 912, "▁At": 913, "▁7": 914, "▁old": 915, "▁became": 916, "▁done": 917, "▁protect": 918, "1,": 919, "▁she": 920, "▁produced": 921, "▁California": 922, "▁protected": 923, "▁area": 924, "▁eventually": 925, "▁grow": 926, "▁seed": 927, "▁wanted": 928, "▁provide": 929, "▁Other": 930, "▁David": 931, "ack": 932, "ard": 933, "ie": 934, "▁instr": 935, "ental": 936, "▁producing": 937, "quar": 938, "ium": 939, "▁lo": 940, "ck": 941, "▁notion": 942, "▁important": 943, "▁economy": 944, "▁change": 945, "▁dramatic": 946, "▁shift": 947, "▁fortun": 948, "▁leave": 949, "▁connect": 950, "▁planet": 951, "▁ourselves": 952, "▁ter": 953, "str": 954, "ial": 955, "▁species": 956, "▁lives": 957, "▁land": 958, "ric": 959, "ately": 960, "▁connected": 961, "▁having": 962, "▁remain": 963, "▁Thank": 964, "j": 965, "ess": 966, "how": 967, "le": 968, "▁today": 969, "▁bal": 970, "ancing": 971, "▁school": 972, "▁kids": 973, "▁recommend": 974, "▁eight": 975, "▁hours": 976, "▁sleep": 977, "▁Ex": 978, "ining": 979, "▁behind": 980, "▁body": 981, "▁internal": 982, "▁clock": 983, "▁reve": 984, "▁substant": 985, "▁program": 986, "▁rest": 987, "▁should": 988, "▁obs": 989, "erving": 990, "▁evolution": 991, "human": 992, "ity": 993, "person": 994, "▁growth": 995, "self": 996, "▁95": 997, "7": 998, "▁Our": 999, "▁cycle": 1000, "▁Let": 1001, "▁night": 1002, "▁Life": 1003, "▁evolved": 1004, "▁under": 1005, "▁conditions": 1006, "▁light": 1007, "▁darkness": 1008, "▁plants": 1009, "▁developed": 1010, "▁ready": 1011, "▁changes": 1012, "▁chemical": 1013, "▁found": 1014, "▁known": 1015, "▁cells": 1016, "▁cell": 1017, "ors": 1018, "esh": 1019, "▁cra": 1020, "b": 1021, "▁fly": 1022, "▁across": 1023, "▁continent": 1024, "▁drop": 1025, "▁sl": 1026, "ram": 1027, "▁floor": 1028, "▁rising": 1029, "▁its": 1030, "▁sho": 1031, "res": 1032, "▁sk": 1033, "itter": 1034, "▁again": 1035, "▁rec": 1036, "▁thousands": 1037, "▁miles": 1038, "▁away": 1039, "▁weeks": 1040, "▁until": 1041, "▁kind": 1042, "▁grad": 1043, "ually": 1044, "▁l": 1045, "oses": 1046, "▁plot": 1047, "▁incredible": 1048, "▁watch": 1049, "▁psych": 1050, "▁par": 1051, "orm": 1052, "bs": 1053, "▁cycles": 1054, "▁correspond": 1055, "▁usually": 1056, "▁ability": 1057, "▁humans": 1058, "body": 1059, "▁clearly": 1060, "▁someone": 1061, "▁shut": 1062, "▁deep": 1063, "▁underground": 1064, "▁months": 1065, "▁volunte": 1066, "▁ra": 1067, "ving": 1068, "▁productive": 1069, "▁hole": 1070, "▁subjects": 1071, "▁show": 1072, "▁bit": 1073, "▁later": 1074, "▁15": 1075, "▁minutes": 1076, "▁rather": 1077, "▁somehow": 1078, "▁sens": 1079, "▁outside": 1080, "▁fine": 1081, "▁driver": 1082, "▁culture": 1083, "rated": 1084, "▁force": 1085, "▁behavior": 1086, "▁near": 1087, "▁equ": 1088, "equ": 1089, "ipped": 1090, "▁12": 1091, "light": 1092, "▁spread": 1093, "▁corner": 1094, "▁globe": 1095, "▁Arctic": 1096, "▁Canada": 1097, "▁live": 1098, "▁per": 1099, "pet": 1100, "ual": 1101, "▁summer": 1102, "▁24": 1103, "▁winter": 1104, "▁northern": 1105, "inal": 1106, "▁tradition": 1107, "▁highly": 1108, "▁season": 1109, "▁sleeping": 1110, "▁enjoy": 1111, "▁family": 1112, "▁inside": 1113, "▁almost": 1114, "▁man": 1115, "▁activity": 1116, "▁active": 1117, "▁rhythm": 1118, "▁patterns": 1119, "▁ideal": 1120, "▁living": 1121, "▁without": 1122, "▁artificial": 1123, "▁twice": 1124, "▁bed": 1125, "▁p": 1126, "▁mid": 1127, "night": 1128, "▁2": 1129, "▁sun": 1130, "r": 1131, "ise": 1132, "et": 1133, "ween": 1134, "▁med": 1135, "it": 1136, "▁quiet": 1137, "▁during": 1138, "▁surge": 1139, "▁pro": 1140, "act": 1141, "▁likes": 1142, "▁modern": 1143, "▁never": 1144, "▁sees": 1145, "▁studies": 1146, "▁report": 1147, "▁feeling": 1148, "▁aw": 1149, "ake": 1150, "time": 1151, "▁realize": 1152, "▁experien": 1153, "cing": 1154, "▁true": 1155, "▁wake": 1156, "ness": 1157, "▁cut": 1158, "ag": 1159, "▁global": 1160, "▁travel": 1161, "hour": 1162, "▁business": 1163, "▁adv": 1164, "▁costs": 1165, "hand": 1166, "co": 1167, "gen": 1168, "ius": 1169, "etry": 1170, "h": 1171, "ind": 1172, "war": 1173, "hor": 1174, "se": 1175, "P": 1176, "ets": 1177, "▁always": 1178, "▁alive": 1179, "▁K": 1180, "oh": 1181, "ler": 1182, "ands": 1183, "▁Com": 1184, "pan": 1185, "▁gl": 1186, "orious": 1187, "▁am": 1188, "bit": 1189, "ious": 1190, "▁trou": 1191, "pe": 1192, "▁wood": 1193, "▁actors": 1194, "▁Be": 1195, "gin": 1196, "ale": 1197, "▁hy": 1198, "ena": 1199, "▁subtle": 1200, "aw": 1201, "▁pupp": 1202, "e": 1203, "▁Bas": 1204, "ones": 1205, "▁latest": 1206, "▁aston": 1207, "ishment": 1208, "▁wonder": 1209, "fully": 1210, "like": 1211, "▁Jo": 1212, "ey": 1213, "▁War": 1214, "▁tr": 1215, "▁convin": 1216, "▁TED": 1217, "▁stage": 1218, "arts": 1219, "design": 1220, "entertainment": 1221, "▁11": 1222, "8": 1223, "▁Co": 1224, "▁genius": 1225, "▁horse": 1226, "▁A": 1227, "K": 1228, "▁ancest": 1229, "▁Okay": 1230, "ah": 1231, "▁production": 1232, "▁called": 1233, "F": 1234, "▁Africa": 1235, "rod": 1236, "uction": 1237, "▁199": 1238, "5,": 1239, "▁dra": 1240, "ught": 1241, "▁Hel": 1242, "▁T": 1243, "▁direct": 1244, "▁South": 1245, "▁African": 1246, "▁artist": 1247, "▁theater": 1248, "▁director": 1249, "▁William": 1250, "ent": 1251, "idge": 1252, "▁art": 1253, "▁attribut": 1254, "J": 1255, "▁One": 1256, "▁breath": 1257, "▁Ha": 1258, "▁ha": 1259, "reat": 1260, "▁original": 1261, "▁movement": 1262, "stage": 1263, "▁distingu": 1264, "ish": 1265, "ops": 1266, "▁From": 1267, "▁actor": 1268, "▁ur": 1269, "story": 1270, "▁desper": 1271, "▁Yeah": 1272, "▁basically": 1273, "▁dead": 1274, "▁object": 1275, "▁An": 1276, "▁strug": 1277, "les": 1278, "▁struggle": 1279, "▁metaphor": 1280, "▁moment": 1281, "▁piece": 1282, "▁emotional": 1283, "▁engineering": 1284, "▁uses": 1285, "minute": 1286, "▁17": 1287, "▁century": 1288, "▁technology": 1289, "▁n": 1290, "oun": 1291, "▁ver": 1292, "▁prefer": 1293, "▁constructed": 1294, "▁cloth": 1295, "▁built": 1296, "▁persu": 1297, "ade": 1298, "▁ears": 1299, "ively": 1300, "▁head": 1301, "▁goes": 1302, "▁bul": 1303, "k": 1304, "head": 1305, "wood": 1306, "▁covered": 1307, "▁fabric": 1308, "▁curious": 1309, "▁similar": 1310, "oes": 1311, "▁father": 1312, "▁used": 1313, "▁boy": 1314, "▁works": 1315, "▁Port": 1316, "▁El": 1317, "iz": 1318, "ab": 1319, "eth": 1320, "▁village": 1321, "▁fell": 1322, "▁love": 1323, "▁197": 1324, "▁beneath": 1325, "▁me": 1326, "▁become": 1327, "▁av": 1328, "unch": 1329, "▁Jud": 1330, "▁certainly": 1331, "▁took": 1332, "▁10": 1333, "▁discover": 1334, "amb": 1335, "ara": 1336, "ana": 1337, "▁Mal": 1338, "▁West": 1339, "▁fabulous": 1340, "▁renew": 1341, "▁new": 1342, "▁respect": 1343, "▁form": 1344, "▁198": 1345, "aded": 1346, "▁friends": 1347, "▁mine": 1348, "▁company": 1349, "▁20": 1350, "▁mira": 1351, "cul": 1352, "▁collabor": 1353, "on": 1354, "ette": 1355, "rou": 1356, "ak": 1357, "▁tall": 1358, "ira": 1359, "ff": 1360, "T": 1361, "all": 1362, "ized": 1363, "▁structure": 1364, "oo": 1365, "ps": 1366, "▁ultimately": 1367, "▁height": 1368, "▁using": 1369, "▁ste": 1370, "▁wheel": 1371, "▁controlling": 1372, "▁tail": 1373, "▁ear": 1374, "▁Tom": 1375, "▁Mor": 1376, "ris": 1377, "▁National": 1378, "at": 1379, "▁London": 1380, "▁his": 1381, "▁said": 1382, "H": 1383, "▁book": 1384, "▁Michael": 1385, "ur": 1386, "go": 1387, "▁'": 1388, "W": 1389, "ar": 1390, "?\"": 1391, "▁falls": 1392, "▁First": 1393, "▁World": 1394, "▁jo": 1395, "▁gave": 1396, "Do": 1397, "▁seemed": 1398, "▁idea": 1399, "▁ride": 1400, "▁participate": 1401, "av": 1402, "ry": 1403, "▁charges": 1404, "▁early": 1405, "owing": 1406, "▁challenge": 1407, "▁account": 1408, "▁department": 1409, "▁agreed": 1410, "▁while": 1411, "▁began": 1412, "▁Th": 1413, "ys": 1414, "ander": 1415, "▁went": 1416, "▁design": 1417, "▁system": 1418, "do": 1419, "▁neighbor": 1420, "ather": 1421, "▁rid": 1422, "add": 1423, "▁weight": 1424, "▁above": 1425, "▁once": 1426, "▁brand": 1427, "▁hell": 1428, "idden": 1429, "▁model": 1430, "▁card": 1431, "board": 1432, "▁smaller": 1433, "▁notice": 1434, "▁manip": 1435, "ul": 1436, "▁third": 1437, "▁couldn": 1438, "▁neck": 1439, "▁walk": 1440, "▁prototype": 1441, "▁appro": 1442, "ved": 1443, "▁anticip": 1444, "▁throw": 1445, "▁ones": 1446, "dr": 1447, "ive": 1448, "▁street": 1449, "▁house": 1450, "▁Cap": 1451, "▁hadn": 1452, "▁yet": 1453, "▁camera": 1454, "▁various": 1455, "▁gall": 1456, "ances": 1457, "▁hoping": 1458, "▁believed": 1459, "▁worked": 1460, "▁month": 1461, "▁box": 1462, "▁studio": 1463, "▁About": 1464, "▁40": 1465, "▁terr": 1466, "ified": 1467, "▁opened": 1468, "id": 1469, "▁walked": 1470, "▁18": 1471, "cond": 1472, "▁clip": 1473, "▁cook": 1474, "▁ideas": 1475, "▁green": 1476, "ographer": 1477, "ob": 1478, "▁S": 1479, "w": 1480, "ick": 1481, "▁invented": 1482, "▁beautiful": 1483, "▁sequence": 1484, "▁baby": 1485, "▁sticks": 1486, "▁bits": 1487, "▁tw": 1488, "▁grew": 1489, "▁saw": 1490, "▁standing": 1491, "▁nearly": 1492, "▁wet": 1493, "▁himself": 1494, "esign": 1495, "▁completely": 1496, "▁plan": 1497, "▁factory": 1498, "▁quite": 1499, "▁skelet": 1500, "▁background": 1501, "▁hand": 1502, "▁laser": 1503, "▁cutting": 1504, "umin": 1505, "▁pieces": 1506, "▁flexible": 1507, "▁each": 1508, "▁mass": 1509, "prod": 1510, "uced": 1511, "▁half": 1512, "fin": 1513, "ished": 1514, "▁introduce": 1515, "▁No": 1516, "▁haven": 1517, "▁Come": 1518, "and": 1519, "▁M": 1520, "ove": 1521, "▁describe": 1522, "▁won": 1523, "▁loud": 1524, "▁irr": 1525, "▁C": 1526, "ra": 1527, "▁bicycle": 1528, "▁bra": 1529, "ke": 1530, "ables": 1531, "▁control": 1532, "▁Each": 1533, "▁oper": 1534, "▁separ": 1535, "▁controls": 1536, "▁directly": 1537, "▁obviously": 1538, "▁indic": 1539, "▁When": 1540, "▁fear": 1541, "▁angry": 1542, "▁depending": 1543, "▁him": 1544, "▁Or": 1545, "▁relax": 1546, "▁listen": 1547, "▁side": 1548, "▁hearing": 1549, "▁eyes": 1550, "ight": 1551, "▁Over": 1552, "my": 1553, "▁heart": 1554, "▁position": 1555, "▁leg": 1556, "▁string": 1557, "▁tend": 1558, "▁automatically": 1559, "▁pull": 1560, "oop": 1561, "red": 1562, "ict": 1563, "▁immediately": 1564, "▁gives": 1565, "▁action": 1566, "▁Mike": 1567, "▁fingers": 1568, "▁possibility": 1569, "▁expression": 1570, "▁breathing": 1571, "▁split": 1572, "▁chest": 1573, "▁breathe": 1574, "▁expand": 1575, "▁realized": 1576, "▁happening": 1577, "▁audience": 1578, "▁channel": 1579, "▁moves": 1580, "▁anti": 1581, "nat": 1582, "ural": 1583, "istic": 1584, "▁feels": 1585, "▁kn": 1586, "ees": 1587, "▁stuff": 1588, "▁touch": 1589, "▁shake": 1590, "▁qu": 1591, "iver": 1592, "▁lines": 1593, "▁aesth": 1594, "etic": 1595, "▁choice": 1596, "▁three": 1597, "dimensional": 1598, "▁drawing": 1599, "▁space": 1600, "▁d": 1601, "urable": 1602, "▁mo": 1603, "ld": 1604, "▁practical": 1605, "▁itself": 1606, "through": 1607, "yl": 1608, "▁mesh": 1609, "▁lighting": 1610, "▁designer": 1611, "▁wants": 1612, "▁disappear": 1613, "▁becomes": 1614, "▁gh": 1615, "ost": 1616, "▁solid": 1617, "▁Again": 1618, "▁consider": 1619, "▁guys": 1620, "▁act": 1621, "▁fellow": 1622, "om": 1623, "▁engaged": 1624, "▁heads": 1625, "▁character": 1626, "aces": 1627, "▁plant": 1628, "▁All": 1629, "ny": 1630, "▁Z": 1631, "qu": 1632, "▁stress": 1633, "▁performance": 1634, "▁studied": 1635, "▁th": 1636, "ough": 1637, "▁mic": 1638, "▁sound": 1639, "▁large": 1640, "▁wh": 1641, "ying": 1642, "▁everything": 1643, "▁starts": 1644, "▁perform": 1645, "▁car": 1646, "ries": 1647, "▁second": 1648, "▁ends": 1649, "tt": 1650, "▁Le": 1651, "ices": 1652, "ters": 1653, "ire": 1654, "ou": 1655, "are": 1656, "future": 1657, "of": 1658, "phil": 1659, "anthropy": 1660, "if": 1661, "ting": 1662, "ches": 1663, "▁future": 1664, "▁phil": 1665, "▁collaboration": 1666, "▁innovation": 1667, "▁allow": 1668, "▁scar": 1669, "iving": 1670, "▁five": 1671, "▁crowd": 1672, "iven": 1673, "▁calls": 1674, "▁generation": 1675, "▁citiz": 1676, "▁leaders": 1677, "▁activ": 1678, "ism": 1679, "ott": 1680, "up": 1681, "commun": 1682, "global": 1683, "ential": 1684, "▁5": 1685, "5": 1686, "▁help": 1687, "▁re": 1688, "per": 1689, "▁relationship": 1690, "▁vision": 1691, "▁imagined": 1692, "▁Se": 1693, "ane": 1694, "nce": 1695, "▁lifetime": 1696, "for": 1697, "▁wave": 1698, "▁justice": 1699, "▁history": 1700, "▁rhy": 1701, "▁word": 1702, "airs": 1703, "▁rein": 1704, "vent": 1705, "▁foundation": 1706, "▁themselves": 1707, "▁wrong": 1708, "▁set": 1709, "▁slow": 1710, "▁respond": 1711, "▁challenges": 1712, "▁risk": 1713, "verse": 1714, "▁weren": 1715, "▁charity": 1716, "oc": 1717, "eller": 1718, "▁bene": 1719, "v": 1720, "ence": 1721, "▁crit": 1722, "▁reform": 1723, "▁asp": 1724, "iration": 1725, "▁flip": 1726, "▁assumptions": 1727, "▁open": 1728, "▁fast": 1729, "▁service": 1730, "▁term": 1731, "▁entrepreneur": 1732, "▁energy": 1733, "▁emerging": 1734, "▁driven": 1735, "▁prop": 1736, "ell": 1737, "▁tools": 1738, "▁press": 1739, "ures": 1740, "▁following": 1741, "▁particip": 1742, "▁main": 1743, "▁public": 1744, "▁tells": 1745, "▁histor": 1746, "▁100": 1747, "▁share": 1748, "▁cool": 1749, "▁everybody": 1750, "▁knows": 1751, "▁Gates": 1752, "os": 1753, "▁Google": 1754, "▁Instead": 1755, "▁democ": 1756, "rat": 1757, "ization": 1758, "▁average": 1759, "▁power": 1760, "▁categ": 1761, "ories": 1762, "▁experiments": 1763, "▁assumption": 1764, "▁represented": 1765, "▁Wikipedia": 1766, "▁surprise": 1767, "▁giving": 1768, "▁talent": 1769, "▁Cl": 1770, "▁Sh": 1771, "ir": 1772, "▁chron": 1773, "▁network": 1774, "▁captured": 1775, "▁such": 1776, "We": 1777, "▁lived": 1778, "udd": 1779, "enly": 1780, "▁Watch": 1781, "▁spring": 1782, "▁Paul": 1783, "▁Haw": 1784, "ken": 1785, "less": 1786, "▁Un": 1787, "rest": 1788, "▁w": 1789, "ik": 1790, "▁W": 1791, "I": 1792, "E": 1793, "R": 1794, "▁launch": 1795, "▁stands": 1796, "▁Ind": 1797, "ex": 1798, "cial": 1799, "▁En": 1800, "vironment": 1801, "▁Res": 1802, "ibility": 1803, "▁sets": 1804, "▁document": 1805, "▁empower": 1806, "▁largest": 1807, "▁fastest": 1808, "grow": 1809, "▁collective": 1810, "▁response": 1811, "▁threat": 1812, "▁Second": 1813, "ory": 1814, "▁online": 1815, "pl": 1816, "▁e": 1817, "▁Amazon": 1818, "▁commer": 1819, "▁Think": 1820, "▁organized": 1821, "▁wealthy": 1822, "▁Take": 1823, "▁Don": 1824, "Ch": 1825, "oose": 1826, "▁Net": 1827, "work": 1828, "▁investment": 1829, "▁best": 1830, "▁straight": 1831, "▁classroom": 1832, "▁teacher": 1833, "▁Ch": 1834, "anging": 1835, "▁Pres": 1836, "ster": 1837, "edd": 1838, "▁present": 1839, "▁hol": 1840, "iday": 1841, "▁Give": 1842, "nd": 1843, "ren": 1844, "uff": 1845, "▁aggreg": 1846, "▁amazing": 1847, "ous": 1848, "▁challeng": 1849, "▁her": 1850, "▁fund": 1851, "▁fu": 1852, "nds": 1853, "▁invest": 1854, "▁common": 1855, "▁goal": 1856, "▁Ac": 1857, "und": 1858, "ac": 1859, "eline": 1860, "z": 1861, "▁others": 1862, "▁New": 1863, "▁Pro": 1864, "fit": 1865, "▁Cambridge": 1866, "▁School": 1867, "▁V": 1868, "ure": 1869, "▁Sil": 1870, "icon": 1871, "▁Valley": 1872, "▁Phil": 1873, "▁Part": 1874, "ners": 1875, "▁Washington": 1876, "▁Gl": 1877, "obal": 1878, "▁Women": 1879, "▁San": 1880, "▁Francisco": 1881, "▁vent": 1882, "▁capital": 1883, "▁private": 1884, "▁mut": 1885, "▁twist": 1886, "▁forms": 1887, "▁imagine": 1888, "ations": 1889, "▁necessarily": 1890, "▁m": 1891, "ash": 1892, "▁puts": 1893, "▁million": 1894, "▁dollars": 1895, "▁inspiring": 1896, "▁21": 1897, "▁US": 1898, "▁year": 1899, "▁match": 1900, "▁millions": 1901, "by": 1902, "▁engaging": 1903, "▁lots": 1904, "▁building": 1905, "▁vis": 1906, "▁quickly": 1907, "▁fourth": 1908, "▁fifth": 1909, "▁compet": 1910, "itions": 1911, "▁social": 1912, "▁bet": 1913, "▁visible": 1914, "▁competition": 1915, "▁prize": 1916, "▁attract": 1917, "▁speed": 1918, "▁solution": 1919, "▁tack": 1920, "▁organization": 1921, "▁center": 1922, "▁opposed": 1923, "▁putting": 1924, "▁innov": 1925, "▁especially": 1926, "▁require": 1927, "▁technological": 1928, "▁leaves": 1929, "▁final": 1930, "▁anyway": 1931, "▁X": 1932, "▁vehicle": 1933, "▁site": 1934, "▁ma": 1935, "pping": 1936, "ists": 1937, "▁1,000": 1938, "▁ent": 1939, "ities": 1940, "▁deb": 1941, "▁enterpr": 1942, "▁leverage": 1943, "▁amount": 1944, "ks": 1945, "▁return": 1946, "▁astonishing": 1947, "▁acting": 1948, "organ": 1949, "izing": 1950, "ivers": 1951, "▁fulf": 1952, "▁z": 1953, "ge": 1954, "ist": 1955, "▁let": 1956, "▁develop": 1957, "▁stick": 1958, "▁whatever": 1959, "▁pick": 1960, "▁sector": 1961, "▁busy": 1962, "▁challenging": 1963, "business": 1964, "▁usual": 1965, "▁everywhere": 1966, "▁including": 1967, "▁feel": 1968, "▁moral": 1969, "▁hunger": 1970, "▁growing": 1971, "▁seeing": 1972, "ling": 1973, "ords": 1974, "ca": 1975, "ital": 1976, "reprene": 1977, "▁language": 1978, "▁Wh": 1979, "ver": 1980, "▁beginning": 1981, "ong": 1982, "▁significant": 1983, "▁sing": 1984, "ular": 1985, "▁Many": 1986, "▁fiction": 1987, "▁writer": 1988, "ern": 1989, "▁number": 1990, "▁trends": 1991, "▁acceler": 1992, "▁conver": 1993, "▁shock": 1994, "ingly": 1995, "▁reality": 1996, "▁ahead": 1997, "gence": 1998, "▁catastroph": 1999, "▁environmental": 2000, "▁degrad": 2001, "▁weapons": 2002, "▁destruction": 2003, "▁pandem": 2004, "▁poverty": 2005, "▁confront": 2006, "▁face": 2007, "▁kept": 2008, "▁pace": 2009, "▁ex": 2010, "agger": 2011, "▁hold": 2012, "▁civilization": 2013, "▁hands": 2014, "▁positive": 2015, "▁Is": 2016, "ier": 2017, "▁experience": 2018, "▁date": 2019, "▁both": 2020, "▁individ": 2021, "▁collect": 2022, "▁hasn": 2023, "▁prepared": 2024, "▁willing": 2025, "▁commit": 2026, "▁learning": 2027, "▁rapidly": 2028, "▁possible": 2029, "▁photograph": 2030, "▁grandfather": 2031, "rand": 2032, "father": 2033, "▁newspaper": 2034, "▁publ": 2035, "isher": 2036, "▁bank": 2037, "▁yes": 2038, "anthrop": 2039, "▁keep": 2040, "▁close": 2041, "▁office": 2042, "▁felt": 2043, "▁myst": 2044, "▁men": 2045, "▁whom": 2046, "▁honor": 2047, "▁blank": 2048, "▁slide": 2049, "▁creating": 2050, "▁grand": 2051, "ild": 2052, "▁ne": 2053, "ph": 2054, "ew": 2055, "▁god": 2056, "▁looking": 2057, "ef": 2058, "road": 2059, "tern": 2060, "int": 2061, "im": 2062, "acy": 2063, "▁worry": 2064, "▁IM": 2065, "▁text": 2066, "▁Facebook": 2067, "▁spo": 2068, "iling": 2069, "▁intim": 2070, "▁Ste": 2071, "▁research": 2072, "▁communication": 2073, "▁tech": 2074, "▁capable": 2075, "▁cult": 2076, "iv": 2077, "▁deeper": 2078, "▁relationships": 2079, "▁barr": 2080, "iers": 2081, "▁distance": 2082, "place": 2083, "▁anthrop": 2084, "ology": 2085, "psychology": 2086, "social": 2087, "▁media": 2088, "soci": 2089, "ety": 2090, "technology": 2091, "▁6": 2092, "80": 2093, "▁Internet": 2094, "▁en": 2095, "▁hidden": 2096, "▁tens": 2097, "▁institutions": 2098, "hab": 2099, "▁daily": 2100, "▁schools": 2101, "▁hospitals": 2102, "▁offices": 2103, "▁etc": 2104, "dem": 2105, "▁mean": 2106, "▁chann": 2107, "els": 2108, "▁imp": 2109, "▁isol": 2110, "osing": 2111, "▁calling": 2112, "▁pictures": 2113, "▁visited": 2114, "▁asked": 2115, "▁communicate": 2116, "friend": 2117, "▁woman": 2118, "▁For": 2119, "▁email": 2120, "▁mobile": 2121, "▁phone": 2122, "▁fundamentally": 2123, "▁communic": 2124, "▁basis": 2125, "▁six": 2126, "▁seven": 2127, "imate": 2128, "▁sphere": 2129, "▁lets": 2130, "▁Re": 2131, "cent": 2132, "▁soci": 2133, "▁expect": 2134, "▁user": 2135, "▁Cam": 2136, "low": 2137, "▁120": 2138, "▁talks": 2139, "way": 2140, "anges": 2141, "▁four": 2142, "▁gender": 2143, "adem": 2144, "▁instant": 2145, "▁mess": 2146, "aging": 2147, "▁less": 2148, "▁My": 2149, "phones": 2150, "▁voice": 2151, "▁disappoint": 2152, "▁sometimes": 2153, "▁deploy": 2154, "ment": 2155, "▁clos": 2156, "▁co": 2157, "eng": 2158, "▁transformation": 2159, "▁stories": 2160, "▁gentleman": 2161, "aker": 2162, "▁morning": 2163, "cl": 2164, "ock": 2165, "▁s": 2166, "ne": 2167, "aks": 2168, "▁cle": 2169, "▁flour": 2170, "▁wife": 2171, "▁wish": 2172, "▁worker": 2173, "▁shif": 2174, "V": 2175, "lf": 2176, "riend": 2177, "▁suddenly": 2178, "▁toilet": 2179, "▁check": 2180, "▁safe": 2181, "▁Then": 2182, "▁Brazil": 2183, "▁Italy": 2184, "▁families": 2185, "▁week": 2186, "▁fort": 2187, "▁computer": 2188, "▁din": 2189, "▁table": 2190, "▁web": 2191, "▁dinner": 2192, "▁Sa": 2193, "▁event": 2194, "▁mod": 2195, "▁imm": 2196, "ov": 2197, "▁Sw": 2198, "itz": 2199, "land": 2200, "▁screen": 2201, "▁room": 2202, "▁break": 2203, "fast": 2204, "▁grandmother": 2205, "▁D": 2206, "anny": 2207, "▁Mill": 2208, "ip": 2209, "▁mig": 2210, "rant": 2211, "ipp": 2212, "ines": 2213, "▁telling": 2214, "▁parent": 2215, "▁finally": 2216, "▁managed": 2217, "▁computers": 2218, "ever": 2219, "▁teen": 2220, "agers": 2221, "▁none": 2222, "▁cases": 2223, "▁unique": 2224, "▁hundreds": 2225, "▁except": 2226, "ional": 2227, "▁setting": 2228, "▁talked": 2229, "▁administ": 2230, "▁hospital": 2231, "▁Three": 2232, "▁contact": 2233, "uration": 2234, "▁lucky": 2235, "▁hanging": 2236, "▁cor": 2237, "▁somewhere": 2238, "▁management": 2239, "▁oh": 2240, "▁Maybe": 2241, "▁maybe": 2242, "▁buildings": 2243, "▁norm": 2244, "▁professional": 2245, "▁technical": 2246, "▁capability": 2247, "▁phones": 2248, "▁moved": 2249, "▁commitment": 2250, "▁fully": 2251, "▁focus": 2252, "▁cultural": 2253, "▁nurs": 2254, "ery": 2255, "erg": 2256, "art": 2257, "▁dedicated": 2258, "▁perfectly": 2259, "▁ritual": 2260, "▁sch": 2261, "iform": 2262, "▁team": 2263, "uilding": 2264, "▁activities": 2265, "▁random": 2266, "rate": 2267, "▁birth": 2268, "auc": 2269, "racy": 2270, "▁revolution": 2271, "▁else": 2272, "▁rational": 2273, "▁approach": 2274, "▁clear": 2275, "inction": 2276, "▁trad": 2277, "oring": 2278, "▁cities": 2279, "val": 2280, "▁names": 2281, "▁gu": 2282, "▁profess": 2283, "▁sp": 2284, "raw": 2285, "▁res": 2286, "ident": 2287, "▁sub": 2288, "urb": 2289, "▁distinct": 2290, "▁areas": 2291, "▁commercial": 2292, "▁class": 2293, "▁emerged": 2294, "▁status": 2295, "▁job": 2296, "▁removed": 2297, "▁personal": 2298, "▁situations": 2299, "▁Institute": 2300, "▁produces": 2301, "▁instance": 2302, "▁conserv": 2303, "▁50": 2304, "▁anybody": 2305, "▁access": 2306, "▁peak": 2307, "▁75": 2308, "▁admit": 2309, "▁conversations": 2310, "app": 2311, "pr": 2312, "iation": 2313, "▁terribly": 2314, "▁successful": 2315, "▁surprised": 2316, "▁U": 2317, "▁Ar": 2318, "▁discuss": 2319, "▁impact": 2320, "▁soldiers": 2321, "▁Iraq": 2322, "▁single": 2323, "▁read": 2324, "▁news": 2325, "▁$1": 2326, "▁Im": 2327, "medi": 2328, "▁dism": 2329, "iss": 2330, "▁bus": 2331, "▁York": 2332, "▁security": 2333, "▁safety": 2334, "▁arg": 2335, "uments": 2336, "▁decide": 2337, "▁self": 2338, "▁determine": 2339, "▁whether": 2340, "▁certain": 2341, "jor": 2342, "arter": 2343, "▁local": 2344, "▁TEDx": 2345, "M": 2346, "west": 2347, "▁Ma": 2348, "▁Car": 2349, "ter": 2350, "▁brings": 2351, "economics": 2352, "green": 2353, "1": 2354, "▁3": 2355, "urs": 2356, "hip": 2357, "▁neighborhood": 2358, "▁Chicago": 2359, "nda": 2360, "ms": 2361, "ired": 2362, "con": 2363, "▁prison": 2364, "rent": 2365, "▁tax": 2366, "▁spend": 2367, ",000": 2368, "▁sending": 2369, "▁jail": 2370, "third": 2371, "▁dollar": 2372, "▁however": 2373, "▁childhood": 2374, "▁education": 2375, "▁save": 2376, "▁send": 2377, "▁Harvard": 2378, "▁ph": 2379, "ased": 2380, "so": 2381, "vious": 2382, "▁care": 2383, "▁products": 2384, "oney": 2385, "▁obvious": 2386, "▁wasn": 2387, "▁real": 2388, "▁potential": 2389, "▁She": 2390, "mingly": 2391, "ploy": 2392, "▁bees": 2393, "▁harvest": 2394, "▁value": 2395, "ole": 2396, "ood": 2397, "▁combined": 2398, "▁employ": 2399, "▁training": 2400, "▁skills": 2401, "▁anger": 2402, "man": 2403, "▁experiences": 2404, "▁demonstr": 2405, "▁lessons": 2406, "▁learned": 2407, "ager": 2408, "▁L": 2409, "▁folks": 2410, "read": 2411, "▁bee": 2412, "▁keeping": 2413, "▁citizens": 2414, "▁process": 2415, "▁Talk": 2416, "▁sweet": 2417, "▁Los": 2418, "▁Angeles": 2419, ".'": 2420, "▁enough": 2421, "▁days": 2422, "▁handle": 2423, "▁rain": 2424, "▁consumption": 2425, "▁mostly": 2426, "▁Sou": 2427, "thern": 2428, "▁Their": 2429, "▁spending": 2430, "water": 2431, "▁flood": 2432, "▁infrastructure": 2433, "▁associated": 2434, "▁urban": 2435, "▁heat": 2436, "▁island": 2437, "▁trees": 2438, "▁li": 2439, "vable": 2440, "▁city": 2441, "▁naturally": 2442, "▁abs": 2443, "▁storm": 2444, "▁helps": 2445, "ition": 2446, "▁Count": 2447, "▁decided": 2448, "▁2.": 2449, "▁billion": 2450, "▁repair": 2451, "▁discovered": 2452, "alt": 2453, "▁surround": 2454, "▁strong": 2455, "▁economic": 2456, "▁case": 2457, "▁convinced": 2458, "▁government": 2459, "▁repl": 2460, "acing": 2461, "ort": 2462, "icult": 2463, "▁square": 2464, "▁feet": 2465, "aced": 2466, "ided": 2467, "▁electrical": 2468, "▁maintain": 2469, "▁ground": 2470, "▁result": 2471, "▁net": 2472, "aving": 2473, "▁students": 2474, "▁employees": 2475, "onds": 2476, "▁coal": 2477, "▁daughter": 2478, "▁Her": 2479, "▁generations": 2480, "▁town": 2481, "ites": 2482, "ville": 2483, "▁Virgin": 2484, "▁anyone": 2485, "▁former": 2486, "▁essentially": 2487, "▁dozen": 2488, "▁tear": 2489, "▁mountain": 2490, "▁several": 2491, "▁worth": 2492, "ount": 2493, "ain": 2494, "top": 2495, "▁rem": 2496, "▁short": 2497, "▁Just": 2498, "▁filled": 2499, "ue": 2500, "▁explos": 2501, "ives": 2502, "▁strange": 2503, "▁landscape": 2504, "▁destroyed": 2505, "▁companies": 2506, "▁empt": 2507, "ied": 2508, "▁leaving": 2509, "▁wind": 2510, "▁elev": 2511, "▁2,000": 2512, "▁dirty": 2513, "▁jobs": 2514, "▁centuries": 2515, "▁developing": 2516, "▁expert": 2517, "▁improve": 2518, "ments": 2519, "▁efficiency": 2520, "▁knowledge": 2521, "▁region": 2522, "▁calcul": 2523, "ront": 2524, "▁cost": 2525, "back": 2526, "▁levels": 2527, "▁forever": 2528, "▁loc": 2529, "▁mis": 2530, "▁Most": 2531, "▁leading": 2532, "▁inner": 2533, "▁drug": 2534, "hol": 2535, "use": 2536, "▁domestic": 2537, "▁pregn": 2538, "ancy": 2539, "▁poor": 2540, "▁totally": 2541, "▁related": 2542, "iance": 2543, "▁literally": 2544, "▁hip": 2545, "▁hop": 2546, "▁title": 2547, "sh": 2548, "irt": 2549, "ang": 2550, "▁hill": 2551, "irl": 2552, "▁diagn": 2553, "▁lung": 2554, "▁cancer": 2555, "▁since": 2556, "▁bones": 2557, "▁brain": 2558, "▁bizarre": 2559, "▁suffering": 2560, "▁tried": 2561, "▁hard": 2562, "▁dream": 2563, "▁River": 2564, "▁Mount": 2565, "▁writing": 2566, "▁manifest": 2567, "▁sol": 2568, "vers": 2569, "▁privile": 2570, "▁meet": 2571, "▁feature": 2572, "▁Cor": 2573, "por": 2574, "ublic": 2575, "▁radio": 2576, "rom": 2577, "L": 2578, "org": 2579, "aries": 2580, "▁dem": 2581, "▁beauty": 2582, "▁electricity": 2583, "▁cheap": 2584, "▁solutions": 2585, "▁involve": 2586, "ucing": 2587, "▁expensive": 2588, "▁include": 2589, "over": 2590, "▁traum": 2591, "▁ret": 2592, "▁Middle": 2593, "▁East": 2594, "fold": 2595, "▁increase": 2596, "▁mental": 2597, "▁pharmaceutical": 2598, "3.": 2599, "▁probably": 2600, "▁terms": 2601, "hood": 2602, "▁product": 2603, "▁economies": 2604, "▁existing": 2605, "▁reduce": 2606, "▁prevent": 2607, "▁plenty": 2608, "▁waste": 2609, "▁recyc": 2610, "▁recy": 2611, "ills": 2612, "un": 2613, "icip": 2614, "alities": 2615, "▁rates": 2616, "led": 2617, "ustrial": 2618, "▁models": 2619, "▁Europe": 2620, "▁raw": 2621, "▁material": 2622, "▁materials": 2623, "▁goods": 2624, "▁sell": 2625, "▁incentives": 2626, "▁manufacturing": 2627, "▁Bron": 2628, "▁spot": 2629, "ortunately": 2630, "▁aband": 2631, "oned": 2632, "▁project": 2633, "▁thank": 2634, "▁Another": 2635, "orking": 2636, "class": 2637, "▁Americans": 2638, "▁benef": 2639, "iting": 2640, "▁econom": 2641, "ically": 2642, "▁current": 2643, "▁rel": 2644, "▁transportation": 2645, "▁ref": 2646, "iger": 2647, "eg": 2648, "▁agricultural": 2649, "▁operations": 2650, "▁responsible": 2651, "ways": 2652, "▁billions": 2653, "▁healthcare": 2654, "▁lost": 2655, "▁productivity": 2656, "urban": 2657, "▁ag": 2658, "▁bu": 2659, "zz": 2660, "▁topic": 2661, "▁gard": 2662, "▁numbers": 2663, "▁lay": 2664, "▁integr": 2665, "▁rural": 2666, "ast": 2667, "▁3,000": 2668, "ile": 2669, "▁sal": 2670, "gr": 2671, "▁produce": 2672, "▁reg": 2673, "oor": 2674, "▁fac": 2675, "ilities": 2676, "▁owned": 2677, "▁consumers": 2678, "▁support": 2679, "▁farmers": 2680, "▁losing": 2681, "round": 2682, "▁demand": 2683, "▁farm": 2684, "force": 2685, "▁v": 2686, "iable": 2687, "▁institutional": 2688, "▁senior": 2689, "▁centers": 2690, "care": 2691, "▁smart": 2692, "▁manage": 2693, "▁environment": 2694, "▁affect": 2695, "being": 2696, "ational": 2697, "▁disp": 2698, "osal": 2699, "out": 2700, "▁impacts": 2701, "▁Sm": 2702, "▁needs": 2703, "▁bur": 2704, "ens": 2705, "▁creates": 2706, "ability": 2707, "icate": 2708, "▁trend": 2709, "icing": 2710, "▁essential": 2711, "▁pill": 2712, "▁recovery": 2713, "▁recess": 2714, "el": 2715, "▁key": 2716, "▁neighbors": 2717, "▁sum": 2718, "▁reb": 2719, "▁def": 2720, "▁wealth": 2721, "▁destro": 2722, "▁yield": 2723, "▁savings": 2724, "▁generated": 2725, "▁America": 2726, "▁count": 2727, "▁taking": 2728, "char": 2729, "▁begins": 2730, "▁recently": 2731, "ead": 2732, "ership": 2733, "▁John": 2734, "ope": 2735, "▁operating": 2736, "▁reading": 2737, "amine": 2738, "▁theory": 2739, "▁explain": 2740, "▁See": 2741, "▁dad": 2742, "reg": 2743, "▁es": 2744, "yn": 2745, "▁provided": 2746, "▁stable": 2747, "ib": 2748, "ings": 2749, "▁comp": 2750, "uls": 2751, "▁phrase": 2752, "har": 2753, "▁meant": 2754, "day": 2755, "inc": 2756, "sch": 2757, "ool": 2758, "▁intention": 2759, "▁paying": 2760, "▁interest": 2761, "▁hit": 2762, "▁cash": 2763, "▁bought": 2764, "▁obl": 2765, "▁grown": 2766, "▁supposed": 2767, "▁hur": 2768, "▁providing": 2769, "ify": 2770, "▁habit": 2771, "▁spent": 2772, "▁watching": 2773, "▁worse": 2774, "▁past": 2775, "▁record": 2776, "▁educational": 2777, "▁outcomes": 2778, "▁mal": 2779, "▁obesity": 2780, "▁diabetes": 2781, "▁income": 2782, "par": 2783, "▁inf": 2784, "▁mortality": 2785, "▁among": 2786, "▁non": 2787, "profit": 2788, "▁recover": 2789, "▁execut": 2790, "▁projects": 2791, "▁level": 2792, "▁financial": 2793, "▁success": 2794, "▁winning": 2795, "▁Mac": 2796, "thur": 2797, "▁exact": 2798, "▁everyone": 2799, "ression": 2800, "▁arrived": 2801, "▁cover": 2802, "ency": 2803, "▁budget": 2804, "▁speaking": 2805, "▁fe": 2806, "▁frankly": 2807, "▁programs": 2808, "▁dump": 2809, "200": 2810, "6": 2811, "▁married": 2812, "▁dog": 2813, "▁Green": 2814, "6.": 2815, "▁Since": 2816, "▁stim": 2817, "▁pack": 2818, "▁construction": 2819, "▁critical": 2820, "▁importance": 2821, "▁firm": 2822, "▁quality": 2823, "ises": 2824, "▁partner": 2825, "▁climate": 2826, "▁adapt": 2827, "▁embrace": 2828, "▁stop": 2829, "▁shopping": 2830, "▁mall": 2831, "▁pr": 2832, "▁trib": 2833, "▁fail": 2834, "▁mon": 2835, "ich": 2836, "olas": 2837, "rop": 2838, "te": 2839, "one": 2840, "apt": 2841, "year": 2842, "▁Child": 2843, "▁Spe": 2844, "aking": 2845, "G": 2846, "▁conference": 2847, "▁lapt": 2848, "▁roll": 2849, "▁controvers": 2850, "▁recom": 2851, "its": 2852, "▁goals": 2853, "aching": 2854, "▁Per": 2855, "comput": 2856, "▁28": 2857, "▁high": 2858, "▁applied": 2859, "▁university": 2860, "▁sculpt": 2861, "▁announced": 2862, "▁Paris": 2863, "▁clever": 2864, "▁OK": 2865, "▁math": 2866, "▁800": 2867, "▁arts": 2868, "▁passion": 2869, "If": 2870, "▁MIT": 2871, "▁graduate": 2872, "grad": 2873, "uate": 2874, "▁equal": 2875, "▁accepted": 2876, "▁mathematics": 2877, "▁study": 2878, "▁architecture": 2879, "▁ble": 2880, "nding": 2881, "▁told": 2882, "aster": 2883, "▁prep": 2884, "rey": 2885, "▁su": 2886, "▁pin": 2887, "What": 2888, "▁tur": 2889, "key": 2890, "▁guy": 2891, "▁degree": 2892, "▁mix": 2893, "▁fill": 2894, "▁Jim": 2895, "▁scale": 2896, "▁equation": 2897, "▁creative": 2898, "edia": 2899, "▁Lab": 2900, "▁bat": 2901, "▁Something": 2902, "▁advantage": 2903, "ges": 2904, "▁knowing": 2905, "▁anymore": 2906, "▁Did": 2907, "oy": 2908, "▁takes": 2909, "▁features": 2910, "▁address": 2911, "▁le": 2912, "▁Never": 2913, "▁shown": 2914, "▁permission": 2915, "▁stack": 2916, "▁con": 2917, "vey": 2918, "▁bel": 2919, "▁burn": 2920, "▁flash": 2921, "▁memory": 2922, "▁software": 2923, "▁assemb": 2924, "▁constant": 2925, "▁loop": 2926, "▁turning": 2927, "ym": 2928, "our": 2929, "ap": 2930, "▁nations": 2931, "▁absolutely": 2932, "▁jump": 2933, "Who": 2934, "▁teach": 2935, "▁teachers": 2936, "▁myself": 2937, "▁te": 2938, "chie": 2939, "▁laptop": 2940, "▁kid": 2941, "▁25": 2942, "▁observation": 2943, "▁196": 2944, "8,": 2945, "▁presented": 2946, "▁1970": 2947, "▁precise": 2948, "▁Children": 2949, "erved": 2950, "▁write": 2951, "▁differently": 2952, "ids": 2953, "ming": 2954, "sing": 2955, "▁applications": 2956, "▁fundamental": 2957, "▁launched": 2958, "▁languages": 2959, "que": 2960, "ensive": 2961, "▁2000": 2962, "▁son": 2963, "ri": 2964, "▁spir": 2965, "ited": 2966, "▁plus": 2967, "▁influence": 2968, "▁pros": 2969, "▁machines": 2970, "▁tested": 2971, "▁Everybody": 2972, "▁reasons": 2973, "▁purpose": 2974, "hold": 2975, "▁Whether": 2976, "soever": 2977, "▁counter": 2978, "itive": 2979, "▁services": 2980, "▁search": 2981, "▁communications": 2982, "▁legal": 2983, "▁ban": 2984, "king": 2985, "▁bon": 2986, "▁mission": 2987, "▁afford": 2988, "▁hire": 2989, "▁description": 2990, "▁zero": 2991, "ary": 2992, "▁que": 2993, "▁allows": 2994, "N": 2995, "▁profit": 2996, "▁ann": 2997, "▁Ann": 2998, "▁reach": 2999, "▁countries": 3000, "▁machine": 3001, "▁Y": 3002, "ves": 3003, "▁silly": 3004, "ros": 3005, "pect": 3006, "▁served": 3007, "▁pen": 3008, "cil": 3009, "ellow": 3010, "▁remembered": 3011, "▁child": 3012, "▁direction": 3013, "▁stupid": 3014, "▁board": 3015, "▁separate": 3016, "▁mind": 3017, "▁Bill": 3018, "ee": 3019, "▁unlike": 3020, "▁low": 3021, "▁picked": 3022, "▁below": 3023, "▁roughly": 3024, "▁generate": 3025, "▁upper": 3026, "ode": 3027, "▁display": 3028, "▁sunlight": 3029, "▁fantastic": 3030, "▁lunch": 3031, "▁matters": 3032, "▁gradu": 3033, "▁worst": 3034, "exp": 3035, "▁labor": 3036, "▁components": 3037, "▁English": 3038, "che": 3039, "▁double": 3040, "▁meaning": 3041, "▁appropriate": 3042, "scale": 3043, "▁integ": 3044, "▁advanced": 3045, "▁pour": 3046, "▁iPod": 3047, "▁spe": 3048, "▁race": 3049, "▁compare": 3050, "▁notes": 3051, "▁slides": 3052, "▁strategy": 3053, "▁cute": 3054, "▁showed": 3055, "gener": 3056, "▁devices": 3057, "▁detail": 3058, "▁deliver": 3059, "▁poorest": 3060, "▁satellite": 3061, "▁dish": 3062, "▁desert": 3063, "▁kilometers": 3064, "▁apart": 3065, "▁jun": 3066, "▁500": 3067, "▁meters": 3068, "▁bicy": 3069, "cles": 3070, "▁walks": 3071, "▁grid": 3072, "▁speak": 3073, "ail": 3074, "▁tree": 3075, "print": 3076, "▁interface": 3077, "bo": 3078, "ards": 3079, "▁Latin": 3080, "▁relatively": 3081, "▁rare": 3082, "▁suspect": 3083, "▁unless": 3084, "▁Yes": 3085, "▁Am": 3086, "▁Ethiop": 3087, "▁Ethiopia": 3088, "▁standard": 3089, "▁helped": 3090, "▁changed": 3091, "▁Big": 3092, "▁rich": 3093, "▁Q": 3094, "af": 3095, "▁1.": 3096, "2": 3097, "▁pig": 3098, "gy": 3099, "isters": 3100, "▁period": 3101, "▁traveling": 3102, "30": 3103, "▁env": 3104, "▁fun": 3105, "▁meeting": 3106, "▁tent": 3107, "▁cam": 3108, "▁unbelievable": 3109, "▁45": 3110, "▁degrees": 3111, "▁photo": 3112, "▁opportunity": 3113, "▁release": 3114, "▁hearts": 3115, "▁President": 3116, "▁guess": 3117, "nder": 3118, "▁specific": 3119, "power": 3120, "▁van": 3121, "illa": 3122, "▁100,000": 3123, "▁boom": 3124, "▁president": 3125, "▁250": 3126, "▁dom": 3127, "ino": 3128, "▁effect": 3129, "▁Rwanda": 3130, "pped": 3131, "dd": 3132, "Let": 3133, "▁August": 3134, "▁September": 3135, "iti": 3136, "ounce": 3137, "▁La": 3138, "mber": 3139, "▁26": 3140, "▁extended": 3141, "1.": 3142, "▁Get": 3143, "▁interested": 3144, "▁wild": 3145, "▁400": 3146, "▁Do": 3147, "▁tonight": 3148, "▁ord": 3149, "▁300": 3150, "▁yeah": 3151, "▁invite": 3152, "▁10,000": 3153, "!": 3154, "▁vir": 3155, "▁extraordinary": 3156, "▁add": 3157, "▁push": 3158, "▁sorts": 3159, "▁ship": 3160, "▁talking": 3161, "▁Mexico": 3162, "▁5,000": 3163, "▁somet": 3164, "ime": 3165, "▁worldwide": 3166, "▁whenever": 3167, "▁invited": 3168, "▁hopefully": 3169, "br": 3170, "itt": 3171, "artment": 3172, "▁Br": 3173, "▁.": 3174, "▁disc": 3175, "▁plastic": 3176, "▁bottles": 3177, "▁testing": 3178, "▁vari": 3179, "▁arr": 3180, "▁optim": 3181, "▁distributed": 3182, "Y": 3183, "▁results": 3184, "▁Del": 3185, "icious": 3186, "food": 3187, "▁garden": 3188, "▁apartment": 3189, "▁Earth": 3190, "▁pal": 3191, "ably": 3192, "▁rely": 3193, "▁scary": 3194, "epend": 3195, "▁extremely": 3196, "▁powerful": 3197, "▁har": 3198, "▁civ": 3199, "▁apply": 3200, "▁source": 3201, "▁article": 3202, "▁Times": 3203, "ued": 3204, "▁definitely": 3205, "▁City": 3206, "tle": 3207, "▁magazine": 3208, "▁finding": 3209, "▁experts": 3210, "▁figure": 3211, "▁precisely": 3212, "▁responsibility": 3213, "▁special": 3214, "▁cause": 3215, "▁NASA": 3216, "▁hyd": 3217, "▁explore": 3218, "▁nutrition": 3219, "▁running": 3220, "ality": 3221, "▁liquid": 3222, "▁soil": 3223, "▁root": 3224, "▁veget": 3225, "▁foreign": 3226, "▁outer": 3227, "forward": 3228, "▁window": 3229, "▁vertical": 3230, "onic": 3231, "▁platform": 3232, "ient": 3233, "▁trick": 3234, "▁suspend": 3235, "▁involved": 3236, "▁temperature": 3237, "▁micro": 3238, "▁requires": 3239, "▁farmer": 3240, "▁must": 3241, "▁crops": 3242, "▁organ": 3243, "▁techn": 3244, "▁patent": 3245, "▁possibly": 3246, "▁corporate": 3247, "▁intellectual": 3248, "▁property": 3249, "de": 3250, "velop": 3251, "▁typical": 3252, "erry": 3253, "▁tom": 3254, "uc": 3255, "bers": 3256, "arth": 3257, "wart": 3258, "▁published": 3259, "▁designs": 3260, "▁explained": 3261, "▁experiment": 3262, "▁website": 3263, "▁corpor": 3264, "&": 3265, "▁yourself": 3266, "▁Jack": 3267, "son": 3268, "▁suggest": 3269, "umps": 3270, "▁carbon": 3271, "▁footprint": 3272, "▁Tony": 3273, "▁stra": 3274, "▁fruit": 3275, "▁nine": 3276, "▁organic": 3277, "▁Fin": 3278, "▁custom": 3279, "▁dark": 3280, "▁win": 3281, "itting": 3282, "▁LED": 3283, "▁lights": 3284, "▁ev": 3285, "olving": 3286, "▁rapid": 3287, "▁version": 3288, "▁benefit": 3289, "play": 3290, "▁concer": 3291, "ns": 3292, "▁universal": 3293, "▁core": 3294, "▁free": 3295, "▁instructions": 3296, "▁held": 3297, "▁individuals": 3298, "▁within": 3299, "▁appeared": 3300, "▁contribut": 3301, "▁screw": 3302, "▁express": 3303, "▁actual": 3304, "▁joy": 3305, "▁acknow": 3306, "ging": 3307, "▁wide": 3308, "▁consumer": 3309, "itch": 3310, "cons": 3311, "▁Op": 3312, "▁beyond": 3313, "▁solar": 3314, "▁pan": 3315, "▁innovations": 3316, "▁ask": 3317, "▁join": 3318, "isco": 3319, "▁decl": 3320, "ney": 3321, "rob": 3322, "▁robotic": 3323, "▁Bro": 3324, "▁robots": 3325, "▁starting": 3326, "▁toys": 3327, "ores": 3328, "ellig": 3329, "▁35": 3330, "▁inv": 3331, "▁multiple": 3332, "▁As": 3333, "sum": 3334, "▁despite": 3335, "▁dire": 3336, "▁predictions": 3337, "▁assum": 3338, "▁pop": 3339, "ulated": 3340, "▁soon": 3341, "▁Are": 3342, "▁likely": 3343, "▁becoming": 3344, "▁1980": 3345, "▁appear": 3346, "put": 3347, "▁games": 3348, "cess": 3349, "▁embedded": 3350, "▁robot": 3351, "▁sensors": 3352, "▁processing": 3353, "▁doll": 3354, "▁amate": 3355, "▁interaction": 3356, "cking": 3357, "▁k": 3358, "▁books": 3359, "olution": 3360, "▁Rob": 3361, "U": 3362, "▁higher": 3363, "ony": 3364, "EC": 3365, "eless": 3366, "▁la": 3367, "wn": 3368, "q": 3369, "na": 3370, "▁Fr": 3371, "▁Israel": 3372, "cle": 3373, "aning": 3374, "▁nice": 3375, "cept": 3376, "500": 3377, "lect": 3378, "lu": 3379, "arch": 3380, "▁Chris": 3381, "asing": 3382, "▁circles": 3383, "▁hits": 3384, "▁wall": 3385, "ice": 3386, "old": 3387, "ups": 3388, "▁upset": 3389, "enn": 3390, "▁shoot": 3391, "▁intelligence": 3392, "▁fairly": 3393, "▁comput": 3394, "au": 3395, "▁computation": 3396, "▁mechan": 3397, "▁military": 3398, "▁surve": 3399, "ance": 3400, "▁troops": 3401, "▁ca": 3402, "▁robust": 3403, "ux": 3404, "stand": 3405, "▁range": 3406, "▁et": 3407, "▁navig": 3408, "▁command": 3409, "▁controlled": 3410, "▁des": 3411, "▁breakthrough": 3412, "rade": 3413, "▁Center": 3414, "▁late": 3415, "▁evening": 3416, "▁Could": 3417, "▁rub": 3418, "▁surv": 3419, "▁run": 3420, "▁video": 3421, "▁Rep": 3422, "orter": 3423, "attle": 3424, "ield": 3425, "▁compan": 3426, "▁helping": 3427, "▁comb": 3428, "▁risks": 3429, "▁Robert": 3430, "▁previous": 3431, "▁autonom": 3432, "▁cave": 3433, "▁ten": 3434, "▁Afghanistan": 3435, "asion": 3436, "▁sea": 3437, "▁Thanks": 3438, "▁oil": 3439, "▁Very": 3440, "▁host": 3441, "▁environments": 3442, "▁": 3443, "̊": 3444, "onom": 3445, "▁easier": 3446, "▁named": 3447, "▁stand": 3448, "▁thinks": 3449, "iff": 3450, "▁Anderson": 3451, "▁British": 3452, "▁RB": 3453, "▁Oh": 3454, "ication": 3455, "▁understanding": 3456, "▁looked": 3457, "▁conversation": 3458, "▁bottle": 3459, "▁forth": 3460, "▁shared": 3461, "▁Good": 3462, "▁interacting": 3463, "▁visual": 3464, "▁recogn": 3465, "▁interact": 3466, "▁videos": 3467, "▁tone": 3468, "▁color": 3469, "▁sat": 3470, "▁colors": 3471, "▁highest": 3472, "sc": 3473, "down": 3474, "▁bored": 3475, "▁toy": 3476, "▁Steven": 3477, "▁Sp": 3478, "iel": 3479, "berg": 3480, "▁memor": 3481, "ule": 3482, "▁movie": 3483, "▁fair": 3484, "▁gets": 3485, "uss": 3486, "▁negative": 3487, "▁intense": 3488, "▁estimate": 3489, "aze": 3490, "▁eye": 3491, "ball": 3492, "▁field": 3493, "▁view": 3494, "ynth": 3495, "az": 3496, "eal": 3497, "▁underlying": 3498, "▁emotion": 3499, "▁volume": 3500, "▁hear": 3501, "ody": 3502, "▁dealing": 3503, "▁measuring": 3504, "▁measure": 3505, "▁basic": 3506, "▁messages": 3507, "▁pre": 3508, "▁na": 3509, "ising": 3510, "oice": 3511, "▁react": 3512, "▁appropr": 3513, "very": 3514, "▁Look": 3515, "▁smile": 3516, "▁im": 3517, "▁Hey": 3518, "izes": 3519, "▁raise": 3520, "row": 3521, "▁carefully": 3522, "▁motion": 3523, "▁successfully": 3524, "▁understood": 3525, "▁aspect": 3526, "▁Christ": 3527, "▁estim": 3528, "▁questions": 3529, "▁accept": 3530, "▁rights": 3531, "▁Hollywood": 3532, "▁movies": 3533, "▁recognize": 3534, "▁characters": 3535, "▁After": 3536, "cks": 3537, "▁molecule": 3538, "▁soul": 3539, "▁steps": 3540, "▁principle": 3541, "▁bar": 3542, "rage": 3543, "▁hundred": 3544, "▁universe": 3545, "▁earth": 3546, "▁Darwin": 3547, "▁creation": 3548, "▁genome": 3549, "▁emotions": 3550, "▁creatures": 3551, "▁scenar": 3552, "▁nur": 3553, "ture": 3554, "▁boring": 3555, "▁del": 3556, "iber": 3557, "▁uncom": 3558, "fort": 3559, "▁super": 3560, "▁Before": 3561, "▁journey": 3562, "what": 3563, "we": 3564, "lear": 3565, "ned": 3566, "cal": 3567, "▁201": 3568, "▁political": 3569, "▁tied": 3570, "▁cliff": 3571, "▁solved": 3572, "▁agre": 3573, "ement": 3574, "▁Adam": 3575, "▁shares": 3576, "▁economics": 3577, "politics": 3578, "▁16": 3579, "▁friend": 3580, "▁scientist": 3581, "oth": 3582, "▁parties": 3583, "olve": 3584, "▁neither": 3585, "▁party": 3586, "▁Ne": 3587, "ither": 3588, "▁incent": 3589, "▁due": 3590, "▁De": 3591, "▁negoti": 3592, "▁reports": 3593, "▁Christmas": 3594, "ear": 3595, "Okay": 3596, "olved": 3597, "▁9": 3598, "▁track": 3599, "▁studying": 3600, "▁moments": 3601, "▁American": 3602, "zy": 3603, "▁total": 3604, "▁collapse": 3605, "▁famous": 3606, "▁battle": 3607, "▁Alex": 3608, "ilt": 3609, "▁Thomas": 3610, "▁Jeff": 3611, "erson": 3612, "▁central": 3613, "▁Bank": 3614, "▁trust": 3615, "ought": 3616, "▁king": 3617, "▁authority": 3618, "▁defined": 3619, "Oh": 3620, "▁God": 3621, "▁bucks": 3622, "▁quick": 3623, "▁prim": 3624, "her": 3625, "▁although": 3626, "▁attack": 3627, "▁crisis": 3628, "imp": 3629, "uctive": 3630, "rary": 3631, "line": 3632, "▁inevitable": 3633, "▁percentage": 3634, "▁overall": 3635, "▁GDP": 3636, "▁dot": 3637, "▁represents": 3638, "▁Congress": 3639, "ud": 3640, "get": 3641, "▁202": 3642, "7,": 3643, "▁Gree": 3644, "▁13": 3645, "ond": 3646, "▁collaps": 3647, "▁avoid": 3648, "▁attempt": 3649, "▁sides": 3650, "▁recent": 3651, "▁brief": 3652, "▁consist": 3653, "ently": 3654, "▁gap": 3655, "▁wid": 3656, "▁ugly": 3657, "▁towards": 3658, "0.": 3659, "▁Democ": 3660, "ats": 3661, "▁Republic": 3662, "▁hey": 3663, "▁favor": 3664, "term": 3665, "▁trajectory": 3666, "▁disag": 3667, "▁politics": 3668, "▁ins": 3669, "bb": 3670, "▁philosoph": 3671, "engine": 3672, "▁perfect": 3673, "▁Unfortunately": 3674, "▁Germany": 3675, "▁constantly": 3676, "avor": 3677, "▁resources": 3678, "▁mach": 3679, "▁tem": 3680, "porary": 3681, "▁builds": 3682, "▁efficient": 3683, "▁generally": 3684, "▁belie": 3685, "▁role": 3686, "▁lying": 3687, "▁che": 3688, "▁police": 3689, "▁fire": 3690, "▁army": 3691, "▁limited": 3692, "isms": 3693, "ratic": 3694, "▁economists": 3695, "▁tons": 3696, "alth": 3697, "itable": 3698, "▁sources": 3699, "▁lens": 3700, "akes": 3701, "▁answer": 3702, "▁ru": 3703, "▁despair": 3704, "▁depressed": 3705, "▁excited": 3706, "rag": 3707, "atic": 3708, "▁cent": 3709, "▁fed": 3710, "eral": 3711, "▁55": 3712, "▁Sec": 3713, "urity": 3714, "▁Med": 3715, "ica": 3716, "▁defense": 3717, "ret": 3718, "▁pie": 3719, "▁overwhel": 3720, "▁touched": 3721, "▁remark": 3722, "▁comfortable": 3723, "▁easy": 3724, "▁retire": 3725, "▁age": 3726, "50": 3727, "▁Red": 3728, "▁sen": 3729, "iors": 3730, "▁elim": 3731, "inate": 3732, "▁medical": 3733, "▁Everyone": 3734, "▁equally": 3735, "▁hate": 3736, "▁discussion": 3737, "▁nation": 3738, "▁divided": 3739, "▁issue": 3740, "inating": 3741, "▁hyper": 3742, "igh": 3743, "▁vast": 3744, "▁majority": 3745, "▁pres": 3746, "ents": 3747, "▁note": 3748, "▁[": 3749, "dis": 3750, "]": 3751, "▁popular": 3752, "▁bill": 3753, "▁Department": 3754, "▁Inter": 3755, "ior": 3756, "illing": 3757, "▁raising": 3758, "▁against": 3759, "▁independ": 3760, "▁quarter": 3761, "▁liber": 3762, "ians": 3763, "▁independent": 3764, "▁camp": 3765, "▁fall": 3766, "▁tremendous": 3767, "▁views": 3768, "▁fight": 3769, "▁gun": 3770, "ortion": 3771, "▁'70": 3772, "▁'80": 3773, "▁salt": 3774, "▁Pr": 3775, "▁Stanford": 3776, "▁Ber": 3777, "ley": 3778, "▁fresh": 3779, "▁University": 3780, "▁Ro": 3781, "▁Ke": 3782, "▁liberal": 3783, "▁sn": 3784, "bed": 3785, "▁conf": 3786, "erences": 3787, "▁unc": 3788, "▁ide": 3789, "olog": 3790, "▁student": 3791, "▁post": 3792, "▁emp": 3793, "▁theories": 3794, "idd": 3795, "rous": 3796, "▁predict": 3797, "▁profession": 3798, "▁acqu": 3799, "rog": 3800, "▁ass": 3801, "▁exists": 3802, "▁existed": 3803, "▁secret": 3804, "▁organizations": 3805, "▁survey": 3806, "▁att": 3807, "udes": 3808, "▁Research": 3809, "▁Stud": 3810, "▁poll": 3811, "▁throughout": 3812, "▁impossible": 3813, "ologically": 3814, "No": 3815, "▁limit": 3816, "▁size": 3817, "▁encourage": 3818, "▁larger": 3819, "ribut": 3820, "▁groups": 3821, "▁choose": 3822, "▁argument": 3823, "▁vag": 3824, "▁—": 3825, "▁radical": 3826, "▁war": 3827, "ring": 3828, "▁ancient": 3829, "ues": 3830, "▁familiar": 3831, "▁primary": 3832, "▁encoura": 3833, "▁voices": 3834, "ological": 3835, "▁blog": 3836, "▁Every": 3837, "▁represent": 3838, "▁remind": 3839, "▁TV": 3840, "▁y": 3841, "elling": 3842, "▁adopt": 3843, "▁191": 3844, "erve": 3845, "▁const": 3846, "itut": 3847, "▁general": 3848, "▁guarant": 3849, "▁destroy": 3850, "▁valuable": 3851, "▁agree": 3852, "▁okay": 3853, "▁gold": 3854, "▁Dep": 3855, "▁international": 3856, "▁cur": 3857, "cy": 3858, "▁coord": 3859, "▁Richard": 3860, "ix": 3861, "▁complete": 3862, "rough": 3863, "cies": 3864, "▁scream": 3865, "▁scared": 3866, "▁inst": 3867, "antly": 3868, "▁nervous": 3869, "▁horrible": 3870, "▁cal": 3871, "▁sustain": 3872, "▁road": 3873, "▁fo": 3874, "▁polar": 3875, "ize": 3876, "▁exist": 3877, "▁religious": 3878, "▁concern": 3879, "▁parad": 3880, "rich": 3881, "aut": 3882, "fe": 3883, "▁designed": 3884, "▁Design": 3885, "▁expl": 3886, "▁objects": 3887, "▁exhib": 3888, "happiness": 3889, "maker": 3890, "▁fab": 3891, "▁customers": 3892, "▁pulled": 3893, "▁balance": 3894, "▁whe": 3895, "▁noticed": 3896, "▁eng": 3897, "▁words": 3898, "Why": 3899, "▁ple": 3900, "▁blood": 3901, "▁vessels": 3902, "▁nerves": 3903, "▁muscles": 3904, "▁physi": 3905, "▁exciting": 3906, "▁autom": 3907, "▁fascinated": 3908, "▁click": 3909, "▁door": 3910, "▁introduced": 3911, "▁slowly": 3912, "▁Remember": 3913, "Yes": 3914, "It": 3915, "▁further": 3916, "oca": 3917, "bul": 3918, "▁seconds": 3919, "▁Any": 3920, "▁14": 3921, "That": 3922, "▁neuros": 3923, "cient": 3924, "▁condition": 3925, "lex": 3926, "▁hem": 3927, "phere": 3928, "▁limb": 3929, "oded": 3930, "▁pleasure": 3931, "ass": 3932, "iring": 3933, "▁sensory": 3934, "▁app": 3935, "▁cortex": 3936, "▁arrive": 3937, "▁bag": 3938, "▁exp": 3939, "osure": 3940, "▁fil": 3941, "▁stream": 3942, "▁col": 3943, "osis": 3944, "▁pure": 3945, "▁pot": 3946, "▁drinking": 3947, "▁sudden": 3948, "▁switch": 3949, "▁Would": 3950, "▁faces": 3951, "looking": 3952, "▁gentlemen": 3953, "▁slightly": 3954, "▁ladies": 3955, "▁picking": 3956, "▁girl": 3957, "▁died": 3958, "▁physical": 3959, "▁Where": 3960, "▁lady": 3961, "▁crying": 3962, "▁faced": 3963, "▁stu": 3964, "▁delic": 3965, "▁wonderful": 3966, "!\"": 3967, "used": 3968, "▁mouth": 3969, "▁weird": 3970, "▁seems": 3971, "ign": 3972, "▁trig": 3973, "ger": 3974, "▁sad": 3975, "▁dilem": 3976, "ily": 3977, "ixt": 3978, "▁appears": 3979, "▁transcend": 3980, "▁Ah": 3981, "semble": 3982, "ogn": 3983, "▁elect": 3984, "chem": 3985, "▁tricks": 3986, "▁intr": 3987, "▁ext": 3988, "▁By": 3989, "itely": 3990, "▁univers": 3991, "▁information": 3992, "▁tends": 3993, "iated": 3994, "ension": 3995, "▁added": 3996, "▁symmetry": 3997, "idence": 3998, "met": 3999, "rical": 4000, "▁elements": 4001, "▁delight": 4002, "▁guide": 4003, "▁signals": 4004, "ognitive": 4005, "▁Tal": 4006, "▁Ag": 4007, "hh": 4008, "▁layers": 4009, "▁dimension": 4010, "▁layer": 4011, "▁sport": 4012, "▁details": 4013, "▁reson": 4014, "amin": 4015, "▁consum": 4016, "▁reflect": 4017, "▁shapes": 4018, "▁brilliant": 4019, "▁relief": 4020, "▁foot": 4021, "▁underneath": 4022, "▁drive": 4023, "▁hour": 4024, "▁engine": 4025, "itan": 4026, "▁nut": 4027, "▁bike": 4028, "▁fold": 4029, "▁disapp": 4030, "ears": 4031, "▁rad": 4032, "ther": 4033, "▁aer": 4034, "nam": 4035, "▁cap": 4036, "▁ro": 4037, "ty": 4038, "▁hist": 4039, "ini": 4040, "▁engineer": 4041, "▁craft": 4042, "▁supply": 4043, "▁technologies": 4044, "▁fit": 4045, "▁mill": 4046, "imeter": 4047, "▁Pre": 4048, "tty": 4049, "iful": 4050, "▁lose": 4051, "▁rarely": 4052, "▁orchest": 4053, "oss": 4054, "▁emb": 4055, "iment": 4056, "hing": 4057, "ract": 4058, "▁tool": 4059, "▁falling": 4060, "▁Under": 4061, "neath": 4062, "let": 4063, "▁dance": 4064, "▁difficulty": 4065, "▁painful": 4066, "▁While": 4067, "▁gra": 4068, "rab": 4069, "ened": 4070, "▁please": 4071, "▁ignore": 4072, "gers": 4073, "▁Right": 4074, "▁star": 4075, "▁motor": 4076, "▁specifically": 4077, "ound": 4078, "▁sla": 4079, "▁fract": 4080, "▁shel": 4081, "▁shop": 4082, "▁domain": 4083, "▁ens": 4084, "▁bo": 4085, "▁clothes": 4086, "▁Web": 4087, "▁YouTube": 4088, "aid": 4089, "▁younger": 4090, "aged": 4091, "▁bubble": 4092, "▁sits": 4093, "▁follow": 4094, "▁Only": 4095, "▁inform": 4096, "▁suppl": 4097, "▁answers": 4098, "▁stopped": 4099, "form": 4100, "ction": 4101, "▁purs": 4102, "▁repeated": 4103, "atch": 4104, "rew": 4105, "uild": 4106, "free": 4107, "dig": 4108, "ibrary": 4109, "▁truly": 4110, "▁digital": 4111, "▁library": 4112, "▁released": 4113, "▁str": 4114, "ata": 4115, "ilm": 4116, "history": 4117, "media": 4118, "music": 4119, "▁deserve": 4120, "▁el": 4121, "▁parents": 4122, "▁libr": 4123, "▁broad": 4124, "▁stone": 4125, "▁Boston": 4126, "▁statement": 4127, "arian": 4128, "ustr": 4129, "▁Egypt": 4130, "▁copy": 4131, "▁achieve": 4132, "▁argue": 4133, "▁gras": 4134, "▁distribution": 4135, "▁available": 4136, "ured": 4137, "▁music": 4138, "▁type": 4139, "▁print": 4140, "▁vol": 4141, "▁meg": 4142, "aby": 4143, "▁Microsoft": 4144, "ord": 4145, "tes": 4146, "▁gig": 4147, "▁spin": 4148, "▁drives": 4149, "▁garage": 4150, "▁neat": 4151, "▁download": 4152, "▁remote": 4153, "▁page": 4154, "▁interf": 4155, "▁ta": 4156, "▁spec": 4157, "▁older": 4158, "▁digit": 4159, "▁bind": 4160, "obile": 4161, "▁printer": 4162, "inder": 4163, "ald": 4164, "▁kick": 4165, "▁Park": 4166, "erv": 4167, "▁India": 4168, "▁opening": 4169, "▁paper": 4170, "▁sounds": 4171, "▁ut": 4172, "▁Uganda": 4173, "▁funding": 4174, "▁30": 4175, "▁technolog": 4176, "▁China": 4177, "ube": 4178, "▁Gold": 4179, "sp": 4180, "ook": 4181, "▁button": 4182, "under": 4183, "book": 4184, "▁units": 4185, "▁hack": 4186, "▁dots": 4187, "anned": 4188, "▁equivalent": 4189, "▁shape": 4190, "▁easily": 4191, "▁electronic": 4192, "▁scan": 4193, "▁funded": 4194, "▁Science": 4195, "▁Foundation": 4196, "ann": 4197, "▁lesson": 4198, "▁Chinese": 4199, "▁30,000": 4200, "▁cents": 4201, "ero": 4202, "▁achieved": 4203, "▁aut": 4204, "▁Mars": 4205, "▁pages": 4206, "▁cameras": 4207, "▁museum": 4208, "▁white": 4209, "▁proper": 4210, "▁fa": 4211, "ont": 4212, "cop": 4213, "right": 4214, "▁missing": 4215, "ows": 4216, "▁factor": 4217, "▁classic": 4218, "ishing": 4219, "▁parallel": 4220, "▁Ocean": 4221, "ographic": 4222, "▁ball": 4223, "▁wa": 4224, "▁printed": 4225, "▁literature": 4226, "▁effectively": 4227, "▁law": 4228, "wise": 4229, "▁copyright": 4230, "▁audio": 4231, "▁records": 4232, "▁CD": 4233, "▁arch": 4234, "orn": 4235, "▁heav": 4236, "▁pat": 4237, "▁band": 4238, "ars": 4239, "▁offered": 4240, "lim": 4241, "▁belong": 4242, "▁rock": 4243, "▁sharing": 4244, "▁concert": 4245, "▁thousand": 4246, "▁item": 4247, "▁Mo": 4248, "▁images": 4249, "▁rele": 4250, "ases": 4251, "▁Indian": 4252, "ival": 4253, "▁films": 4254, "▁permanent": 4255, "▁Te": 4256, "lev": 4257, "ision": 4258, "▁recording": 4259, "▁television": 4260, "▁pet": 4261, "▁Russian": 4262, "▁Al": 4263, "▁AB": 4264, "▁9/1": 4265, "▁dancing": 4266, "▁streets": 4267, "ere": 4268, "▁quote": 4269, "▁Jon": 4270, "oid": 4271, "▁50,000": 4272, "▁tit": 4273, "aps": 4274, "▁collection": 4275, "▁Arch": 4276, "▁resource": 4277, "▁webs": 4278, "▁vers": 4279, "▁alph": 4280, "▁burning": 4281, "ault": 4282, "▁zone": 4283, "▁versus": 4284, "▁greatest": 4285, "▁hum": 4286, "▁moon": 4287, "▁Bible": 4288, "▁giant": 4289, "▁teles": 4290, "copes": 4291, "▁detect": 4292, "▁Con": 4293, "erence": 4294, "▁tour": 4295, "▁install": 4296, "▁silent": 4297, "▁exploration": 4298, "nal": 4299, "iverse": 4300, "▁extreme": 4301, "▁ast": 4302, "roph": 4303, "ysics": 4304, "▁advent": 4305, "▁beings": 4306, "ark": 4307, "▁quest": 4308, "▁subject": 4309, "▁Dr": 4310, "▁Einstein": 4311, "▁Bang": 4312, "▁exh": 4313, "ilar": 4314, "rim": 4315, "▁instruments": 4316, "▁cosm": 4317, "ama": 4318, "▁Des": 4319, "▁Northern": 4320, "▁Antarctica": 4321, "▁Pole": 4322, "pid": 4323, "▁gather": 4324, "aint": 4325, "▁chart": 4326, "▁promise": 4327, "▁presentation": 4328, "▁physics": 4329, "▁properly": 4330, "▁physic": 4331, "▁23": 4332, "▁unknown": 4333, "▁myster": 4334, "▁Min": 4335, "nes": 4336, "▁particle": 4337, "▁hitting": 4338, "▁surface": 4339, "▁cos": 4340, "mic": 4341, "ays": 4342, "▁amb": 4343, "▁disturb": 4344, "▁silence": 4345, "▁entirely": 4346, "vern": 4347, "▁cand": 4348, "▁mile": 4349, "ct": 4350, "▁galaxy": 4351, "▁particles": 4352, "▁neut": 4353, "▁signature": 4354, "▁em": 4355, "▁chance": 4356, "▁catch": 4357, "▁Russ": 4358, "▁tank": 4359, "mers": 4360, "▁kil": 4361, "▁scene": 4362, "reet": 4363, "▁landed": 4364, "▁frozen": 4365, "▁ice": 4366, "▁wait": 4367, "▁meter": 4368, "▁establish": 4369, "▁drill": 4370, "▁holes": 4371, "▁dive": 4372, "▁cold": 4373, "▁instrument": 4374, "▁rep": 4375, "▁maint": 4376, "▁mel": 4377, "▁phase": 4378, "▁entire": 4379, "▁bare": 4380, "arsh": 4381, "▁toile": 4382, "▁Lar": 4383, "cope": 4384, "▁astronom": 4385, "▁name": 4386, "▁planning": 4387, "▁Ext": 4388, "reme": 4389, "whel": 4390, "▁expans": 4391, "▁telescope": 4392, "▁mirror": 4393, "▁glass": 4394, "ith": 4395, "tech": 4396, "▁accur": 4397, "ower": 4398, "▁mir": 4399, "rors": 4400, "▁alt": 4401, "itude": 4402, "▁dry": 4403, "▁cloud": 4404, "mit": 4405, "▁mountains": 4406, "▁Finally": 4407, "▁balloon": 4408, "▁flight": 4409, "▁atmosphere": 4410, "osphere": 4411, "load": 4412, "▁Ice": 4413, "elf": 4414, "-1": 4415, "▁plane": 4416, "▁flew": 4417, "▁Mc": 4418, "van": 4419, "rib": 4420, "▁Scott": 4421, "▁exped": 4422, "▁meal": 4423, "▁engineers": 4424, "icians": 4425, "▁volcan": 4426, "▁glaci": 4427, "▁hel": 4428, "▁trucks": 4429, "▁boxes": 4430, "▁alone": 4431, "▁weigh": 4432, "▁minim": 4433, "▁thin": 4434, "▁sandwich": 4435, "▁wra": 4436, "pper": 4437, "amp": 4438, "▁shoes": 4439, "▁wearing": 4440, "foot": 4441, "▁ded": 4442, "orge": 4443, "▁sight": 4444, "end": 4445, "▁runs": 4446, "▁electron": 4447, "zero": 4448, "▁clothing": 4449, "▁observ": 4450, "atory": 4451, "imal": 4452, "▁Lad": 4453, "▁Budd": 4454, "hist": 4455, "▁struck": 4456, "▁ju": 4457, "xt": 4458, "osition": 4459, "▁discipl": 4460, "▁exploring": 4461, "▁stuck": 4462, "wards": 4463, "aul": 4464, "ush": 4465, "rooms": 4466, "can": 4467, "world": 4468, "cel": 4469, "▁fung": 4470, "▁insect": 4471, "▁treating": 4472, "▁smallpox": 4473, "▁flu": 4474, "<": 4475, "=": 4476, "ht": 4477, "spe": 4478, "akers": 4479, "view": 4480, "▁target": 4481, "bl": 4482, ">": 4483, "▁mush": 4484, "▁trouble": 4485, "▁entered": 4486, "X": 4487, "▁sixth": 4488, "▁wondered": 4489, "gan": 4490, "▁otherwise": 4491, "▁organism": 4492, "▁vote": 4493, "oted": 4494, "▁occur": 4495, "uses": 4496, "▁lands": 4497, "capes": 4498, "▁holds": 4499, "ils": 4500, "cious": 4501, "semb": 4502, "▁nature": 4503, "▁magic": 4504, "asses": 4505, "▁multi": 4506, "▁transfer": 4507, "ml": 4508, "gl": 4509, "▁Sund": 4510, "▁church": 4511, "▁forest": 4512, "ello": 4513, "▁obstac": 4514, "▁mention": 4515, "▁crazy": 4516, "oph": 4517, "▁Day": 4518, "iot": 4519, "▁closely": 4520, "dom": 4521, "uk": 4522, "bi": 4523, "▁op": 4524, "ok": 4525, "▁animal": 4526, "▁path": 4527, "ung": 4528, "▁rot": 4529, "room": 4530, "▁prime": 4531, "▁microbes": 4532, "▁de": 4533, "▁fields": 4534, "erm": 4535, "▁cub": 4536, "imately": 4537, "▁phot": 4538, "omic": 4539, "raph": 4540, "atr": 4541, "▁grows": 4542, "itory": 4543, "▁micros": 4544, "aring": 4545, "▁mem": 4546, "anes": 4547, "▁dioxide": 4548, "▁inh": 4549, "▁oxygen": 4550, "ternal": 4551, "▁stom": 4552, "▁lun": 4553, "gs": 4554, "▁concept": 4555, "▁er": 4556, "▁1990": 4557, "▁branch": 4558, "odes": 4559, "▁crossing": 4560, "▁hot": 4561, "▁alternative": 4562, "math": 4563, "eps": 4564, "▁grab": 4565, "▁invention": 4566, "▁consequence": 4567, "▁Go": 4568, "gets": 4569, "ains": 4570, "▁paradigm": 4571, "▁followed": 4572, "mar": 4573, "ci": 4574, "▁forming": 4575, "▁rocks": 4576, "umble": 4577, "▁Ox": 4578, "▁acid": 4579, "▁joined": 4580, "▁sequ": 4581, "▁formed": 4582, "9.": 4583, "anz": 4584, "▁1950": 4585, "▁Arab": 4586, "▁4": 4587, "20": 4588, "ax": 4589, "▁Boy": 4590, "▁Ge": 4591, "▁determ": 4592, "ross": 4593, "▁events": 4594, "▁65": 4595, "▁asteroid": 4596, "ett": 4597, "ison": 4598, "▁Sun": 4599, "▁pa": 4600, "▁reward": 4601, "▁More": 4602, "▁determined": 4603, "▁radiation": 4604, "▁planets": 4605, "▁elsewhere": 4606, "▁forg": 4607, "▁conclusion": 4608, "▁Eastern": 4609, "▁miss": 4610, "▁2,": 4611, "▁thick": 4612, "▁whereas": 4613, "▁burst": 4614, "abor": 4615, "ham": 4616, "▁dies": 4617, "▁treated": 4618, "hy": 4619, "rogen": 4620, "car": 4621, "▁returned": 4622, "▁tar": 4623, "ink": 4624, "▁pounds": 4625, "ufact": 4626, "gal": 4627, "▁sug": 4628, "▁ob": 4629, "ained": 4630, "▁ep": 4631, "han": 4632, "▁insects": 4633, "▁laid": 4634, "▁eggs": 4635, "▁lar": 4636, "ird": 4637, "▁seeds": 4638, "▁Whereas": 4639, "▁image": 4640, "▁gate": 4641, "angu": 4642, "▁biological": 4643, "▁sa": 4644, "stream": 4645, "▁habitat": 4646, "oration": 4647, "ason": 4648, "▁decre": 4649, "ase": 4650, "▁log": 4651, "▁colon": 4652, "▁implications": 4653, "▁method": 4654, "▁drawn": 4655, "▁offic": 4656, "▁excl": 4657, "usive": 4658, "▁described": 4659, "▁treatment": 4660, "▁State": 4661, "▁Col": 4662, "▁extinct": 4663, "▁May": 4664, "▁closer": 4665, "▁sample": 4666, "ense": 4667, "mitted": 4668, "iled": 4669, "▁extra": 4670, "cell": 4671, "▁metabol": 4672, "▁received": 4673, "rain": 4674, "▁states": 4675, "ounds": 4676, "▁select": 4677, "ivity": 4678, "▁considered": 4679, "St": 4680, "pox": 4681, "▁interview": 4682, "▁compared": 4683, "▁extraord": 4684, "arily": 4685, "▁extract": 4686, "▁combination": 4687, "opath": 4688, "ogen": 4689, "▁kill": 4690, "▁ants": 4691, "▁hom": 4692, "▁mor": 4693, "ait": 4694, "▁stations": 4695, "▁cultures": 4696, "▁Bar": 4697, "▁beh": 4698, "▁directions": 4699, "raham": 4700, "estic": 4701, "▁witness": 4702, "▁rev": 4703, "▁industries": 4704, "▁Ph": 4705, "▁u": 4706, "mb": 4707, "▁supp": 4708, "▁prior": 4709, "▁gonna": 4710, "ophy": 4711, "▁potentially": 4712, "▁ecological": 4713, "▁interactive": 4714, "▁code": 4715, "▁imag": 4716, "irm": 4717, "▁cred": 4718, "▁refuge": 4719, "▁squ": 4720, "▁contain": 4721, "asm": 4722, "▁corn": 4723, "obs": 4724, "▁grain": 4725, "▁population": 4726, "▁importantly": 4727, "▁Gen": 4728, "▁eth": 4729, "▁gain": 4730, "▁benefits": 4731, "▁intelligent": 4732, "▁fuels": 4733, "▁banks": 4734, "ived": 4735, "▁offers": 4736, "anted": 4737, "▁gift": 4738, "medicine": 4739, "storytelling": 4740, "▁golf": 4741, "▁loved": 4742, "▁appreci": 4743, "▁adm": 4744, "ibr": 4745, "▁redef": 4746, "▁spiritual": 4747, "▁faith": 4748, "▁uns": 4749, "▁vital": 4750, "▁lifestyle": 4751, "ek": 4752, "▁vac": 4753, "▁Fl": 4754, "owers": 4755, "▁truck": 4756, "▁Have": 4757, "▁drugs": 4758, "▁inspired": 4759, "▁motiv": 4760, "▁Your": 4761, "▁Peace": 4762, "▁happiness": 4763, "▁$": 4764, "▁dying": 4765, "▁Does": 4766, "▁Apple": 4767, "▁logo": 4768, "▁waiting": 4769, "▁tumor": 4770, "▁keeps": 4771, "▁profound": 4772, "▁unexpected": 4773, "▁uncertain": 4774, "life": 4775, "▁Bi": 4776, "▁prov": 4777, "ked": 4778, "▁adventure": 4779, "ote": 4780, "environment": 4781, "▁Of": 4782, "za": 4783, "▁dough": 4784, "▁cheese": 4785, "▁1,": 4786, "Hey": 4787, "aled": 4788, "ature": 4789, "▁steel": 4790, "▁rainforest": 4791, "▁coral": 4792, "▁reef": 4793, "▁sav": 4794, "▁designing": 4795, "ially": 4796, "▁energ": 4797, "etically": 4798, "▁cham": 4799, "▁1": 4800, "▁Mod": 4801, "▁doctors": 4802, "▁concerned": 4803, "▁suc": 4804, "uing": 4805, "▁Will": 4806, "▁neg": 4807, "▁val": 4808, "osp": 4809, "▁Ed": 4810, "▁aircraft": 4811, "▁carr": 4812, "▁agriculture": 4813, "▁abstract": 4814, "▁CO": 4815, "▁orange": 4816, "ato": 4817, "▁joke": 4818, "▁biom": 4819, "▁bas": 4820, "▁greenhouse": 4821, "▁faster": 4822, "andem": 4823, "▁playing": 4824, "▁hide": 4825, "▁drag": 4826, "▁ap": 4827, "▁gas": 4828, "ping": 4829, "▁chemistry": 4830, "▁doctor": 4831, "▁sus": 4832, "▁figures": 4833, "▁failing": 4834, "▁Was": 4835, "ifying": 4836, "lock": 4837, "▁indeed": 4838, "▁concrete": 4839, "ss": 4840, "entially": 4841, "uh": 4842, "▁failure": 4843, "▁serious": 4844, "▁thr": 4845, "illed": 4846, "▁ran": 4847, "▁reco": 4848, "▁hair": 4849, "arm": 4850, "ume": 4851, "▁everyday": 4852, "▁Par": 4853, "agon": 4854, "▁Space": 4855, "velopment": 4856, "▁International": 4857, "▁pushing": 4858, "oon": 4859, "▁circ": 4860, "▁sand": 4861, "▁treat": 4862, "not": 4863, "▁shrimp": 4864, "▁eff": 4865, "▁abund": 4866, "▁portion": 4867, "▁credit": 4868, "How": 4869, "▁draw": 4870, "▁bound": 4871, "▁interactions": 4872, "▁context": 4873, "ention": 4874, "▁massive": 4875, "forest": 4876, "▁wis": 4877, "▁clouds": 4878, "ires": 4879, "▁transform": 4880, "But": 4881, "ona": 4882, "vel": 4883, "▁beaut": 4884, "ifully": 4885, "▁leaf": 4886, "▁unt": 4887, "▁threw": 4888, "▁birds": 4889, "▁Revolution": 4890, "▁perhaps": 4891, "▁connecting": 4892, "▁liter": 4893, "▁dinosaurs": 4894, "aling": 4895, "children": 4896, "▁suggests": 4897, "▁medicine": 4898, "▁fewer": 4899, "▁cow": 4900, "▁crew": 4901, "▁sur": 4902, "▁existence": 4903, "▁normally": 4904, "▁asking": 4905, "▁insurance": 4906, "ng": 4907, "▁physician": 4908, "wr": 4909, "iter": 4910, "▁favorite": 4911, "▁writers": 4912, "▁intern": 4913, "7.": 4914, "ffect": 4915, "▁warm": 4916, "▁caring": 4917, "▁nurse": 4918, "▁fr": 4919, "bar": 4920, "▁ant": 4921, "▁inject": 4922, "odies": 4923, "▁bacter": 4924, "▁stre": 4925, "pt": 4926, "cus": 4927, "gest": 4928, "▁arm": 4929, "ude": 4930, "▁signs": 4931, "▁paral": 4932, "ysis": 4933, "▁sy": 4934, "yond": 4935, "ription": 4936, "▁conv": 4937, "▁microscope": 4938, "▁values": 4939, "▁courage": 4940, "ffic": 4941, "▁cure": 4942, "▁proced": 4943, "▁lic": 4944, "▁reached": 4945, "▁clin": 4946, "0,": 4947, "▁equival": 4948, "▁patient": 4949, "▁therap": 4950, "▁nurses": 4951, "▁holding": 4952, "iency": 4953, "▁disaster": 4954, "▁trained": 4955, "▁patients": 4956, "▁evidence": 4957, "tery": 4958, "▁receive": 4959, "ple": 4960, "iate": 4961, "▁stroke": 4962, "▁Two": 4963, "▁failed": 4964, "▁practices": 4965, "ene": 4966, "▁sick": 4967, "working": 4968, "▁finish": 4969, "aff": 4970, "This": 4971, "▁replace": 4972, "▁decades": 4973, "▁10-": 4974, "▁ign": 4975, "▁facts": 4976, "▁complic": 4977, "▁dev": 4978, "▁lowest": 4979, "▁obsessed": 4980, "kes": 4981, "ari": 4982, "▁junk": 4983, "xy": 4984, "▁colleagues": 4985, "▁surgeon": 4986, "▁journal": 4987, "▁articles": 4988, "▁Which": 4989, "▁skill": 4990, "▁deaths": 4991, "▁surgery": 4992, "list": 4993, "▁tot": 4994, "▁taught": 4995, "▁involves": 4996, "▁danger": 4997, "take": 4998, "off": 4999, "▁killer": 5000, "▁reci": 5001, "▁forgotten": 5002, "▁missed": 5003, "▁teams": 5004, "esthesia": 5005, "ife": 5006, "▁dumb": 5007, "▁frame": 5008, "▁implement": 5009, "▁Tanzan": 5010, "▁adopted": 5011, "irth": 5012, "▁forces": 5013, "▁behave": 5014, "ility": 5015, "▁opposite": 5016, "▁station": 5017, "▁emerg": 5018, "encies": 5019, "ulations": 5020, "▁scientists": 5021, "enge": 5022, "ls": 5023, "▁dro": 5024, "iar": 5025, "▁gentle": 5026, "▁creature": 5027, "▁mystery": 5028, "sect": 5029, "▁chances": 5030, "▁row": 5031, "▁loss": 5032, "▁var": 5033, "▁caused": 5034, "▁phenomenon": 5035, "apse": 5036, "▁Dis": 5037, "order": 5038, "▁Central": 5039, "▁February": 5040, "▁empty": 5041, "ences": 5042, "▁caught": 5043, "▁wip": 5044, "▁virus": 5045, "▁ident": 5046, "rets": 5047, "lication": 5048, "▁ubiqu": 5049, "itous": 5050, "▁struggling": 5051, "▁diseases": 5052, "▁factors": 5053, "▁dynamic": 5054, "▁surprisingly": 5055, "▁opens": 5056, "▁colony": 5057, "keep": 5058, "▁Gu": 5059, "▁mail": 5060, "▁Australia": 5061, "▁Hawai": 5062, "▁Florida": 5063, "▁trag": 5064, "▁fascinating": 5065, "▁member": 5066, "▁intuitive": 5067, "▁privilege": 5068, "▁Haiti": 5069, "▁earlier": 5070, "▁explan": 5071, "▁exc": 5072, "▁formal": 5073, "adow": 5074, "▁ing": 5075, "uity": 5076, "▁poster": 5077, "▁raised": 5078, "▁bell": 5079, "▁mov": 5080, "▁wor": 5081, "▁worried": 5082, "gment": 5083, "ads": 5084, "sy": 5085, "é": 5086, "athy": 5087, "▁compl": 5088, "▁pitch": 5089, "ener": 5090, "inated": 5091, "▁illustr": 5092, "▁yesterday": 5093, "uits": 5094, "ola": 5095, "▁bread": 5096, "▁coffee": 5097, "▁ingredients": 5098, "▁plate": 5099, "▁flower": 5100, "▁flowers": 5101, "▁sex": 5102, "▁workers": 5103, "▁paid": 5104, "▁pollen": 5105, "▁male": 5106, "oom": 5107, "▁apple": 5108, "▁variety": 5109, "▁gathering": 5110, "▁electric": 5111, "▁charge": 5112, "▁However": 5113, "▁mammals": 5114, "irty": 5115, "▁sam": 5116, "▁swe": 5117, "▁flying": 5118, "▁flies": 5119, "mind": 5120, "▁murd": 5121, "urd": 5122, "▁Audience": 5123, "▁thanks": 5124, "▁sit": 5125, "itary": 5126, "▁egg": 5127, "▁hang": 5128, "▁disappeared": 5129, "ined": 5130, "▁glad": 5131, "▁White": 5132, "▁syndrome": 5133, "▁Nature": 5134, "▁forgot": 5135, "▁symbol": 5136, "▁Five": 5137, "osystem": 5138, "think": 5139, "▁House": 5140, "▁sheep": 5141, "▁wine": 5142, "▁frag": 5143, "vert": 5144, "▁apparently": 5145, "▁occurs": 5146, "▁odd": 5147, "▁fighting": 5148, "▁maxim": 5149, "▁opportunities": 5150, "alian": 5151, "▁Man": 5152, "▁intrig": 5153, "coll": 5154, "▁roots": 5155, "▁Sometimes": 5156, "▁br": 5157, "▁mistakes": 5158, "nel": 5159, "▁mistake": 5160, "▁reported": 5161, "▁perman": 5162, "▁bird": 5163, "vest": 5164, "▁accom": 5165, "▁stud": 5166, "▁comfort": 5167, "▁sophisticated": 5168, "▁monitor": 5169, "▁conc": 5170, "▁continu": 5171, "eters": 5172, "▁und": 5173, "erest": 5174, "bor": 5175, "▁remove": 5176, "▁magnific": 5177, "ron": 5178, "level": 5179, "▁Aristot": 5180, "▁influ": 5181, "▁Western": 5182, "▁edge": 5183, "▁lack": 5184, "▁movements": 5185, "known": 5186, "▁Ven": 5187, "ails": 5188, "▁sorry": 5189, "▁techniques": 5190, "fl": 5191, "▁adult": 5192, "▁gravity": 5193, "▁toward": 5194, "▁cons": 5195, "▁transport": 5196, "▁rats": 5197, "▁subst": 5198, "▁Charles": 5199, "▁assist": 5200, "▁Franc": 5201, "▁mark": 5202, "ored": 5203, "▁message": 5204, "▁hardly": 5205, "▁tip": 5206, "▁acts": 5207, "▁letters": 5208, "▁Britain": 5209, "▁regions": 5210, "▁syn": 5211, "▁dep": 5212, "icted": 5213, "trans": 5214, "▁neurons": 5215, "▁exchange": 5216, "ye": 5217, "▁length": 5218, "▁600": 5219, "▁computing": 5220, "▁networks": 5221, "▁90": 5222, "cont": 5223, "▁evolve": 5224, "nt": 5225, "▁master": 5226, "wh": 5227, "▁hybr": 5228, "▁Hy": 5229, "▁possibilities": 5230, "▁champ": 5231, "▁whist": 5232, "ê": 5233, "▁Bel": 5234, "▁entertainment": 5235, "live": 5236, "performance": 5237, "ha": 5238, "▁till": 5239, "4,": 5240, "▁honest": 5241, "iant": 5242, "▁Eve": 5243, "law": 5244, "▁opinion": 5245, "▁sister": 5246, "lease": 5247, "▁Goo": 5248, "▁Dutch": 5249, "▁Lou": 5250, "bur": 5251, "▁sou": 5252, "4.": 5253, "▁defend": 5254, "▁jud": 5255, "▁sports": 5256, "men": 5257, "▁Actually": 5258, "orry": 5259, "▁prom": 5260, "ared": 5261, "ience": 5262, "▁Charl": 5263, "▁Tod": 5264, "▁causes": 5265, "▁scen": 5266, "anc": 5267, "▁windows": 5268, "gh": 5269, "▁subway": 5270, "lo": 5271, "pro": 5272, "where": 5273, "▁comedy": 5274, "culture": 5275, "▁January": 5276, "▁train": 5277, "▁Dan": 5278, "▁brown": 5279, "▁hat": 5280, "▁unusual": 5281, "cut": 5282, "▁stops": 5283, "▁entering": 5284, "▁unf": 5285, "ortun": 5286, "▁forget": 5287, "▁dec": 5288, "▁aware": 5289, "using": 5290, "▁funny": 5291, "▁laugh": 5292, "▁pulling": 5293, "▁enter": 5294, "onym": 5295, "▁batter": 5296, "▁pair": 5297, "Th": 5298, "▁reaction": 5299, "▁vide": 5300, "▁continued": 5301, "▁diverse": 5302, "▁impro": 5303, "itiz": 5304, "▁com": 5305, "▁walking": 5306, "▁Union": 5307, "▁Squ": 5308, "5.": 5309, "▁flo": 5310, "iding": 5311, "▁70": 5312, "▁Up": 5313, "▁dress": 5314, "▁stores": 5315, "▁stood": 5316, "▁signal": 5317, "▁spell": 5318, "Look": 5319, "ump": 5320, "▁Fore": 5321, "anced": 5322, "▁trash": 5323, "▁advance": 5324, "▁watched": 5325, "anger": 5326, "▁Bu": 5327, "▁weeke": 5328, "Don": 5329, "▁yellow": 5330, "▁photos": 5331, "▁footage": 5332, "▁dial": 5333, "lt": 5334, "▁wear": 5335, "▁tape": 5336, "▁pretend": 5337, "ressing": 5338, "▁rush": 5339, "▁Que": 5340, "▁wash": 5341, "ward": 5342, "▁critic": 5343, "ese": 5344, "▁occasion": 5345, "▁Sat": 5346, "▁football": 5347, "▁comment": 5348, "▁afternoon": 5349, "zing": 5350, "▁Grand": 5351, "▁listening": 5352, "▁sil": 5353, "▁song": 5354, "▁spont": 5355, "▁musical": 5356, "▁Island": 5357, "▁adults": 5358, "resp": 5359, "onse": 5360, "opher": 5361, "▁religion": 5362, "▁claim": 5363, "eny": 5364, "brain": 5365, "evolution": 5366, "rel": 5367, "▁wondering": 5368, "chnology": 5369, "air": 5370, "▁fool": 5371, "▁selection": 5372, "icated": 5373, "▁reverse": 5374, "▁religions": 5375, "▁phenomen": 5376, "▁stri": 5377, "▁terror": 5378, "▁anx": 5379, "iety": 5380, "ensity": 5381, "▁warming": 5382, "▁Gore": 5383, "▁Today": 5384, "▁immense": 5385, "▁evolutionary": 5386, "▁responses": 5387, "▁policy": 5388, "▁curriculum": 5389, "▁cre": 5390, "eds": 5391, "▁freedom": 5392, "▁democracy": 5393, "▁depends": 5394, "▁review": 5395, "oman": 5396, "itarian": 5397, "▁pract": 5398, "▁democratic": 5399, "▁principles": 5400, "▁ridiculous": 5401, "▁pur": 5402, "▁depend": 5403, "▁survival": 5404, "source": 5405, "▁protection": 5406, "▁rocket": 5407, "uel": 5408, "▁Cr": 5409, "vere": 5410, "▁Int": 5411, "▁unbelie": 5412, "▁biologists": 5413, "▁climbing": 5414, "▁grass": 5415, "▁infected": 5416, "lly": 5417, "▁bright": 5418, "▁genetic": 5419, "ready": 5420, "terday": 5421, "▁afterwards": 5422, "▁written": 5423, "▁painted": 5424, "▁fragile": 5425, "▁inherent": 5426, "▁paint": 5427, "▁Mart": 5428, "▁puzz": 5429, "▁Me": 5430, "▁amaz": 5431, "▁orig": 5432, "▁paras": 5433, "▁mouse": 5434, "▁cat": 5435, "ouse": 5436, "▁eaten": 5437, "▁Tr": 5438, "ij": 5439, "uces": 5440, "Is": 5441, "lam": 5442, "interest": 5443, "▁Islam": 5444, "▁Christian": 5445, "emen": 5446, "▁est": 5447, "▁Same": 5448, "otes": 5449, "▁briefly": 5450, "point": 5451, "▁succeed": 5452, "+": 5453, "▁traditional": 5454, "lete": 5455, "▁interpret": 5456, "▁insight": 5457, "▁psychology": 5458, "▁wise": 5459, "▁advice": 5460, "▁explains": 5461, "▁transl": 5462, "ivid": 5463, "▁accessible": 5464, "▁With": 5465, "▁Mark": 5466, "▁truth": 5467, "▁accidents": 5468, "▁signific": 5469, "▁Hom": 5470, "▁film": 5471, "▁belief": 5472, "▁afraid": 5473, "▁sci": 5474, "kind": 5475, "▁explanation": 5476, "▁minute": 5477, "irst": 5478, "▁sentence": 5479, "▁false": 5480, "▁shaped": 5481, "▁serve": 5482, "istry": 5483, "▁mixed": 5484, "▁cock": 5485, "tail": 5486, "▁trillion": 5487, "▁decisions": 5488, "throp": 5489, "▁fiber": 5490, "▁deeply": 5491, "▁solving": 5492, "▁seriously": 5493, "▁author": 5494, "▁coun": 5495, "sel": 5496, "▁ben": 5497, "mark": 5498, "ev": 5499, "▁practice": 5500, "In": 5501, "▁Great": 5502, "▁Jesus": 5503, "ples": 5504, "oly": 5505, "▁maps": 5506, "ulf": 5507, "▁driving": 5508, "▁meme": 5509, "▁committed": 5510, "▁san": 5511, "uth": 5512, "▁tests": 5513, "bre": 5514, "▁earthquake": 5515, "▁October": 5516, "▁gotten": 5517, "nocent": 5518, "▁ir": 5519, "ician": 5520, "▁equipment": 5521, "while": 5522, "▁collected": 5523, "▁doc": 5524, "ented": 5525, "▁saved": 5526, "▁simplicity": 5527, "▁simpl": 5528, "▁stages": 5529, "▁device": 5530, "▁wireless": 5531, "▁affordable": 5532, "▁GP": 5533, "▁trans": 5534, "▁ser": 5535, "▁users": 5536, "aining": 5537, "min": 5538, "▁hardware": 5539, "▁contribute": 5540, "asure": 5541, "▁increasingly": 5542, "▁soft": 5543, "ada": 5544, "▁translation": 5545, "▁frequ": 5546, "▁definition": 5547, "aves": 5548, "▁smallest": 5549, "▁perceive": 5550, "rum": 5551, "▁diam": 5552, "▁positions": 5553, "▁relevant": 5554, "▁typically": 5555, "uct": 5556, "▁Next": 5557, "with": 5558, "▁dest": 5559, "▁facing": 5560, "▁noise": 5561, "▁according": 5562, "▁devast": 5563, "▁kills": 5564, "phone": 5565, "ray": 5566, "▁Sch": 5567, "fer": 5568, "▁attached": 5569, "isten": 5570, "comp": 5571, "▁tired": 5572, "▁disorder": 5573, "▁Ten": 5574, "▁suffer": 5575, "▁college": 5576, "▁dam": 5577, "ect": 5578, "▁seek": 5579, "astic": 5580, "▁fore": 5581, "ground": 5582, "▁proportion": 5583, "▁ult": 5584, "ras": 5585, "▁therapy": 5586, "rip": 5587, "▁pul": 5588, "▁conscious": 5589, "▁Secondly": 5590, "▁Mus": 5591, "▁brains": 5592, "▁style": 5593, "▁played": 5594, "▁physicist": 5595, "evin": 5596, "walk": 5597, "▁sky": 5598, "▁stars": 5599, "▁Gal": 5600, "unning": 5601, "▁convince": 5602, "▁ring": 5603, "▁capture": 5604, "▁songs": 5605, "▁bang": 5606, "urn": 5607, "▁shadow": 5608, "▁cast": 5609, "bert": 5610, "▁traveled": 5611, "▁curve": 5612, "▁orbit": 5613, "▁dense": 5614, "▁escape": 5615, "▁German": 5616, "▁Jew": 5617, "▁accompl": 5618, "▁traject": 5619, "▁mathematical": 5620, "fall": 5621, "▁Manhattan": 5622, "▁spill": 5623, "▁myth": 5624, "ressive": 5625, "antage": 5626, "▁Mil": 5627, "ala": 5628, "▁dust": 5629, "▁cross": 5630, "▁relative": 5631, "▁tun": 5632, "▁simulation": 5633, "▁crack": 5634, "vit": 5635, "▁stretch": 5636, "zed": 5637, "▁glamorous": 5638, "▁ink": 5639, "uck": 5640, "▁Long": 5641, "▁surely": 5642, "▁nucle": 5643, "SA": 5644, "▁galaxies": 5645, "bors": 5646, "▁coll": 5647, "▁perception": 5648, "▁der": 5649, "▁accurate": 5650, "▁animation": 5651, "▁cha": 5652, "▁Four": 5653, "xies": 5654, "▁paintings": 5655, "▁earl": 5656, "▁backwards": 5657, "▁mult": 5658, "ums": 5659, "▁origins": 5660, "▁perspective": 5661, "▁partners": 5662, "▁classes": 5663, "▁conservation": 5664, "rees": 5665, "▁artists": 5666, "vas": 5667, "estern": 5668, "▁Mon": 5669, "▁quant": 5670, "▁painting": 5671, "▁measured": 5672, "▁multip": 5673, "▁bran": 5674, "▁calculate": 5675, "6,": 5676, "▁cry": 5677, "▁laws": 5678, "▁bars": 5679, "itation": 5680, "▁continues": 5681, "▁institution": 5682, "▁sustainability": 5683, "▁lect": 5684, "▁Cons": 5685, "▁fro": 5686, "lands": 5687, "▁Super": 5688, "▁violent": 5689, "▁meetings": 5690, "▁placed": 5691, "▁exercise": 5692, "though": 5693, "▁walls": 5694, "▁Mr": 5695, "▁input": 5696, "▁violence": 5697, "▁enc": 5698, "ief": 5699, "sw": 5700, "ami": 5701, "anda": 5702, "ati": 5703, "▁compassion": 5704, "▁char": 5705, "assion": 5706, "▁instinct": 5707, "▁doubt": 5708, "esthes": 5709, "▁impl": 5710, "▁viol": 5711, "viol": 5712, "fore": 5713, "▁blame": 5714, "ame": 5715, "▁lies": 5716, "▁capacity": 5717, "▁secure": 5718, "▁compassionate": 5719, "eness": 5720, "▁empathy": 5721, "imb": 5722, "iqu": 5723, "▁players": 5724, "▁kiss": 5725, "mp": 5726, "▁den": 5727, "▁Comp": 5728, "▁occ": 5729, "▁schem": 5730, "▁finds": 5731, "▁cards": 5732, "▁logic": 5733, "▁desire": 5734, "▁recognition": 5735, "▁meaningful": 5736, "▁therefore": 5737, "▁Everything": 5738, "iod": 5739, "▁relate": 5740, "▁swimming": 5741, "ress": 5742, "▁cy": 5743, "▁cooking": 5744, "▁sym": 5745, "▁fake": 5746, "▁teeth": 5747, "▁pray": 5748, "▁teaching": 5749, "hat": 5750, "▁Iran": 5751, "▁societ": 5752, "ography": 5753, "women": 5754, "▁Art": 5755, "olitics": 5756, "▁arrest": 5757, "▁torture": 5758, "▁psychological": 5759, "▁herself": 5760, "▁speaker": 5761, "▁Also": 5762, "▁identity": 5763, "▁regime": 5764, "▁crime": 5765, "▁iron": 5766, "owered": 5767, "▁inspire": 5768, "oke": 5769, "▁mob": 5770, "▁weapon": 5771, "ulture": 5772, "▁serving": 5773, "▁mainly": 5774, "▁separated": 5775, "▁Islamic": 5776, "cend": 5777, "▁transformed": 5778, "mas": 5779, "yr": 5780, "▁Turkey": 5781, "▁Last": 5782, "▁finished": 5783, "omen": 5784, "▁195": 5785, "▁exer": 5786, "▁cou": 5787, "atically": 5788, "▁leader": 5789, "▁magical": 5790, "▁novel": 5791, "ession": 5792, "ventions": 5793, "▁sec": 5794, "reating": 5795, "▁femin": 5796, "most": 5797, "▁tim": 5798, "leg": 5799, "ran": 5800, "▁repe": 5801, "▁presence": 5802, "▁insp": 5803, "▁educated": 5804, "rad": 5805, "▁inspiration": 5806, "▁circumstances": 5807, "▁pushed": 5808, "▁rule": 5809, "▁operate": 5810, "uro": 5811, "▁Bon": 5812, "▁halluc": 5813, "inations": 5814, "▁describes": 5815, "port": 5816, "▁minds": 5817, "▁imagination": 5818, "imic": 5819, "idents": 5820, "heim": 5821, "▁Ros": 5822, "▁mentioned": 5823, "▁blind": 5824, "ople": 5825, "pes": 5826, "▁snow": 5827, "▁dogs": 5828, "▁pink": 5829, "ares": 5830, "▁ceiling": 5831, "▁humor": 5832, "related": 5833, "▁mad": 5834, "▁exam": 5835, "▁medic": 5836, "There": 5837, "▁det": 5838, "▁originally": 5839, "mented": 5840, "▁homes": 5841, "▁largely": 5842, "▁eld": 5843, "▁suff": 5844, "▁mag": 5845, "And": 5846, "ome": 5847, "ull": 5848, "▁bath": 5849, "▁smo": 5850, "▁pip": 5851, "▁recognized": 5852, "▁sca": 5853, "▁inches": 5854, "aneously": 5855, "▁strip": 5856, "▁restaurant": 5857, "▁Once": 5858, "▁husband": 5859, "▁simult": 5860, "▁roads": 5861, "▁cart": 5862, "oons": 5863, "▁transparent": 5864, "▁Street": 5865, "▁Fre": 5866, "▁persist": 5867, "▁define": 5868, "ledge": 5869, "agn": 5870, "sych": 5871, "▁acc": 5872, "▁sed": 5873, "psy": 5874, "▁traffic": 5875, "▁senses": 5876, "herent": 5877, "▁geomet": 5878, "asc": 5879, "▁functional": 5880, "▁imagery": 5881, "RI": 5882, "▁perce": 5883, "▁edges": 5884, "yrus": 5885, "▁Martin": 5886, "▁fig": 5887, "▁connections": 5888, "▁clus": 5889, "▁Norm": 5890, "▁integrated": 5891, "▁organize": 5892, "here": 5893, "pre": 5894, "▁dreams": 5895, "▁associ": 5896, "▁infin": 5897, "▁CA": 5898, "▁utter": 5899, "ideo": 5900, "education": 5901, "▁Sal": 5902, "▁remarkable": 5903, "▁curric": 5904, "ula": 5905, "▁script": 5906, "alks": 5907, "▁hyp": 5908, "▁foss": 5909, "▁comm": 5910, "▁manufacture": 5911, "▁blow": 5912, "▁analy": 5913, "▁tut": 5914, "▁cous": 5915, "lement": 5916, "▁feedback": 5917, "▁ton": 5918, "▁repeat": 5919, "▁embarrass": 5920, "My": 5921, "▁content": 5922, "▁Newton": 5923, "▁tomorrow": 5924, "▁assign": 5925, "▁homework": 5926, "▁lecture": 5927, "▁letting": 5928, "▁primitive": 5929, "▁analog": 5930, "icy": 5931, "▁gaps": 5932, "▁necessary": 5933, "▁functions": 5934, "▁map": 5935, "▁addition": 5936, "▁framework": 5937, "▁genetics": 5938, "▁pilot": 5939, "rict": 5940, "▁grade": 5941, "▁gut": 5942, "▁textbook": 5943, "▁fre": 5944, "▁sim": 5945, "▁column": 5946, "▁concepts": 5947, "▁prof": 5948, "▁Blue": 5949, "▁expected": 5950, "▁finance": 5951, "▁marketing": 5952, "▁focused": 5953, "▁circle": 5954, "▁rat": 5955, "ta": 5956, "▁motivation": 5957, "▁awesome": 5958, "wide": 5959, "Can": 5960, "▁Like": 5961, "▁focusing": 5962, "olute": 5963, "▁Bo": 5964, "▁Girl": 5965, "▁ment": 5966, "iol": 5967, "umines": 5968, "cence": 5969, "expl": 5970, "cean": 5971, "▁biol": 5972, "▁trip": 5973, "▁alien": 5974, "reci": 5975, "▁tracking": 5976, "▁figured": 5977, "▁Narrator": 5978, "▁recorded": 5979, "▁prove": 5980, "ask": 5981, "▁dragon": 5982, "bel": 5983, "▁organs": 5984, "▁fin": 5985, "▁nets": 5986, "▁distract": 5987, "▁tast": 5988, "▁wings": 5989, "▁tor": 5990, "▁golden": 5991, "▁breat": 5992, "rap": 5993, "ittle": 5994, "▁arms": 5995, "▁stock": 5996, "ze": 5997, "▁stem": 5998, "▁effects": 5999, "▁opt": 6000, "▁jellyfish": 6001, "▁invisible": 6002, "tr": 6003, "lic": 6004, "▁analyze": 6005, "▁shark": 6006, "▁contem": 6007, "▁angle": 6008, "▁climb": 6009, "cket": 6010, "▁99": 6011, "▁wond": 6012, "“": 6013, "”": 6014, "▁celebr": 6015, "▁creativity": 6016, "▁Prize": 6017, "outh": 6018, "▁Scient": 6019, "sters": 6020, "▁chosen": 6021, "▁Human": 6022, "ific": 6023, "▁immun": 6024, "biology": 6025, "▁doub": 6026, "▁increasing": 6027, "▁compar": 6028, "▁outcome": 6029, "▁exponential": 6030, "▁continue": 6031, "▁inev": 6032, "▁distant": 6033, "▁initial": 6034, "▁lif": 6035, "▁ancestors": 6036, "▁scient": 6037, "ifically": 6038, "▁diplom": 6039, "▁appl": 6040, "▁prepare": 6041, "▁laboratory": 6042, "ceed": 6043, "▁mathemat": 6044, "mi": 6045, "▁mathematic": 6046, "▁stat": 6047, "▁architects": 6048, "▁expanding": 6049, "▁realm": 6050, "▁aside": 6051, "▁candid": 6052, "uring": 6053, "▁cour": 6054, "ses": 6055, "iet": 6056, "▁rul": 6057, "bal": 6058, "▁element": 6059, "▁fundam": 6060, "▁harder": 6061, "▁32": 6062, "▁crucial": 6063, "▁processes": 6064, "▁intuition": 6065, "▁emerge": 6066, "▁statist": 6067, "▁methods": 6068, "▁analysis": 6069, "▁Number": 6070, "▁researchers": 6071, "▁statistics": 6072, "▁interests": 6073, "▁excell": 6074, "▁useful": 6075, "▁enh": 6076, "▁conduct": 6077, "going": 6078, "▁discoveries": 6079, "▁investig": 6080, "▁dict": 6081, "▁guns": 6082, "erves": 6083, "▁cru": 6084, "▁nor": 6085, "▁strategies": 6086, "▁hun": 6087, "▁searching": 6088, "vention": 6089, "▁satisf": 6090, "action": 6091, "see": 6092, "▁anim": 6093, "vis": 6094, "izations": 6095, "ength": 6096, "▁heaven": 6097, "col": 6098, "▁origin": 6099, "▁diver": 6100, "ral": 6101, "▁describ": 6102, "sell": 6103, "▁Sc": 6104, "▁ill": 6105, "▁horm": 6106, "▁graphics": 6107, "▁cryst": 6108, "wind": 6109, "▁physically": 6110, "▁representation": 6111, "▁bio": 6112, "aped": 6113, "▁thrown": 6114, "▁section": 6115, "▁error": 6116, "gling": 6117, "▁nan": 6118, "ometers": 6119, "▁proteins": 6120, "▁chromos": 6121, "omes": 6122, "▁zoom": 6123, "▁nuclear": 6124, "▁breaks": 6125, "▁identical": 6126, "▁spl": 6127, "▁structures": 6128, "▁whis": 6129, "icking": 6130, "▁achie": 6131, "cast": 6132, "▁shr": 6133, "▁mechanical": 6134, "▁pleas": 6135, "▁erad": 6136, "▁lift": 6137, "▁Howard": 6138, "ooper": 6139, "ipedia": 6140, "cest": 6141, "▁businesses": 6142, "▁defe": 6143, "▁narrative": 6144, "▁cooperation": 6145, "unt": 6146, "▁protein": 6147, "ange": 6148, "▁civil": 6149, "abet": 6150, "abled": 6151, "▁printing": 6152, "olutions": 6153, "formation": 6154, "▁cooper": 6155, "▁joint": 6156, "▁era": 6157, "ether": 6158, "▁leap": 6159, "▁linked": 6160, "band": 6161, "▁narr": 6162, "atives": 6163, "elly": 6164, "la": 6165, "sec": 6166, "▁suck": 6167, "▁Tw": 6168, "enty": 6169, "itors": 6170, "▁rooms": 6171, "▁player": 6172, "/1": 6173, "▁reject": 6174, "▁Yet": 6175, "▁trials": 6176, "▁Asia": 6177, "enced": 6178, "arre": 6179, "▁1960": 6180, "po": 6181, "▁pool": 6182, "aters": 6183, "▁fisher": 6184, "▁interestingly": 6185, "▁debate": 6186, "▁ecology": 6187, "▁pun": 6188, "▁meas": 6189, "ru": 6190, "▁societies": 6191, "ai": 6192, "▁Ben": 6193, "▁sour": 6194, "illy": 6195, "▁App": 6196, "face": 6197, "worth": 6198, "▁volunteers": 6199, "cycl": 6200, "▁NG": 6201, "Os": 6202, "▁tsun": 6203, "▁victims": 6204, "illions": 6205, "@": 6206, ".,": 6207, "▁Kenya": 6208, "ests": 6209, "MS": 6210, "▁Ap": 6211, "▁Project": 6212, "cipl": 6213, "inary": 6214, "▁evil": 6215, "▁demo": 6216, "▁Bl": 6217, "▁Law": 6218, "▁architect": 6219, "apping": 6220, "▁fluid": 6221, "olves": 6222, "▁Sim": 6223, "▁virtual": 6224, "ades": 6225, "▁blogs": 6226, "▁refer": 6227, "▁bubbles": 6228, "▁transition": 6229, "▁geometry": 6230, "▁ge": 6231, "sour": 6232, "▁roof": 6233, "ike": 6234, "▁cars": 6235, "▁George": 6236, "▁tele": 6237, "▁scr": 6238, "▁detailed": 6239, "▁compelling": 6240, "▁rebuild": 6241, "▁Vietnam": 6242, "▁Video": 6243, "▁commun": 6244, "enh": 6245, "▁conflict": 6246, "▁bomb": 6247, "▁Pol": 6248, "side": 6249, "ultural": 6250, "▁killing": 6251, "▁wars": 6252, "▁II": 6253, "▁bombs": 6254, "ince": 6255, "▁rice": 6256, "▁forced": 6257, "▁chief": 6258, "▁spoke": 6259, "iction": 6260, "▁boys": 6261, "▁girls": 6262, "▁id": 6263, "elt": 6264, "▁remains": 6265, "ghan": 6266, "istan": 6267, "▁depression": 6268, "oting": 6269, "poverty": 6270, "▁peace": 6271, "▁overcome": 6272, "▁confidence": 6273, "aly": 6274, "▁Afghan": 6275, "▁brib": 6276, "▁ethn": 6277, "▁conflicts": 6278, "▁shame": 6279, "▁killed": 6280, "▁wound": 6281, "▁sympt": 6282, "▁session": 6283, "Be": 6284, "cause": 6285, "▁Af": 6286, "▁ash": 6287, "amed": 6288, "den": 6289, "▁symptoms": 6290, "▁feelings": 6291, "▁restr": 6292, "▁hus": 6293, "athers": 6294, "▁beat": 6295, "▁partly": 6296, "▁Somebody": 6297, "▁engage": 6298, "▁mar": 6299, "urally": 6300, "▁lob": 6301, "▁component": 6302, "▁adding": 6303, "▁staff": 6304, "▁manual": 6305, "ces": 6306, "▁effective": 6307, "▁severe": 6308, "▁stayed": 6309, "▁dropped": 6310, "▁facility": 6311, "▁immediate": 6312, "▁recon": 6313, "▁consid": 6314, "▁spreading": 6315, "▁Jose": 6316, "▁Ant": 6317, "▁Ab": 6318, "▁youth": 6319, "ED": 6320, "▁speech": 6321, "▁dear": 6322, "joy": 6323, "▁educ": 6324, "lessly": 6325, "ystem": 6326, "chest": 6327, "oir": 6328, "ply": 6329, "▁tal": 6330, "▁audiences": 6331, "▁adoles": 6332, "▁musicians": 6333, "▁artistic": 6334, "▁enthusi": 6335, "▁strength": 6336, "▁ess": 6337, "▁Nothing": 6338, "▁princi": 6339, "lin": 6340, "▁adap": 6341, "▁rescue": 6342, "▁emphas": 6343, "▁vulnerable": 6344, "▁dimensions": 6345, "▁personality": 6346, "▁leadership": 6347, "other": 6348, "▁miser": 6349, "ification": 6350, "▁provides": 6351, "▁Within": 6352, "▁disco": 6353, "▁construct": 6354, "▁progress": 6355, "▁spaces": 6356, "▁prost": 6357, "bits": 6358, "▁synth": 6359, "esis": 6360, "▁wisdom": 6361, "▁aim": 6362, "▁weak": 6363, "▁dignity": 6364, "▁passionate": 6365, "reen": 6366, "▁iPhone": 6367, "inter": 6368, "▁qualities": 6369, "▁medium": 6370, "▁somewhat": 6371, "▁horr": 6372, "▁diag": 6373, "▁designers": 6374, "▁High": 6375, "ouch": 6376, "▁Isn": 6377, "▁finger": 6378, "▁resolution": 6379, "osh": 6380, "▁typ": 6381, "half": 6382, "inger": 6383, "▁bug": 6384, "▁continuous": 6385, "▁pressure": 6386, "▁sheet": 6387, "▁properties": 6388, "mm": 6389, "▁convers": 6390, "ique": 6391, "▁ending": 6392, "yle": 6393, "▁penguin": 6394, "..": 6395, "▁asks": 6396, "▁cognitive": 6397, "▁transmission": 6398, "▁highlight": 6399, "▁chap": 6400, "▁phr": 6401, "▁filter": 6402, "▁plays": 6403, "▁ped": 6404, "xim": 6405, "▁Pakistan": 6406, "▁rough": 6407, "▁whose": 6408, "entally": 6409, "▁visit": 6410, "uous": 6411, "ec": 6412, "alk": 6413, "▁pattern": 6414, "conf": 6415, "▁Peter": 6416, "▁architectural": 6417, "▁location": 6418, "▁seat": 6419, "▁chair": 6420, "▁round": 6421, "▁tab": 6422, "▁mot": 6423, "▁transmit": 6424, "▁ax": 6425, "struct": 6426, "▁bold": 6427, "▁cir": 6428, "▁aging": 6429, "▁imper": 6430, "olds": 6431, "▁kitchen": 6432, "▁differences": 6433, "▁answ": 6434, "set": 6435, "▁behavioral": 6436, "inson": 6437, "▁tre": 6438, "▁decline": 6439, "▁Wow": 6440, "▁prog": 6441, "▁tick": 6442, "ograph": 6443, "iens": 6444, "▁pandemic": 6445, "lines": 6446, "▁occurred": 6447, "▁innovative": 6448, "▁Mag": 6449, "▁extend": 6450, "ien": 6451, "▁pers": 6452, "▁conce": 6453, "Q": 6454, "▁wired": 6455, "▁mak": 6456, "▁bro": 6457, "usiness": 6458, "▁unit": 6459, "▁inj": 6460, "uries": 6461, "▁CE": 6462, "▁plug": 6463, "▁Leg": 6464, "▁borrow": 6465, "▁collecting": 6466, "CA": 6467, "ech": 6468, "house": 6469, "▁universities": 6470, "▁clinical": 6471, "▁option": 6472, "▁nowhere": 6473, "’": 6474, "▁pigs": 6475, "▁Sus": 6476, "sex": 6477, "▁friendly": 6478, "ork": 6479, "▁scratch": 6480, "cers": 6481, "▁locked": 6482, "▁feeding": 6483, "ried": 6484, "▁exhibition": 6485, "ten": 6486, "▁demonstrate": 6487, "▁extent": 6488, "▁restaurants": 6489, "▁required": 6490, "▁gar": 6491, "uan": 6492, "▁reaching": 6493, "▁limits": 6494, "▁bear": 6495, "▁forests": 6496, "▁fossil": 6497, "▁fuel": 6498, "▁emissions": 6499, "▁amongst": 6500, "▁vegetables": 6501, "uit": 6502, "▁foods": 6503, "effic": 6504, "bage": 6505, "market": 6506, "▁hungry": 6507, "iced": 6508, "▁Who": 6509, "resh": 6510, "▁standards": 6511, "fect": 6512, "▁ed": 6513, "icles": 6514, "omy": 6515, "▁bow": 6516, "▁regard": 6517, "▁governments": 6518, "▁import": 6519, "▁biodiversity": 6520, "▁dig": 6521, "ogra": 6522, "▁globally": 6523, "▁celebrate": 6524, "aur": 6525, "▁dinosaur": 6526, "▁tiss": 6527, "▁traits": 6528, "▁chicken": 6529, "▁Mont": 6530, "▁fortunate": 6531, "▁nest": 6532, "▁hypoth": 6533, "▁babies": 6534, "antic": 6535, "▁Je": 6536, "▁assume": 6537, "cked": 6538, "▁mosqu": 6539, "▁chose": 6540, "▁Mary": 6541, "▁bone": 6542, "illion": 6543, "▁eas": 6544, "aurs": 6545, "▁oldest": 6546, "▁tissue": 6547, "▁pregnant": 6548, "ste": 6549, "iler": 6550, "▁Found": 6551, "agen": 6552, "▁Trans": 6553, "▁gene": 6554, "▁pu": 6555, "thing": 6556, "▁Mad": 6557, "▁tooth": 6558, "▁chick": 6559, "▁colleague": 6560, "▁Hans": 6561, "▁wing": 6562, "aws": 6563, "orb": 6564, "▁careful": 6565, "▁advert": 6566, "▁Anyway": 6567, "ould": 6568, "▁cyber": 6569, "▁Hill": 6570, "▁crash": 6571, "▁telephone": 6572, "▁Obviously": 6573, "ister": 6574, "▁rout": 6575, "▁algorithm": 6576, "▁blocks": 6577, "▁attacks": 6578, "▁affected": 6579, "▁airplane": 6580, "▁Nobody": 6581, "connected": 6582, "▁papers": 6583, "ET": 6584, "changing": 6585, "▁behaviors": 6586, "▁skept": 6587, "▁consequences": 6588, "dollar": 6589, "▁fib": 6590, "▁wanting": 6591, "Yeah": 6592, "edy": 6593, "humor": 6594, "▁secrets": 6595, "▁div": 6596, "oint": 6597, "unclear": 6598, "].": 6599, "ames": 6600, "aming": 6601, "▁Leon": 6602, "ardo": 6603, "iders": 6604, "keys": 6605, "▁chim": 6606, "iam": 6607, "▁Intern": 6608, "▁French": 6609, "▁translate": 6610, "▁mode": 6611, "▁Frank": 6612, "eda": 6613, "itness": 6614, "▁prem": 6615, "▁theore": 6616, "▁James": 6617, "▁adjust": 6618, "▁formula": 6619, "▁sacred": 6620, "▁France": 6621, "pected": 6622, "▁flat": 6623, "win": 6624, "▁heroes": 6625, "aked": 6626, "▁brothers": 6627, "▁sisters": 6628, "ua": 6629, "▁cas": 6630, "▁flag": 6631, "▁Please": 6632, "▁correl": 6633, "▁photographer": 6634, "▁27": 6635, "▁struct": 6636, "▁divide": 6637, "ifth": 6638, "oust": 6639, "▁tri": 6640, "▁symmet": 6641, "sequ": 6642, "▁necess": 6643, "▁eleg": 6644, "belie": 6645, "▁incre": 6646, "stein": 6647, "▁worlds": 6648, "▁Soviet": 6649, "▁Hi": 6650, "▁Air": 6651, "▁explosion": 6652, "ito": 6653, "▁ke": 6654, "▁General": 6655, "abilities": 6656, "▁Korea": 6657, "▁enemy": 6658, "▁ages": 6659, "▁350": 6660, "▁predicted": 6661, "rie": 6662, "▁mil": 6663, "ali": 6664, "tical": 6665, "▁victim": 6666, "▁Russia": 6667, "▁NA": 6668, "%": 6669, "olar": 6670, "▁introd": 6671, "▁Nobel": 6672, "▁official": 6673, "gency": 6674, "empt": 6675, "▁options": 6676, "▁conventional": 6677, "▁members": 6678, "ë": 6679, "▁underwater": 6680, "▁cartoon": 6681, "▁sharks": 6682, "▁fol": 6683, "anta": 6684, "▁ordinary": 6685, "▁fur": 6686, "▁fant": 6687, "▁powers": 6688, "▁magnetic": 6689, "angle": 6690, "▁nose": 6691, "arp": 6692, "more": 6693, "▁mate": 6694, "▁ski": 6695, "▁Atlantic": 6696, "▁Sea": 6697, "ensus": 6698, "▁ang": 6699, "So": 6700, "▁poly": 6701, "iny": 6702, "▁Basically": 6703, "▁washing": 6704, "▁attach": 6705, "ertain": 6706, "une": 6707, "ibly": 6708, "▁exposed": 6709, "▁stronger": 6710, "ission": 6711, "▁ham": 6712, "▁commod": 6713, "▁Eth": 6714, "▁wider": 6715, "▁tough": 6716, "▁Nations": 6717, "mon": 6718, "▁tracks": 6719, "▁England": 6720, "▁river": 6721, "▁Qu": 6722, "▁narrow": 6723, "bon": 6724, "▁relations": 6725, "▁seas": 6726, "▁encounter": 6727, "▁ey": 6728, "vered": 6729, "uary": 6730, "▁plans": 6731, "▁methane": 6732, "▁estab": 6733, "▁east": 6734, "▁Wolf": 6735, "▁resist": 6736, "▁politicians": 6737, "isions": 6738, "jamin": 6739, "▁mathem": 6740, "▁birthday": 6741, "▁combine": 6742, "▁Ser": 6743, "▁22": 6744, "▁Woman": 6745, "lying": 6746, "imes": 6747, "▁ooh": 6748, "▁yours": 6749, "▁conclude": 6750, "▁shall": 6751, "▁odds": 6752, "▁Really": 6753, "▁Six": 6754, "▁June": 6755, "▁requ": 6756, "▁reveal": 6757, "▁luck": 6758, "[": 6759, "60": 6760, "▁700": 6761, "▁capt": 6762, "▁hon": 6763, "rence": 6764, "▁Nor": 6765, "▁hung": 6766, "▁diss": 6767, "▁gray": 6768, "▁trade": 6769, "▁photographs": 6770, "▁Moo": 6771, "▁synthes": 6772, "▁soph": 6773, "▁Bob": 6774, "essel": 6775, "▁frequency": 6776, "▁Hall": 6777, "▁duck": 6778, "▁tow": 6779, "ulum": 6780, "▁dow": 6781, "▁contract": 6782, "▁cup": 6783, "▁shooting": 6784, "icks": 6785, "ript": 6786, "▁hotel": 6787, "▁rig": 6788, "▁10,": 6789, "ewel": 6790, "▁poss": 6791, "▁happier": 6792, "▁furniture": 6793, "▁happ": 6794, "selves": 6795, "▁Brown": 6796, "asy": 6797, "box": 6798, "urch": 6799, "▁stere": 6800, "oty": 6801, "orous": 6802, "▁marvel": 6803, "rs": 6804, "ption": 6805, "▁bab": 6806, "ogram": 6807, "▁consult": 6808, "▁Johnson": 6809, "▁curiosity": 6810, "▁tum": 6811, "▁Imag": 6812, "▁reminds": 6813, "telling": 6814, "▁intellig": 6815, "▁academ": 6816, "▁cere": 6817, "cience": 6818, "▁Play": 6819, "▁thoughts": 6820, "▁fle": 6821, "▁facial": 6822, "▁gest": 6823, "roll": 6824, "▁brother": 6825, "ingu": 6826, "▁expectations": 6827, "novation": 6828, "▁promote": 6829, "▁application": 6830, "▁Rich": 6831, "oot": 6832, "▁Char": 6833, "acter": 6834, "tend": 6835, "▁King": 6836, "pie": 6837, "▁JH": 6838, "▁MRI": 6839, "new": 6840, "verage": 6841, "▁Smith": 6842, "▁Brit": 6843, "▁Delhi": 6844, "▁cheaper": 6845, "▁creat": 6846, "▁wire": 6847, "creativity": 6848, "è": 6849, "▁nit": 6850, "▁reference": 6851, "▁shoulder": 6852, "▁fashion": 6853, "▁bears": 6854, "aterial": 6855, "▁bes": 6856, "▁trial": 6857, "▁ingred": 6858, "▁contains": 6859, "▁taste": 6860, "▁recept": 6861, "▁sugar": 6862, "▁tuna": 6863, "▁vacuum": 6864, "▁consume": 6865, "▁sauce": 6866, "athan": 6867, "▁Vir": 6868, "▁subs": 6869, "▁AIDS": 6870, "iversity": 6871, "▁HIV": 6872, "▁chimpanzees": 6873, "▁Bra": 6874, "ille": 6875, "▁Congo": 6876, "▁'60": 6877, "▁bubb": 6878, "atter": 6879, "▁Bur": 6880, "imens": 6881, "▁monkeys": 6882, "▁monkey": 6883, "▁Bush": 6884, "▁sustainable": 6885, "▁cris": 6886, "oud": 6887, "OK": 6888, "▁villages": 6889, "▁aspects": 6890, "▁bre": 6891, "▁beg": 6892, "AR": 6893, "▁sexual": 6894, "▁airplanes": 6895, "▁dominant": 6896, "soft": 6897, "ware": 6898, "ford": 6899, "▁rese": 6900, "mble": 6901, "▁appreciate": 6902, "ö": 6903, "called": 6904, "▁sharp": 6905, "▁explo": 6906, "▁num": 6907, "▁Rem": 6908, "uture": 6909, "esth": 6910, "▁performing": 6911, "▁poem": 6912, "▁oxy": 6913, "▁currently": 6914, "▁tries": 6915, "ended": 6916, "gly": 6917, "▁contin": 6918, "▁Che": 6919, "erd": 6920, "▁ske": 6921, "▁Twitter": 6922, "sey": 6923, "▁cro": 6924, "▁Kore": 6925, "olit": 6926, "▁Black": 6927, "▁liked": 6928, "▁Atl": 6929, "#": 6930, "...": 6931, "ding": 6932, "▁Obama": 6933, "▁authent": 6934, "▁Nigeria": 6935, "▁beer": 6936, "▁personally": 6937, "▁Niger": 6938, "▁consequ": 6939, "▁Africans": 6940, "agos": 6941, "▁houses": 6942, "▁wr": 6943, "Saharan": 6944, "icity": 6945, "▁drove": 6946, "▁Mexic": 6947, "▁slight": 6948, "ject": 6949, "▁defin": 6950, "▁Ty": 6951, "ughter": 6952, "kn": 6953, "▁camps": 6954, "▁Ok": 6955, "look": 6956, "▁rob": 6957, "▁contemporary": 6958, "▁singing": 6959, "uba": 6960, "jo": 6961, "Z": 6962, "▁lawyer": 6963, "▁resilience": 6964, "▁Far": 6965, "▁Walk": 6966, "▁lim": 6967, "▁Yemen": 6968, "▁decision": 6969, "uge": 6970, "▁concl": 6971, "usions": 6972, "iveness": 6973, "▁intellect": 6974, "▁uncertainty": 6975, "▁illusion": 6976, "making": 6977, "▁oppos": 6978, "▁winds": 6979, "▁hero": 6980, "▁govern": 6981, "▁illness": 6982, "▁conven": 6983, "gent": 6984, "▁opin": 6985, "▁philosophy": 6986, "ipl": 6987, "omas": 6988, "▁embra": 6989, "kins": 6990, "ilit": 6991, "ida": 6992, "zen": 6993, "▁Cont": 6994, "▁lie": 6995, "▁enth": 6996, "▁marr": 6997, "▁agent": 6998, "▁explaining": 6999, "▁smooth": 7000, "▁susp": 7001, "▁bridge": 7002, "▁fram": 7003, "▁legit": 7004, "iew": 7005, "itor": 7006, "rought": 7007, "▁election": 7008, "▁decent": 7009, "▁academic": 7010, "▁Nat": 7011, "▁Muslims": 7012, "▁Jewish": 7013, "▁muscle": 7014, "▁tendency": 7015, "econom": 7016, "▁carried": 7017, "▁finan": 7018, "ostic": 7019, "olars": 7020, "▁aff": 7021, "▁beliefs": 7022, "▁consciousness": 7023, "▁advertising": 7024, "▁thresh": 7025, "etch": 7026, "▁incident": 7027, "▁mist": 7028, "gn": 7029, "▁agg": 7030, "▁infinite": 7031, "▁apparent": 7032, "usion": 7033, "uch": 7034, "iat": 7035, "▁altern": 7036, "orth": 7037, "▁mysterious": 7038, "▁desp": 7039, "energy": 7040, "▁puzzle": 7041, "▁hydrogen": 7042, "rons": 7043, "andering": 7044, "▁scales": 7045, "▁battery": 7046, "▁includ": 7047, "rol": 7048, "▁barrel": 7049, "▁Moore": 7050, "▁improvement": 7051, "▁density": 7052, "▁prices": 7053, "▁absolute": 7054, "▁minister": 7055, "▁Gh": 7056, "▁Den": 7057, "uros": 7058, "▁20,000": 7059, "▁optimistic": 7060, "▁reduction": 7061, "▁south": 7062, "▁legis": 7063, "▁uncle": 7064, "liament": 7065, "▁morality": 7066, "▁Should": 7067, "▁slavery": 7068, "▁corruption": 7069, "ruption": 7070, "IDS": 7071, "▁malaria": 7072, "hips": 7073, "conom": 7074, "▁governance": 7075, "▁aid": 7076, "▁priv": 7077, "▁Ob": 7078, "▁supported": 7079, "▁capita": 7080, "▁revenue": 7081, "▁reven": 7082, "lation": 7083, "▁housing": 7084, "▁mort": 7085, "▁eleph": 7086, "▁elections": 7087, "lict": 7088, "▁Dar": 7089, "▁Wal": 7090, "▁collaborative": 7091, "▁founded": 7092, "▁newsp": 7093, "apers": 7094, "▁produc": 7095, "▁purp": 7096, "▁Gene": 7097, "Wow": 7098, "▁strateg": 7099, "▁85": 7100, "▁relev": 7101, "▁output": 7102, "▁links": 7103, "▁license": 7104, "▁algorithms": 7105, "▁closing": 7106, "▁probability": 7107, "▁Pe": 7108, "ateg": 7109, "▁vaccine": 7110, "eart": 7111, "▁terrorism": 7112, "▁saf": 7113, "▁globalization": 7114, "▁unpre": 7115, "▁vacc": 7116, "▁polio": 7117, "ashion": 7118, "mun": 7119, "▁replicate": 7120, "▁jumped": 7121, "▁Rock": 7122, "▁variation": 7123, "otechnology": 7124, "▁technique": 7125, "undred": 7126, "▁experimental": 7127, "▁virtually": 7128, "▁effic": 7129, "▁grat": 7130, "squ": 7131, "▁Shanghai": 7132, "etics": 7133, "▁opp": 7134, "▁downt": 7135, "▁Ghana": 7136, "ka": 7137, "▁breed": 7138, "vation": 7139, "▁contrast": 7140, "▁hor": 7141, "ribly": 7142, "Wh": 7143, "mal": 7144, "▁Mandel": 7145, "▁Keny": 7146, "▁20,": 7147, "uf": 7148, "▁tribes": 7149, "state": 7150, "▁mere": 7151, "▁ty": 7152, "▁surrounded": 7153, "▁fishing": 7154, "▁tro": 7155, "ustain": 7156, "▁phantom": 7157, "▁rent": 7158, "▁Ford": 7159, "ban": 7160, "cost": 7161, "▁airport": 7162, "▁Islands": 7163, "itten": 7164, "▁enable": 7165, "▁rail": 7166, "▁choices": 7167, "▁purch": 7168, "▁judge": 7169, "come": 7170, "▁Larry": 7171, "▁ought": 7172, "▁polit": 7173, "ortex": 7174, "▁Gulf": 7175, "▁graphic": 7176, "va": 7177, "▁reefs": 7178, "▁Tur": 7179, "▁swim": 7180, "▁Aud": 7181, "▁bott": 7182, "▁Val": 7183, "ream": 7184, "▁tag": 7185, "▁ath": 7186, "▁Turn": 7187, "▁southern": 7188, "▁fan": 7189, "pher": 7190, "▁Har": 7191, "eter": 7192, "▁smoke": 7193, "ushing": 7194, "▁protecting": 7195, "▁vessel": 7196, "▁Act": 7197, "ergy": 7198, "▁journalist": 7199, "▁algorith": 7200, "gypt": 7201, "▁Daniel": 7202, "▁respons": 7203, "ibilities": 7204, "erge": 7205, "▁perspect": 7206, "▁neuron": 7207, "omics": 7208, "orders": 7209, "▁memories": 7210, "cc": 7211, "ording": 7212, "agh": 7213, "▁naked": 7214, "▁philos": 7215, "eday": 7216, "▁database": 7217, "▁artific": 7218, "▁neural": 7219, "▁domin": 7220, "▁wires": 7221, "▁skull": 7222, "▁ridic": 7223, "▁som": 7224, "nect": 7225, "onstr": 7226, "▁magn": 7227, "invention": 7228, "▁cab": 7229, "▁metal": 7230, "▁Star": 7231, "▁tube": 7232, "▁spider": 7233, "▁Steve": 7234, "apor": 7235, "rench": 7236, "▁circuit": 7237, "rast": 7238, "▁emergency": 7239, "▁polic": 7240, "ulous": 7241, "í": 7242, "▁Olymp": 7243, "▁Span": 7244, "rem": 7245, "▁north": 7246, "▁Amaz": 7247, "▁tears": 7248, "▁cond": 7249, "oles": 7250, "▁Jan": 7251, "▁transp": 7252, "arency": 7253, "▁engagement": 7254, "▁ultimate": 7255, "▁bud": 7256, "alled": 7257, "igation": 7258, "▁opera": 7259, "▁seats": 7260, "▁Ray": 7261, "▁nar": 7262, "▁poetry": 7263, "▁romantic": 7264, "▁selfish": 7265, "▁horiz": 7266, "▁ack": 7267, "aria": 7268, "▁Pat": 7269, "▁axis": 7270, "▁Bab": 7271, "apan": 7272, "▁distribut": 7273, "▁sensitive": 7274, "abil": 7275, "▁telev": 7276, "ID": 7277, "▁Em": 7278, "▁aud": 7279, "ael": 7280, "▁frustr": 7281, "▁vill": 7282, "▁crim": 7283, "▁agenda": 7284, "▁hosp": 7285, "▁Mah": 7286, "utch": 7287, "▁paralyzed": 7288, "essed": 7289, "▁enem": 7290, "▁hook": 7291, "▁Step": 7292, "▁lawyers": 7293, "American": 7294, "▁parking": 7295, "▁Muslim": 7296, "▁Taliban": 7297, "▁suit": 7298, "ception": 7299, "▁rom": 7300, "▁compos": 7301, "ror": 7302, "▁comple": 7303, "▁ille": 7304, "á": 7305, "cially": 7306, "ogue": 7307, "▁clients": 7308, "▁client": 7309, "acific": 7310, "powered": 7311, "▁stro": 7312, "▁mus": 7313, "▁realizing": 7314, "▁route": 7315, "▁caps": 7316, "▁helicop": 7317, "▁awareness": 7318, "▁3.": 7319, "▁margin": 7320, "hi": 7321, "▁figuring": 7322, "▁actions": 7323, "▁spreads": 7324, "▁piano": 7325, "▁Fe": 7326, "iano": 7327, "▁♫": 7328, "When": 7329, "mod": 7330, "itect": 7331, "others": 7332, "ifest": 7333, "▁traditions": 7334, "▁lat": 7335, "rint": 7336, "▁manufact": 7337, "▁delivered": 7338, "lyn": 7339, "cape": 7340, "▁Nob": 7341, "▁butt": 7342, "▁spoken": 7343, "▁bull": 7344, "▁sacr": 7345, "ossible": 7346, "uke": 7347, "▁hall": 7348, "▁score": 7349, "retch": 7350, "▁tap": 7351, "▁Mom": 7352, "▁jug": 7353, "▁sle": 7354, "▁signed": 7355, "pend": 7356, "ctions": 7357, "▁depth": 7358, "▁stair": 7359, "rav": 7360, "▁marriage": 7361, "▁spectacular": 7362, "▁sculpture": 7363, "▁comics": 7364, "▁icon": 7365, "▁photography": 7366, "▁phant": 7367, "▁Sing": 7368, "mus": 7369, "ani": 7370, "craft": 7371, "▁Inst": 7372, "ext": 7373, "cuss": 7374, "▁TEDT": 7375, "▁regret": 7376, "▁iss": 7377, "▁Mich": 7378, "perform": 7379, "▁increases": 7380, "▁portra": 7381, "▁vert": 7382, "▁adop": 7383, "▁elephant": 7384, "▁oxytocin": 7385, "▁expectancy": 7386, "8.": 7387, "▁Cong": 7388, "esome": 7389, "aret": 7390, "bol": 7391, "raft": 7392, "▁paralle": 7393, "▁speakers": 7394, "▁Museum": 7395, "▁colle": 7396, "aim": 7397, "▁needle": 7398, "▁Math": 7399, "▁Zero": 7400, "▁proof": 7401, "▁surfaces": 7402, "▁Chr": 7403, "▁jelly": 7404, "▁nerve": 7405, "▁spectrum": 7406, "▁capac": 7407, "bes": 7408, "itute": 7409, "▁injury": 7410, "▁allowing": 7411, "▁gang": 7412, "▁suicide": 7413, "emb": 7414, "ki": 7415, "omin": 7416, "asks": 7417, "century": 7418, "nov": 7419, "▁atoms": 7420, "▁quantum": 7421, "▁Cent": 7422, "▁phys": 7423, "chn": 7424, "orld": 7425, "angers": 7426, "▁entrepreneurs": 7427, "▁astr": 7428, "▁af": 7429, "ptions": 7430, "issions": 7431, "▁occup": 7432, "ugh": 7433, "▁tasks": 7434, "▁eg": 7435, "▁init": 7436, "▁chimpan": 7437, "▁symbols": 7438, "rams": 7439, "▁Time": 7440, "▁clinic": 7441, "▁enorm": 7442, "▁sales": 7443, "ague": 7444, "▁Tim": 7445, "istics": 7446, "race": 7447, "atell": 7448, "avid": 7449, "just": 7450, "▁Josh": 7451, "chan": 7452, "▁entropy": 7453, "▁Oxford": 7454, "flies": 7455, "▁spectac": 7456, "▁rhyth": 7457, "opy": 7458, "▁Eng": 7459, "▁buried": 7460, "▁diversity": 7461, "case": 7462, "isf": 7463, "▁characteristics": 7464, "▁historical": 7465, "70": 7466, "vard": 7467, "engineering": 7468, "▁'9": 7469, "▁lin": 7470, "iogen": 7471, "▁sac": 7472, "▁wom": 7473, "▁tumors": 7474, "▁expon": 7475, "▁chem": 7476, "apy": 7477, "DA": 7478, "▁tea": 7479, "▁mice": 7480, "icine": 7481, "▁Sam": 7482, "▁fasc": 7483, "▁puzzles": 7484, "▁colum": 7485, "inally": 7486, "▁Sud": 7487, "archy": 7488, "▁chip": 7489, "▁vulnerability": 7490, "▁genocide": 7491, "ustom": 7492, "educ": 7493, "▁vagina": 7494, "▁Swed": 7495, "▁fert": 7496, "▁hier": 7497, "▁linear": 7498, "▁chaos": 7499, "▁Brian": 7500, "▁destr": 7501, "▁flex": 7502, "parent": 7503, "▁granted": 7504, "▁daughters": 7505, "▁dynamics": 7506, "▁stren": 7507, "arent": 7508, "came": 7509, "aren": 7510, "▁circumst": 7511, "▁spray": 7512, "icle": 7513, "oved": 7514, "▁constrain": 7515, "▁negot": 7516, "▁i": 7517, "▁synthetic": 7518, "▁grandm": 7519, "ellect": 7520, "azz": 7521, "dimens": 7522, "abetes": 7523, "▁situ": 7524, "lish": 7525, "der": 7526, "▁sophistic": 7527, "atin": 7528, "▁contrad": 7529, "ckets": 7530, "▁satell": 7531, "▁Iceland": 7532, "▁institut": 7533, "oston": 7534, "▁invis": 7535, "▁experim": 7536, "▁cott": 7537, "▁prototy": 7538, "angible": 7539, "erman": 7540, "▁pref": 7541, "Americ": 7542, "▁Coke": 7543, "▁avail": 7544, "▁minut": 7545, "▁wel": 7546, "no": 7547, "▁mount": 7548, "▁controll": 7549, "▁fears": 7550, "▁bom": 7551, "ubes": 7552, "▁Coun": 7553, "ember": 7554, "▁pyram": 7555, "▁incred": 7556, "oices": 7557, "olly": 7558, "ago": 7559, "▁furn": 7560, "ervation": 7561, "iage": 7562, "▁incl": 7563, "▁mosquito": 7564, "▁prob": 7565, "▁epidemic": 7566, "▁tremend": 7567, "astern": 7568, "▁sulf": 7569, "astics": 7570, "▁partic": 7571, "hr": 7572, "▁ther": 7573, "▁exception": 7574, "▁wherever": 7575, "▁Micro": 7576, "ument": 7577, "▁Sweden": 7578, "earch": 7579, "▁corresp": 7580, "▁knock": 7581, "▁prosth": 7582, "▁Jes": 7583, "uman": 7584, "▁surpr": 7585, "aper": 7586, "▁ris": 7587, "engu": 7588, "▁penguins": 7589, "iac": 7590, "▁diff": 7591, "▁spect": 7592, "▁volunt": 7593, "vity": 7594, "▁transpl": 7595, "ione": 7596, "▁transplant": 7597, "▁serv": 7598, "▁sole": 7599, "orrow": 7600, "▁circum": 7601, "rete": 7602, "igm": 7603, "ñ": 7604, "ó": 7605, "▁prote": 7606, "▁Americ": 7607, "000": 7608, "▁rece": 7609, "▁Austr": 7610, "▁clim": 7611, "ynam": 7612, "licit": 7613, "iddle": 7614, "▁Perhaps": 7615, "▁precious": 7616, "edom": 7617, "▁Wall": 7618, "▁virt": 7619, "▁unex": 7620, "▁Antar": 7621, "▁anal": 7622, "via": 7623, "▁cyl": 7624, "▁resp": 7625, "▁tiles": 7626, "▁translated": 7627, "▁Third": 7628, "▁emot": 7629, "ohn": 7630, "amm": 7631, "▁canopy": 7632, "ø": 7633, "▁instruct": 7634, "▁convention": 7635, "▁py": 7636, "▁mamm": 7637, "ternoon": 7638, "urope": 7639, "▁crow": 7640, "▁unlikely": 7641, "▁tribe": 7642, "▁Stage": 7643, "▁sever": 7644, "▁surger": 7645, "▁Gand": 7646, "itchen": 7647, "▁dictionary": 7648, "iosity": 7649, "▁Camp": 7650, "▁routine": 7651, "▁emph": 7652, "▁Abraham": 7653, "▁auth": 7654, "▁orph": 7655, "▁valu": 7656, "itual": 7657, "▁classical": 7658, "itted": 7659, "arrass": 7660, "▁datab": 7661, "▁Cambr": 7662, "change": 7663, "roud": 7664, "▁diction": 7665, "▁pub": 7666, "illiant": 7667, "▁resc": 7668, "▁vehicles": 7669, "ndr": 7670, "▁glob": 7671, "▁infrastr": 7672, "▁metap": 7673, "▁Sov": 7674, "IV": 7675, "ifer": 7676, "umor": 7677, "▁ele": 7678, "▁liqu": 7679, "▁RS": 7680, "NA": 7681, "▁prosper": 7682, "▁Austral": 7683, "▁prin": 7684, "▁vict": 7685, "burgh": 7686, "liam": 7687, "▁silk": 7688, "raq": 7689, "▁shap": 7690, "DP": 7691, "▁ce": 7692, "▁pict": 7693, "▁dile": 7694, "▁nerv": 7695, "▁dram": 7696, "ww": 7697, "icket": 7698, "▁AI": 7699, "▁stunt": 7700, "izarre": 7701, "▁iP": 7702, "akistan": 7703, "onna": 7704, "▁club": 7705, "▁dimens": 7706, "â": 7707, "▁phen": 7708, "▁plat": 7709, "–": 7710, "▁extrem": 7711, "esity": 7712, "creat": 7713, "pecially": 7714, "▁meth": 7715, "▁mole": 7716, "▁boundaries": 7717, "▁fing": 7718, "iters": 7719, "▁pos": 7720, "▁Koran": 7721, "▁insur": 7722, "▁Stan": 7723, "iplom": 7724, "ï": 7725, "▁gent": 7726, "▁org": 7727, ")": 7728, "cise": 7729, "▁Mic": 7730, "orith": 7731, "▁detection": 7732, "fter": 7733, "▁deg": 7734, "▁langu": 7735, "xide": 7736, "uly": 7737, "▁Feynman": 7738, "▁dynam": 7739, "▁cricket": 7740, "▁PM": 7741, "▁Homo": 7742, "▁proto": 7743, "thal": 7744, "minist": 7745, "ourt": 7746, "▁nav": 7747, "▁DH": 7748, "$": 7749, "stem": 7750, "▁astero": 7751, "▁encoun": 7752, "▁relig": 7753, "eah": 7754, "▁resil": 7755, "▁resour": 7756, "É": 7757, "ā": 7758, "▁lifet": 7759, "olut": 7760, "▁policies": 7761, "▁-": 7762, "▁underst": 7763, "▁intu": 7764, "icop": 7765, "▁Face": 7766, "sun": 7767, "ghai": 7768, "▁Banglades": 7769, "▁frank": 7770, "▁iPh": 7771, "icide": 7772, "ildren": 7773, "ucture": 7774, "abol": 7775, "inct": 7776, "▁atm": 7777, "arant": 7778, "comes": 7779, "▁temper": 7780, "▁regener": 7781, "▁Wik": 7782, "ropy": 7783, "bble": 7784, "^": 7785, "aj": 7786, "▁SW": 7787, "▁nat": 7788, "verty": 7789, "lebr": 7790, "happ": 7791, "▁constr": 7792, "▁interp": 7793, "▁fet": 7794, "aci": 7795, "▁embedd": 7796, "▁traged": 7797, "clear": 7798, "thers": 7799, "ü": 7800, "ä": 7801, "▁Neander": 7802, "▁obst": 7803, "▁Unf": 7804, "ivered": 7805, "iques": 7806, "ndrome": 7807, "aign": 7808, "▁magaz": 7809, "iron": 7810, "▁Ug": 7811, "zil": 7812, "psych": 7813, "▁Ange": 7814, "▁pharm": 7815, "▁coff": 7816, "tan": 7817, "viron": 7818, "▁Rw": 7819, "▁lear": 7820, "othing": 7821, "▁camer": 7822, "▁hous": 7823, "ounced": 7824, "usi": 7825, "rastr": 7826, "▁vulner": 7827, "ietnam": 7828, "ollywood": 7829, "gth": 7830, "kay": 7831, "ully": 7832, "▁Aug": 7833, "iture": 7834, "exas": 7835, "(": 7836, "▁Californ": 7837, "▁origami": 7838, "IT": 7839, "▁chang": 7840, "ã": 7841, "▁lifest": 7842, "▁chall": 7843, "▁dat": 7844, "▁Dem": 7845, "wich": 7846, "▁desc": 7847, "orden": 7848, "iop": 7849, "itals": 7850, "▁KB": 7851, "▁Narr": 7852, "▁genoc": 7853, "useum": 7854, "▁Redwood": 7855, "▁dign": 7856, "exic": 7857, "haps": 7858, "zees": 7859, "▁protocell": 7860, "▁YouT": 7861, "igher": 7862, "ulner": 7863, "▁Somet": 7864, "▁veh": 7865, "celer": 7866, "▁earthqu": 7867, "andel": 7868, "ptember": 7869, "doll": 7870, "▁reas": 7871, "iences": 7872, "aser": 7873, "instein": 7874, "usual": 7875, "meric": 7876, "icago": 7877, "ç": 7878, "Ç": 7879, "▁wee": 7880, "mend": 7881, "▁prod": 7882, "—": 7883, "eared": 7884, "*": 7885, "▁rand": 7886, "▁shrim": 7887, "ocin": 7888, "oran": 7889, "▁thou": 7890, "ondon": 7891, "▁[\"": 7892, "▁dise": 7893, "▁memes": 7894, "inese": 7895, "ú": 7896, "▁tog": 7897, "lications": 7898, "▁glamour": 7899, "▁glam": 7900, "▁fal": 7901, "▁exper": 7902, "romos": 7903, "♫": 7904, "▁abst": 7905, "cules": 7906, "rael": 7907, "£": 7908, "▁Shan": 7909, "utical": 7910, "astroph": 7911, "▁ub": 7912, "送": 7913, "你": 7914, "葱": 7915, "▁grou": 7916, "▁biod": 7917, "embered": 7918, "▁Oct": 7919, "viously": 7920, "▁propert": 7921, "ynman": 7922, "tocin": 7923, "▁lad": 7924, "aceutical": 7925, "Ă": 7926, "Ť": 7927, "ahar": 7928, "▁opportun": 7929, "▁Flor": 7930, "▁nuc": 7931, "ē": 7932, "uum": 7933, "raid": 7934, "‘": 7935, "▁agric": 7936, "à": 7937, "ecut": 7938, "\\": 7939, "dden": 7940, "ipment": 7941, "▁BF": 7942}