{"<|EOS|>": 0, "<|PAD|>": 1, "<|UNK|>": 2, "▁http": 3, "://": 4, "www": 5, ".": 6, "ted": 7, "com": 8, "/": 9, "talks": 10, "lang": 11, "zh": 12, "-": 13, "cn": 14, "s": 15, "te": 16, "ph": 17, "en": 18, "_": 19, "p": 20, "al": 21, "um": 22, "b": 23, "i": 24, "f": 25, "ol": 26, "l": 27, "ow": 28, "ing": 29, "the": 30, "m": 31, "er": 32, "c": 33, "ur": 34, "y": 35, "t": 36, "ra": 37, "il": 38, "html": 39, "▁": 40, "生物学家": 41, "史": 42, "蒂": 43, "芬": 44, "·": 45, "帕": 46, "伦": 47, "认为": 48, ",": 49, "海洋": 50, "的": 51, "健康": 52, "和": 53, "我们的": 54, "之间": 55, "有着": 56, "紧密": 57, "而": 58, "神奇": 59, "联系": 60, "。": 61, "他": 62, "通过": 63, "日本": 64, "一个": 65, "渔": 66, "场": 67, "发生的": 68, "让人": 69, "震惊": 70, "有": 71, "毒": 72, "污染": 73, "的事": 74, "件": 75, "展示了": 76, "位于": 77, "食物": 78, "链": 79, "底": 80, "部的": 81, "物质": 82, "是如何": 83, "进入": 84, "身体": 85, "他的": 86, "工作": 87, "主要": 88, "是": 89, "未来": 90, "拯救": 91, "的方法": 92, "——": 93, "同时": 94, "也": 95, "包括": 96, "人类的": 97, "is": 98, "h": 99, "health": 100, "ion": 101, "▁b": 102, "u": 103, "e": 104, "o": 105, "ce": 106, "an": 107, "science": 108, "▁8": 109, "99": 110, ":": 111, "追": 112, "寻": 113, "水": 114, "银": 115, "踪": 116, "迹": 117, "是一个": 118, "非常": 119, "复杂": 120, "的事物": 121, "也是": 122, "一件": 123, "的事情": 124, "▁将": 125, "两者": 126, "统": 127, "一": 128, "起来": 129, "看起来": 130, "是一": 131, "艰": 132, "巨": 133, "任务": 134, "▁但": 135, "我想要": 136, "试图": 137, "去": 138, "说明": 139, "的是": 140, "▁即使": 141, "是如此": 142, "的情况": 143, "▁也": 144, "存在": 145, "一些": 146, "我认为": 147, "简单": 148, "的话": 149, "题": 150, "▁一些": 151, "如果": 152, "我们能": 153, "理解": 154, "就": 155, "很容易": 156, "向": 157, "前": 158, "发展": 159, "▁这些": 160, "确实": 161, "不是": 162, "▁有": 163, "关": 164, "那": 165, "复杂的": 166, "科学": 167, "有了": 168, "怎样的": 169, "▁而是": 170, "我们都": 171, "恰": 172, "好": 173, "知道": 174, "▁接下来": 175, "我就": 176, "来说": 177, "▁如果": 178, "老": 179, "妈": 180, "不": 181, "高兴": 182, "了": 183, "大家都": 184, "别": 185, "想": 186, "开心": 187, "▁我们": 188, "都知道": 189, "吗": 190, "?": 191, "经历": 192, "过": 193, "这一点": 194, "▁从": 195, "这里": 196, "出": 197, "发": 198, "▁可以": 199, "得": 200, "下": 201, "一步": 202, "▁那就是": 203, "▁大家": 204, "都": 205, "▁这就是": 206, "我": 207, "演讲": 208, "的主": 209, "▁我们正在": 210, "许多": 211, "不同": 212, "惹": 213, "怒": 214, "▁这是": 215, "19": 216, "3": 217, "2": 218, "年": 219, "在": 220, "坎": 221, "纳": 222, "里": 223, "鲁": 224, "夫": 225, "拍": 226, "的一": 227, "副": 228, "照片": 229, "▁那": 230, "时的": 231, "着": 232, "西": 233, "海岸": 234, "最大的": 235, "工业": 236, "化": 237, "罐": 238, "头": 239, "工厂": 240, "堆": 241, "积": 242, "大量的": 243, "物": 244, "▁在": 245, "空气": 246, "中": 247, "▁我": 248, "所": 249, "工作的": 250, "霍": 251, "普": 252, "金": 253, "研究": 254, "站": 255, "罗": 256, "尔夫": 257, "博": 258, "林": 259, "教授": 260, "二十": 261, "世纪": 262, "40": 263, "年代": 264, "指出": 265, "▁“": 266, "海": 267, "湾": 268, "入": 269, "口": 270, "浮": 271, "沫": 272, "散": 273, "臭": 274, "气": 275, "▁特别": 276, "难": 277, "闻": 278, "▁那里": 279, "含": 280, "铅": 281, "黑": 282, "涂": 283, "料": 284, "厂": 285, "的人们": 286, "▁每天": 287, "只能": 288, "待": 289, "这样的": 290, "味": 291, "之中": 292, "▁然而": 293, "你知道": 294, "他们说": 295, "什么": 296, "▁他们说": 297, ":“": 298, "你": 299, "到": 300, "▁你": 301, "钱": 302, "。”": 303, "来自于": 304, "社区": 305, "金钱": 306, "利益": 307, "▁那些": 308, "人们": 309, "生活": 310, "在一起": 311, "▁并": 312, "把": 313, "吸": 314, "它们的": 315, "皮肤": 316, "▁因为他们": 317, "需要": 318, "▁让": 319, "特别": 320, "▁并且": 321, "人类": 322, "还": 323, "不再": 324, "之间的": 325, "就像": 326, "另一": 327, "组": 328, "谚": 329, "语": 330, "说的": 331, "那样": 332, "▁我觉得": 333, "这么": 334, "说": 335, "抓": 336, "小": 337, "鱼": 338, "害": 339, "死": 340, "鲸": 341, "”": 342, "生物": 343, "......": 344, "▁现在": 345, "当": 346, "一位": 347, "生态": 348, "学": 349, "者": 350, "看待": 351, "的时候": 352, "承认": 353, "▁我们用": 354, "一种": 355, "十分": 356, "的方式": 357, "来看": 358, "▁比": 359, "起": 360, "普通": 361, "人": 362, "我们": 363, "时": 364, "发现的": 365, "之处": 366, "更多": 367, "▁因为": 368, "学家": 369, "▁会": 370, "看到": 371, "其中的": 372, "相互": 373, "看": 374, "层": 375, "游": 376, "这种": 377, "东西": 378, "▁还": 379, "会": 380, "这些": 381, "动物": 382, "们": 383, "▁是": 384, "如何": 385, "成为": 386, "字": 387, "塔": 388, "部": 389, "▁然后": 390, "这样": 391, "一直": 392, "上": 393, "走到": 394, "这": 395, "幅": 396, "图": 397, "顶": 398, "▁这种": 399, "生命的": 400, "流动": 401, "最": 402, "流": 403, "关注": 404, "这就是": 405, "努力": 406, "保护": 407, "▁当我们": 408, "救": 409, "给": 410, "治": 411, "病": 412, "吧": 413, "就是": 414, "▁那么": 415, "为什么": 416, "与": 417, "关系": 418, "呢": 419, "当我们": 420, "本": 421, "该": 422, "的东西": 423, "塞": 424, "进了": 425, "之后": 426, "▁就": 427, "出现了": 428, "很": 429, "可怕": 430, "由": 431, "制造": 432, "▁像": 433, "P": 434, "C": 435, "B": 436, "分子": 437, "(": 438, "多": 439, "氯": 440, "联": 441, "苯": 442, "致": 443, "癌": 444, ")": 445, "不能": 446, "被": 447, "吸收": 448, "▁它们": 449, "不断": 450, "经过": 451, "▁到": 452, "达": 453, "肉": 454, "食": 455, "端": 456, "▁这样的": 457, "话": 458, "为了": 459, "能": 460, "彻底": 461, "了解": 462, "这个问题": 463, "我想": 464, "邀请": 465, "大家": 466, "做": 467, "个": 468, "游戏": 469, "并不是": 470, "真的": 471, "要": 472, "玩": 473, "只是": 474, "在这里": 475, "一下": 476, "▁这是个": 477, "保": 478, "丽": 479, "龙": 480, "泡": 481, "胶": 482, "巧": 483, "克": 484, "力的": 485, "▁想象一下": 486, "登": 487, "艘": 488, "船": 489, "▁我们都": 490, "得到了": 491, "两个": 492, "花": 493, "生": 494, "▁除了": 495, "把它们": 496, "放在": 497, "兜": 498, "不了": 499, "其他的": 500, "规则": 501, "每": 502, "一次": 503, "请": 504, "别人": 505, "喝": 506, "杯": 507, "酒": 508, "之外": 509, "你的": 510, "发生": 511, "开始": 512, "在我们的": 513, "团体": 514, "通": 515, "它们": 516, "集中": 517, "▁最": 518, "吝": 519, "啬": 520, "醉": 521, "鬼": 522, "身上": 523, "▁(": 524, "笑声": 525, "▁这个": 526, "里面": 527, "机制": 528, "得到": 529, "越来越": 530, "大的": 531, "无法": 532, "消": 533, "化的": 534, "D": 535, "对": 536, "二": 537, "化学": 538, "合成": 539, "药": 540, "剂": 541, "中的": 542, "一样": 543, "富": 544, "集": 545, "假设": 546, "不用": 547, "可": 548, "爱的": 549, "力": 550, "▁来": 551, "替": 552, "代": 553, "▁嗯": 554, "之": 555, "一些人": 556, "吃": 557, "▁而": 558, "▁这样": 559, "不会": 560, "产生": 561, "只": 562, "会在": 563, "人群": 564, "可以": 565, "▁这": 566, "不同的": 567, "ω": 568, "▁3": 569, "脂": 570, "肪": 571, "酸": 572, "天然": 573, "▁我们希望": 574, "这些东西": 575, "▁P": 576, "▁很": 577, "不幸": 578, "例子": 579, "豚": 580, "体内": 581, "发生在": 582, "萨": 583, "拉": 584, "索": 585, "斯": 586, "州": 587, "北": 588, "卡": 589, "来": 590, "▁海": 591, "▁小": 592, "从": 593, "那里": 594, "溶": 595, "性的": 596, "在了": 597, "一只": 598, "母亲": 599, "或者是": 600, "任何": 601, "▁只有": 602, "方法": 603, "排": 604, "什么呢": 605, "▁通过": 606, "母": 607, "乳": 608, "一张": 609, "量的": 610, "图表": 611, "成": 612, "雄": 613, "性": 614, "量": 615, "巨大": 616, "幼": 617, "也有": 618, "很大": 619, "雌": 620, "第一次": 621, "哺": 622, "期": 623, "稍": 624, "低": 625, "并不": 626, "将": 627, "汁": 628, "传递": 629, "给了": 630, "后": 631, "没有": 632, "活": 633, "下来": 634, "死亡率": 635, "▁每": 636, "的第一": 637, "胎": 638, "▁大约": 639, "60": 640, "%": 641, "80": 642, "%。": 643, "▁都": 644, "输": 645, "送": 646, "第一": 647, "▁其中": 648, "大部分": 649, "都会": 650, "死去": 651, "继续": 652, "繁殖": 653, "▁但这": 654, "价": 655, "太": 656, "大": 657, "▁——": 658, "代的": 659, "买": 660, "单": 661, "原": 662, "还有": 663, "另外一个": 664, "捕": 665, "显然": 666, "这个": 667, "▁我们也": 668, "▁来自": 669, "于": 670, "同样": 671, "地方": 672, "▁我在": 673, "东": 674, "京": 675, "一家": 676, "食品": 677, "店": 678, "到的": 679, "▁或者": 680, "▁实际上": 681, "做了": 682, "几": 683, "年的": 684, "▁研究": 685, "偷": 686, "运": 687, "▁一": 688, "实验室": 689, "进": 690, "▁用": 691, "遗传": 692, "学的": 693, "检": 694, "验": 695, "出的": 696, "DNA": 697, "样本": 698, "鉴": 699, "定": 700, "到底": 701, "是什么": 702, "部分": 703, "顺": 704, "带": 705, "合": 706, "规": 707, "格": 708, "另一个": 709, "话题": 710, "▁但是": 711, "有一些": 712, "根本": 713, "幌": 714, "子": 715, "实际上": 716, "肝": 717, "脏": 718, "鳍": 719, "恶": 720, "英": 721, "剧": 722, "重": 723, "金属": 724, "用": 725, "的人": 726, "内": 727, "证明": 728, "世界": 729, "上的": 730, "市场": 731, "当作": 732, "售": 733, "▁对": 734, "这是": 735, "一场": 736, "悲": 737, "的人类": 738, "▁同样": 739, "并": 740, "不知道": 741, "▁几": 742, "年前": 743, "天": 744, "这些数据": 745, "记得": 746, "坐在": 747, "办公": 748, "桌": 749, "旁": 750, "▁作为": 751, "世界上": 752, "唯一": 753, "卖": 754, "那些": 755, "并且": 756, "有的": 757, "素": 758, "是有": 759, "以来": 760, "环保": 761, "局": 762, "允许": 763, "▁2": 764, "倍": 765, "400": 766, "之前": 767, "嗯": 768, "发现": 769, "了这个": 770, "这是个": 771, "伟大的": 772, "▁但它": 773, "如此": 774, "▁在我": 775, "涯": 776, "打": 777, "破": 778, "协": 779, "议": 780, "▁就是": 781, "做出": 782, "数据": 783, "发布": 784, "杂志": 785, "再": 786, "谈论": 787, "写": 788, "了一": 789, "封": 790, "客": 791, "信": 792, "▁给": 793, "卫生": 794, "长": 795, "简单的": 796, "非": 797, "对于": 798, "不可": 799, "忍": 800, "受": 801, "人民": 802, "小孩": 803, "应该": 804, "她们": 805, "导致": 806, "一系列": 807, "其他": 808, "运动": 809, "骄": 810, "傲": 811, "很难": 812, "标签": 813, "贴": 814, "错了": 815, "他们": 816, "仍然": 817, "这么做": 818, "至少": 819, "帖": 820, "▁你就": 821, "回": 822, "▁并不是": 823, "只有": 824, "才": 825, "是在": 826, "国家的": 827, "自然": 828, "加拿": 829, "在美国": 830, "▁还有": 831, "欧洲": 832, "豹": 833, "各个": 834, "聚集": 835, "妇女": 836, "▁她们": 837, "喂": 838, "养": 839, "孩子们": 840, "的一部分": 841, "免疫": 842, "系统": 843, "已经": 844, "受到": 845, "危": 846, "生长": 847, "育": 848, "近": 849, "十年": 850, "这一": 851, "问题的": 852, "▁已经": 853, "帮助": 854, "解决": 855, "▁不是": 856, "改变": 857, "结构": 858, "特": 859, "饮食": 860, "▁我们已经": 861, "让": 862, "脱": 863, "离": 864, "自然的": 865, "目的": 866, "▁对于": 867, "尖": 868, "锐": 869, "的问题": 870, "办法": 871, "问题": 872, "没什么": 873, "另一种": 874, "▁如果我们": 875, "像": 876, "道": 877, "堵": 878, "加入": 879, "营养": 880, "、": 881, "污": 882, "肥": 883, "影响": 884, "整个": 885, "▁下面": 886, "听": 887, "过的": 888, "结束": 889, "这件事": 890, "赤": 891, "潮": 892, "大量": 893, "藻": 894, "类": 895, "漂": 896, "▁能": 897, "造成": 898, "精神": 899, "损": 900, "可能会": 901, "里的": 902, "细菌": 903, "▁和": 904, "病毒": 905, "两": 906, "张": 907, "都是": 908, "红": 909, "▁这里": 910, "面": 911, "▁一种": 912, "弧": 913, "菌": 914, "带有": 915, "乱": 916, "多少": 917, "见过": 918, "“": 919, "禁": 920, "标志": 921, "▁为什么": 922, "▁因为我们": 923, "太多": 924, "垃圾": 925, "扔": 926, "到了": 927, "溢": 928, "滩": 929, "般": 930, "困": 931, "扰": 932, "有多少": 933, "曾经": 934, "立": 935, "公园": 936, "或是": 937, "国家": 938, "▁在那": 939, "门": 940, "一块": 941, "因": 942, "充": 943, "斥": 944, "闭": 945, "▁不": 946, "常": 947, "见": 948, "容": 949, "事情": 950, "▁被": 951, "满": 952, "在我们": 953, "却": 954, "了很多": 955, "世界各地": 956, "多的": 957, "因为": 958, "同样的": 959, "原因": 960, "▁我相信": 961, "也不": 962, "不只是": 963, "清洁": 964, "▁同时": 965, "有机": 966, "疾病": 967, "感染": 968, "▁这张": 969, "来自": 970, "美国": 971, "象": 972, "提": 973, "法": 974, "案": 975, "▁说": 976, "明": 977, "过去": 978, "几年": 979, "▁举": 980, "例": 981, "冲": 982, "浪": 983, "情况": 984, "▁如果你": 985, "录": 986, "网站": 987, "光": 988, "会有": 989, "闪": 990, "烁": 991, "警": 992, "示": 993, "表示": 994, "边": 995, "可能": 996, "危险": 997, "携": 998, "很多": 999, "遗": 1000, "留": 1001, "造": 1002, "成的": 1003, "也许": 1004, "很长": 1005, "时间": 1006, "治疗": 1007, "抗": 1008, "体": 1009, "▁这就": 1010, "使得": 1011, "更加": 1012, "困难": 1013, "传染": 1014, "源": 1015, "▁使得": 1016, "种": 1017, "清": 1018, "了这些": 1019, "贝": 1020, "甲": 1021, "痢": 1022, "疾": 1023, "神经": 1024, "麻": 1025, "痹": 1026, "威": 1027, "尔": 1028, "成功的": 1029, "到一个": 1030, "有趣": 1031, "的故事": 1032, "关于": 1033, "▁他们": 1034, "▁正": 1035, "桡": 1036, "足": 1037, "壳": 1038, "分之一": 1039, "寸": 1040, "依": 1041, "附": 1042, "细": 1043, "小的": 1044, "腿": 1045, "使": 1046, "引发": 1047, "沿着": 1048, "港": 1049, "传": 1050, "迫": 1051, "注意到": 1052, "▁要": 1053, "▁成为": 1054, "传播": 1055, "点": 1056, "的问题是": 1057, "生态系统": 1058, "转": 1059, "遭": 1060, "破坏": 1061, "畅": 1062, "处于": 1063, "阻": 1064, "状态": 1065, "怎么": 1066, "处理": 1067, "▁其实": 1068, "有很多": 1069, "做的事": 1070, "▁例如": 1071, "叫": 1072, "管": 1073, "工": 1074, "修": 1075, "理": 1076, "▁他": 1077, "就会": 1078, "进来": 1079, "疏": 1080, "放": 1081, "眼": 1082, "希望": 1083, "▁我们能": 1084, "▁有些": 1085, "寻求": 1086, "蒙": 1087, "雷": 1088, "其中": 1089, "之一": 1090, "已经被": 1091, "程度": 1092, "随": 1093, "来的": 1094, "各种": 1095, "▁200": 1096, "9": 1097, "明显": 1098, "迁": 1099, "走了": 1100, "减": 1101, "轻": 1102, "更有": 1103, "意义": 1104, "居": 1105, "民": 1106, "所需": 1107, "▁是一个": 1108, "健": 1109, "全": 1110, "功能": 1111, "良": 1112, "好的": 1113, "▁目前": 1114, "条": 1115, "各": 1116, "方": 1117, "人士": 1118, "未": 1119, "▁1": 1120, "50": 1121, "年来": 1122, "从未": 1123, "▁这不是": 1124, "突然": 1125, "付": 1126, "出了": 1127, "精": 1128, "投入": 1129, "先": 1130, "驱": 1131, "者的": 1132, "左边": 1133, "这位": 1134, "朱": 1135, "娅": 1136, "家": 1137, "乡": 1138, "镇": 1139, "葛": 1140, "洛": 1141, "芙": 1142, "洋": 1143, "▁她": 1144, "7": 1145, "4": 1146, "岁的时候": 1147, "选": 1148, "她": 1149, "▁19": 1150, "1": 1151, "设计": 1152, "加州": 1153, "第一个": 1154, "基于": 1155, "区": 1156, "紧": 1157, "挨": 1158, "▁当": 1159, "最终": 1160, "走": 1161, "复": 1162, "▁换": 1163, "句话": 1164, "抛": 1165, "砖": 1166, "引": 1167, "玉": 1168, "想要": 1169, "其他人": 1170, "卫": 1171, "德": 1172, "莉": 1173, "筹": 1174, "建": 1175, "族": 1176, "馆": 1177, "▁以": 1178, "此": 1179, "让人们": 1180, "片": 1181, "地的": 1182, "经济": 1183, "重要": 1184, "侵": 1185, "思想": 1186, "转变": 1187, "巨大的": 1188, "变化": 1189, "▁不仅": 1190, "改变了": 1191, "命": 1192, "我希望": 1193, "让你们": 1194, "尝试": 1195, "去做": 1196, "相": 1197, "连": 1198, "星球": 1199, "▁虽然": 1200, "自己": 1201, "陆": 1202, "地": 1203, "才能": 1204, "确保": 1205, "自身": 1206, "感谢": 1207, "j": 1208, "ess": 1209, "a": 1210, "g": 1211, "am": 1212, "le": 1213, "to": 1214, "今": 1215, "我们要": 1216, "学校": 1217, "孩子": 1218, "及": 1219, "事": 1220, "项": 1221, "保持": 1222, "平衡": 1223, "多数": 1224, "达到": 1225, "推": 1226, "荐": 1227, "八": 1228, "小时": 1229, "睡": 1230, "眠": 1231, "杰": 1232, "莎": 1233, "甘": 1234, "布": 1235, "视": 1236, "了我们": 1237, "钟": 1238, "背": 1239, "后的": 1240, "揭": 1241, "应": 1242, "意": 1243, "令人": 1244, "惊讶": 1245, "实": 1246, "质": 1247, "休": 1248, "息": 1249, "方案": 1250, "ev": 1251, "tion": 1252, "man": 1253, "ity": 1254, "ers": 1255, "on": 1256, "r": 1257, "th": 1258, "el": 1259, "▁9": 1260, "5": 1261, "周": 1262, "▁让我们": 1263, "日": 1264, "夜": 1265, "进化": 1266, "黑暗": 1267, "进行": 1268, "然后": 1269, "▁因此": 1270, "植物": 1271, "自己的": 1272, "内部": 1273, "适应": 1274, "线": 1275, "▁每个": 1276, "已": 1277, "知的": 1278, "细胞": 1279, "都有": 1280, "个例子": 1281, "鲎": 1282, "把它": 1283, "空": 1284, "▁接着": 1285, "倾": 1286, "斜": 1287, "笼": 1288, "子里": 1289, "它": 1290, "数": 1291, "千": 1292, "外": 1293, "涨": 1294, "▁它会": 1295, "爬": 1296, "子的": 1297, "高": 1298, "处": 1299, "退": 1300, "又": 1301, "行为": 1302, "它会": 1303, "重复": 1304, "星期": 1305, "▁直到": 1306, "渐": 1307, "失去": 1308, "判断": 1309, "能力": 1310, "不可思议": 1311, "灵": 1312, "异": 1313, "超": 1314, "现象": 1315, ";": 1316, "很简单": 1317, "拥有": 1318, "周围": 1319, "环境": 1320, "调": 1321, "而言": 1322, "称之为": 1323, "▁当你": 1324, "拿": 1325, "某个": 1326, "人的": 1327, "手": 1328, "表": 1329, "深入": 1330, "下的": 1331, "地下": 1332, "堡": 1333, "垒": 1334, "几个月": 1335, "就能": 1336, "更": 1337, "清楚": 1338, "观察": 1339, "作用": 1340, "志愿": 1341, "做过": 1342, "实验": 1343, "洞": 1344, "出来": 1345, "他们在": 1346, "有点": 1347, "混乱": 1348, "▁不管": 1349, "显": 1350, "得多": 1351, "逻辑": 1352, "一件事": 1353, "确": 1354, "认": 1355, "每天": 1356, "比": 1357, "晚": 1358, "一点": 1359, "--": 1360, "大约": 1361, "15": 1362, "分钟": 1363, "左右": 1364, "▁在这": 1365, "他们的": 1366, "延": 1367, "▁而且": 1368, "他们是": 1369, "做到": 1370, "这点": 1371, "▁而不是": 1372, "某种": 1373, "方式": 1374, "感知": 1375, "面的": 1376, "我们有": 1377, "极其": 1378, "▁它": 1379, "文化": 1380, "动力": 1381, "▁我认为": 1382, "中最": 1383, "估": 1384, "的一种": 1385, "力量": 1386, "是从": 1387, "附近": 1388, "物种": 1389, "12": 1390, "白": 1391, "昼": 1392, "▁不过": 1393, "当然": 1394, "我们现在": 1395, "遍": 1396, "全球": 1397, "每个": 1398, "角落": 1399, "居住": 1400, "北极": 1401, "地区": 1402, "夏天": 1403, "极": 1404, "冬": 1405, "则是": 1406, "传统": 1407, "住": 1408, "高度": 1409, "季": 1410, "节": 1411, "▁人们": 1412, "室": 1413, "享受": 1414, "家庭": 1415, "▁而在": 1416, "疯狂": 1417, "狩": 1418, "猎": 1419, "时间的": 1420, "劳": 1421, "作": 1422, "▁非常": 1423, "活跃": 1424, "奏": 1425, "样的": 1426, "▁我们的": 1427, "理想": 1428, "模式": 1429, "事实": 1430, "表明": 1431, "生活在": 1432, "完全": 1433, "▁任何": 1434, "人工": 1435, "的环境": 1436, "次": 1437, "晚上": 1438, "8": 1439, "觉": 1440, "午": 1441, "再次": 1442, "凌": 1443, "晨": 1444, "直到": 1445, "几个": 1446, "床": 1447, "安": 1448, "静": 1449, "沉": 1450, "思": 1451, "段时间": 1452, "催": 1453, "现代": 1454, "社会": 1455, "出现": 1456, "觉得": 1457, "醒": 1458, "意识到": 1459, "▁正在": 1460, "生命": 1461, "▁第": 1462, "真正的": 1463, "失": 1464, "充满": 1465, "差": 1466, "▁全球": 1467, "旅行": 1468, "营": 1469, "业": 1470, "倒": 1471, "班": 1472, "▁你知道": 1473, "它的": 1474, "优": 1475, "我们应该": 1476, "明白": 1477, "▁谢谢": 1478, "and": 1479, "pr": 1480, "et": 1481, "us": 1482, "ry": 1483, "be": 1484, "ind": 1485, "w": 1486, "ar": 1487, "or": 1488, "木": 1489, "偶": 1490, "总是": 1491, "春": 1492, "公司的": 1493, "艾": 1494, "科": 1495, "勒": 1496, "间": 1497, "公司": 1498, "声": 1499, "誉": 1500, "远": 1501, "见的": 1502, "戏": 1503, "鬣": 1504, "狗": 1505, "爪": 1506, "讲": 1507, "艺": 1508, "琼": 1509, "讲述": 1510, "最近": 1511, "惊": 1512, "栩": 1513, "如": 1514, "生的": 1515, "战": 1516, "马": 1517, "乔": 1518, "伊": 1519, "漫": 1520, "步": 1521, "奔": 1522, "驰": 1523, "TED": 1524, "舞台": 1525, "彩": 1526, "im": 1527, "arts": 1528, "design": 1529, "entertainment": 1530, "ter": 1531, "10": 1532, "呈": 1533, "献": 1534, "制作": 1535, "艺术": 1536, "▁艾": 1537, "今天": 1538, "事实上": 1539, "以": 1540, "开": 1541, "篇": 1542, "也就是": 1543, "祖": 1544, "表演": 1545, "哈": 1546, "它是": 1547, "▁叫做": 1548, "非洲的": 1549, "士": 1550, "199": 1551, "作品": 1552, "拖": 1553, "载": 1554, "是由": 1555, "南非": 1556, "艺术家": 1557, "导": 1558, "演": 1559, "指导": 1560, "廉": 1561, "肯": 1562, "持": 1563, "▁所以": 1564, "敏": 1565, "的前": 1566, "所有的": 1567, "特性": 1568, "呼吸": 1569, "对我们": 1570, "是很": 1571, "重要的": 1572, "▁这是一个": 1573, "基本的": 1574, "动作": 1575, "分": 1576, "不好": 1577, "!": 1578, "演员": 1579, "基本": 1580, "原则": 1581, "台": 1582, "挣": 1583, "扎": 1584, "渴望": 1585, "物体": 1586, "看到的": 1587, "在你": 1588, "过来": 1589, "▁才": 1590, "▁这也是": 1591, "隐": 1592, "喻": 1593, "所以": 1594, "刻": 1595, "试着": 1596, "下去": 1597, "叫做": 1598, "▁一个": 1599, "情感": 1600, "工程": 1601, "使用": 1602, "新的": 1603, "十": 1604, "七": 1605, "的技术": 1606, "名": 1607, "词": 1608, "变成": 1609, "动": 1610, "其实": 1611, "▁由": 1612, "做的": 1613, "融": 1614, "诱": 1615, "相信": 1616, "耳": 1617, "朵": 1618, "跟": 1619, "移动": 1620, "隔": 1621, "板": 1622, "▁都是": 1623, "压": 1624, "覆": 1625, "▁事实上": 1626, "父亲": 1627, "▁还是": 1628, "孩": 1629, "童": 1630, "独": 1631, "舟": 1632, "奇": 1633, "相似": 1634, "的小": 1635, "村庄": 1636, "妈妈": 1637, "▁我们在": 1638, "学院": 1639, "识": 1640, "爱": 1641, "▁我当时": 1642, "讨": 1643, "厌": 1644, "▁总": 1645, "贱": 1646, "▁我想": 1647, "▁《": 1648, "庞": 1649, "迪": 1650, "》": 1651, "绝对": 1652, "不想": 1653, "花了": 1654, "掘": 1655, "非洲": 1656, "叹": 1657, "▁从而": 1658, "领": 1659, "或者": 1660, "说是": 1661, "全新的": 1662, "崇": 1663, "敬": 1664, "198": 1665, "劝": 1666, "服": 1667, "我的": 1668, "朋友": 1669, "成立": 1670, "了一个": 1671, "乎": 1672, "合作": 1673, "巴": 1674, "团": 1675, "颈": 1676, "鹿": 1677, "名字": 1678, "真": 1679, "你可以看到": 1680, "换": 1681, "藤": 1682, "蔓": 1683, "主": 1684, "框": 1685, "架": 1686, "差不多": 1687, "一样的": 1688, "藏": 1689, "个人": 1690, "踩": 1691, "跷": 1692, "▁把": 1693, "拔": 1694, "人在": 1695, "前面": 1696, "方向": 1697, "盘": 1698, "一个人": 1699, "掌": 1700, "控": 1701, "尾": 1702, "`": 1703, "些": 1704, "还能": 1705, "掌握": 1706, "伦敦": 1707, "的国家": 1708, "▁的": 1709, "汤": 1710, "姆": 1711, "摩": 1712, "瑞": 1713, "看到了": 1714, "时候": 1715, "▁他的": 1716, "你有": 1717, "看过": 1718, "麦克": 1719, "莫": 1720, "构": 1721, "的书": 1722, "?”": 1723, "男孩": 1724, "匹": 1725, "参加": 1726, "参": 1727, "军": 1728, "找到了": 1729, "给我们": 1730, "了个": 1731, "电话": 1732, "你能": 1733, "院": 1734, "主意": 1735, "听起来": 1736, "妙": 1737, "但是": 1738, "骑": 1739, "有个": 1740, "不错": 1741, "兵": 1742, "队": 1743, "初": 1744, "耕": 1745, "技术": 1746, "费用": 1747, "支": 1748, "▁但是他们": 1749, "同意": 1750, "看看": 1751, "就开始": 1752, "试验": 1753, "▁斯": 1754, "丹": 1755, "▁他们是": 1756, "圈": 1757, "的设计": 1758, "邻居": 1759, "瑟": 1760, "琳": 1761, "梯": 1762, "悬": 1763, "是非常": 1764, "一旦": 1765, "逼": 1766, "特别的": 1767, "炼": 1768, "狱": 1769, "▁我们就": 1770, "能够": 1771, "出一个": 1772, "▁所以我们": 1773, "模型": 1774, "纸": 1775, "▁你能": 1776, "式的": 1777, "操": 1778, "纵": 1779, "▁当时": 1780, "第": 1781, "三个": 1782, "控制": 1783, "脖": 1784, "行走": 1785, "雏": 1786, "形": 1787, "费": 1788, "想象": 1789, "▁我们必须": 1790, "放弃": 1791, "改": 1792, "制的": 1793, "▁我们还": 1794, "箱": 1795, "往": 1796, "珀": 1797, "城": 1798, "外的": 1799, "路上": 1800, "试": 1801, "跑": 1802, "忙": 1803, "半": 1804, "我们也": 1805, "没": 1806, "顾": 1807, "照": 1808, "机": 1809, "摆": 1810, "腾": 1811, "寄": 1812, "▁希望": 1813, "真的是": 1814, "月": 1815, "我们在": 1816, "带着": 1817, "盒": 1818, "等": 1819, "和我们": 1820, "总": 1821, "共": 1822, "四": 1823, "害怕": 1824, "打开": 1825, "盖": 1826, "然": 1827, "有一个": 1828, "秒钟": 1829, "录像": 1830, "路": 1831, "酝": 1832, "酿": 1833, "新": 1834, "材": 1835, "的地方": 1836, "还没有": 1837, "舞蹈": 1838, "托": 1839, "维": 1840, "▁设计": 1841, "系列": 1842, "美": 1843, "▁整个": 1844, "签": 1845, "棍": 1846, "慢慢": 1847, "长大": 1848, "壮": 1849, "尼": 1850, "▁看到": 1851, "片段": 1852, "当时": 1853, "在我": 1854, "身边": 1855, "尿": 1856, "裤": 1857, "回到": 1858, "重新": 1859, "整": 1860, "计划": 1861, "▁你可以看到": 1862, "背景": 1863, "骨": 1864, "世纪的": 1865, "科技": 1866, "很少": 1867, "激": 1868, "切": 1869, "割": 1870, "铝": 1871, "必须": 1872, "塑": 1873, "强": 1874, "都不": 1875, "批": 1876, "生产": 1877, "品": 1878, "加": 1879, "▁现在我们": 1880, "为": 1881, "介绍": 1882, "你在": 1883, "哪里": 1884, "掌声": 1885, "袋": 1886, "都能": 1887, "看见": 1888, "描述": 1889, "▁我会": 1890, "脾": 1891, "▁克": 1892, "莱": 1893, "自行车": 1894, "闸": 1895, "汇": 1896, "中心": 1897, "▁或者是": 1898, "直接": 1899, "表情": 1900, "指": 1901, "愤怒": 1902, "取决于": 1903, "面前": 1904, "有什么": 1905, "松": 1906, "垂": 1907, "▁马": 1908, "▁几乎": 1909, "视觉": 1910, "所谓的": 1911, "心脏": 1912, "位": 1913, "▁请": 1914, "这里的": 1915, "弦": 1916, "腱": 1917, "▁自": 1918, "环": 1919, "预测": 1920, "扬": 1921, "蹄": 1922, "马上": 1923, "给你": 1924, "的感觉": 1925, "迈": 1926, "手指": 1927, "的能力": 1928, "▁另一": 1929, "组合": 1930, "你想": 1931, "的部分": 1932, "么": 1933, "模拟": 1934, "撞": 1935, "南": 1936, "墙": 1937, "以为": 1938, "胸": 1939, "剖": 1940, "▁才能": 1941, "样子": 1942, "扩": 1943, "▁但是我们": 1944, "这样做": 1945, "观众": 1946, "你们": 1947, "看不": 1948, "腔": 1949, "就在": 1950, "悖": 1951, "▁只": 1952, "膝": 1953, "我在": 1954, "按": 1955, "核": 1956, "心的": 1957, "摇": 1958, "▁使": 1959, "抖": 1960, "▁我希望": 1961, "审": 1962, "选择": 1963, "画": 1964, "三维": 1965, "▁为了": 1966, "让它": 1967, "空中": 1968, "跃": 1969, "▁当然": 1970, "用的": 1971, "很有": 1972, "弹": 1973, "经": 1974, "实际": 1975, "的原因": 1976, "块": 1977, "透明": 1978, "网": 1979, "灯": 1980, "师": 1981, "▁想": 1982, "舞": 1983, "坛": 1984, "消失": 1985, "可以在": 1986, "好像": 1987, "幽": 1988, "骼": 1989, "下面": 1990, "变得更": 1991, "考虑": 1992, "外面": 1993, "作出": 1994, "反应": 1995, "都要": 1996, "皮": 1997, "匠": 1998, "诸": 1999, "亮": 2000, "啊": 2001, "嘶": 2002, "州的": 2003, "阳光": 2004, "泽": 2005, "坤": 2006, "为我们": 2007, "音乐": 2008, "强调": 2009, "现在": 2010, "▁每个人": 2011, "仔细": 2012, "的行为": 2013, "互相": 2014, "交谈": 2015, "风": 2016, "音": 2017, "效": 2018, "鸣": 2019, "吼": 2020, "等等": 2021, "第二": 2022, "接": 2023, "上去": 2024, "▁第三": 2025, "伯": 2026, "斯特": 2027, "奥": 2028, "和我": 2029, "谢谢": 2030, "k": 2031, "ath": 2032, "ine": 2033, "ul": 2034, "ou": 2035, "are": 2036, "ture": 2037, "of": 2038, "op": 2039, "凯": 2040, "顿": 2041, "在这": 2042, "描": 2043, "绘": 2044, "慈善": 2045, "创新": 2046, "即使": 2047, "足够的": 2048, "举": 2049, "五个": 2050, "聚": 2051, "草": 2052, "根": 2053, "兴": 2054, "的例子": 2055, "下一": 2056, "公民": 2057, "袖": 2058, "逐": 2059, "走向": 2060, "ac": 2061, "tiv": 2062, "ot": 2063, "om": 2064, "un": 2065, "global": 2066, "▁issues": 2067, "n": 2068, "ti": 2069, "▁5": 2070, "什么是": 2071, "▁以及": 2072, "怎么做": 2073, "那样的": 2074, "给大家": 2075, "带来": 2076, "界": 2077, "诗": 2078, "S": 2079, "▁H": 2080, "所说的": 2081, "人生": 2082, "那么": 2083, "期待": 2084, "久的": 2085, "正": 2086, "义": 2087, "卷": 2088, "历史": 2089, "呼": 2090, "配": 2091, "在那": 2092, "百": 2093, "发明": 2094, "基金会": 2095, "形式": 2096, "也不会": 2097, "想到": 2098, "站在": 2099, "错误": 2100, "做法": 2101, "守": 2102, "迟": 2103, "钝": 2104, "规模": 2105, "常常": 2106, "避": 2107, "风险": 2108, "那个": 2109, "时代": 2110, "辈": 2111, "菲": 2112, "仁": 2113, "慈": 2114, "20": 2115, "末": 2116, "▁新": 2117, "评": 2118, "以及": 2119, "改革": 2120, "事业": 2121, "正在": 2122, "我们需要": 2123, "则": 2124, "▁甚至": 2125, "颠": 2126, "假": 2127, "成为一个": 2128, "长期": 2129, "续": 2130, "开放": 2131, "迅速": 2132, "关联": 2133, "体系": 2134, "创": 2135, "正是": 2136, "方面": 2137, "展现": 2138, "▁很多": 2139, "很多人": 2140, "促": 2141, "工具": 2142, "比如": 2143, "压力": 2144, "▁我很": 2145, "久": 2146, "以前": 2147, "态": 2148, "参与": 2149, "▁这是我们": 2150, "的最": 2151, "公开": 2152, "报告": 2153, "▁为": 2154, "何": 2155, "100": 2156, "故事": 2157, "分享": 2158, "你们的": 2159, "▁需要": 2160, "我不": 2161, "打算": 2162, "谈": 2163, "人都": 2164, "过了": 2165, "茨": 2166, "罗斯": 2167, "Google": 2168, "做的事情": 2169, "是我们": 2170, "所有": 2171, "▁或": 2172, "曰": 2173, "民主": 2174, "历史上": 2175, "方面的": 2176, "每一个": 2177, "挑战": 2178, "看法": 2179, "▁首先": 2180, "大规模": 2181, "其": 2182, "代表": 2183, "基": 2184, "让你": 2185, "感到": 2186, "吃惊": 2187, "你必须": 2188, "记住": 2189, "本来": 2190, "而不是": 2191, "▁C": 2192, "ay": 2193, "▁S": 2194, "ir": 2195, "著": 2196, "名的": 2197, "网络": 2198, "记录": 2199, "漂亮": 2200, "带来的": 2201, "契": 2202, "▁他说": 2203, "生活的": 2204, "这个世界": 2205, "赚": 2206, "▁突然": 2207, "也可以": 2208, "喜": 2209, "成就": 2210, "今年": 2211, "保罗": 2212, "书": 2213, "认识": 2214, "作家": 2215, "企业家": 2216, "本书": 2217, "《": 2218, "W": 2219, "I": 2220, "E": 2221, "R": 2222, "▁W": 2223, "意思是": 2224, "责任": 2225, "▁它的": 2226, "称": 2227, "结": 2228, "更大的": 2229, "作为一个": 2230, "迎": 2231, "今天的": 2232, "并非": 2233, "述": 2234, "追求": 2235, "易": 2236, "成功": 2237, "项目": 2238, "必": 2239, "广泛": 2240, "行动": 2241, "▁第二": 2242, "领域": 2243, "A": 2244, "ma": 2245, "z": 2246, "你可以": 2247, "将其": 2248, "设想": 2249, "▁即": 2250, "仅仅是": 2251, "干": 2252, "▁假如": 2253, "▁D": 2254, "os": 2255, "O": 2256, "id": 2257, "▁N": 2258, "wor": 2259, "▁它是": 2260, "知": 2261, "的一个": 2262, "▁你可以": 2263, "老师": 2264, "取得": 2265, "▁下": 2266, "你需要": 2267, "婚": 2268, "礼": 2269, "或": 2270, "妨": 2271, "▁Ch": 2272, "ang": 2273, "es": 2274, "ent": 2275, "▁G": 2276, "ve": 2277, "nd": 2278, "ia": 2279, "捐": 2280, "助": 2281, "看到的是": 2282, "不仅仅": 2283, "慷": 2284, "慨": 2285, "当你": 2286, "财": 2287, "产": 2288, "观念": 2289, "应当": 2290, "设": 2291, "基金": 2292, "涌": 2293, "现": 2294, "用来": 2295, "投资": 2296, "关心": 2297, "得以": 2298, "宽": 2299, "广": 2300, "很好的": 2301, "▁A": 2302, "▁F": 2303, "d": 2304, "▁J": 2305, "q": 2306, "v": 2307, "og": 2308, "it": 2309, "剑": 2310, "桥": 2311, "硅": 2312, "谷": 2313, "ch": 2314, "'": 2315, "V": 2316, "华盛顿": 2317, "art": 2318, "旧": 2319, "山": 2320, "lobal": 2321, "for": 2322, "▁看看": 2323, "行业": 2324, "私": 2325, "共同": 2326, "资金": 2327, "围绕": 2328, "发生了": 2329, "▁好吧": 2330, "三": 2331, "▁大": 2332, "概念": 2333, "早": 2334, "不仅仅是": 2335, "▁再": 2336, "样": 2337, "的大": 2338, "融合": 2339, "有人": 2340, "亿": 2341, "美金": 2342, "▁美国": 2343, "去年": 2344, "就有": 2345, "21": 2346, "份": 2347, "价值": 2348, "超过": 2349, "这不是": 2350, "可能的": 2351, "唯": 2352, "额": 2353, "兑": 2354, "许": 2355, "构建": 2356, "度": 2357, "人们的": 2358, "实现": 2359, "目标": 2360, "▁好了": 2361, "接下来": 2362, "我要": 2363, "范": 2364, "畴": 2365, "竞争": 2366, "竞": 2367, "赛": 2368, "奖": 2369, "吸引": 2370, "某些": 2371, "找到": 2372, "答案": 2373, "赠": 2374, "特殊的": 2375, "手段": 2376, "提供": 2377, "▁最后": 2378, "即": 2379, "最好的": 2380, "X": 2381, "ig": 2382, "思维": 2383, "商业": 2384, "▁完全": 2385, "的成": 2386, "▁上面": 2387, "1000": 2388, "机构": 2389, "企业": 2390, "贷": 2391, "款": 2392, "资": 2393, "▁无": 2394, "让我们": 2395, "很小": 2396, "一部分": 2397, "资本": 2398, "▁而这": 2399, "笔": 2400, "报": 2401, "动的": 2402, "启发": 2403, "▁去": 2404, "定义": 2405, "出现在": 2406, "都没有": 2407, "还是": 2408, "我们已经": 2409, "快速": 2410, "发展的": 2411, "▁我们需要": 2412, "的过程": 2413, "来做": 2414, "韧": 2415, "坚持": 2416, "做什么": 2417, "不过": 2418, "▁但我": 2419, "依然": 2420, "是不": 2421, "▁社会": 2422, "也在": 2423, "▁包括": 2424, "都在": 2425, "▁另外": 2426, "不管": 2427, "我去": 2428, "感受到": 2429, "道德": 2430, "增长": 2431, "主义": 2432, "至今": 2433, "合适": 2434, "语言": 2435, "且": 2436, "对此": 2437, "崭": 2438, "相当": 2439, "▁这也": 2440, "所在": 2441, "姑": 2442, "称为": 2443, "▁也许": 2444, "有些人": 2445, "懂": 2446, "借": 2447, "幻": 2448, "说法": 2449, "最初": 2450, "出来的": 2451, "趋势": 2452, "加速": 2453, "▁将会": 2454, "创造": 2455, "点是": 2456, "恐惧": 2457, "伴": 2458, "随着": 2459, "灾难": 2460, "杀": 2461, "伤": 2462, "武器": 2463, "贫困": 2464, "应对": 2465, "危机": 2466, "▁跟": 2467, "的速度": 2468, "▁正如": 2469, "听到的": 2470, "便": 2471, "▁这一": 2472, "问题是": 2473, "是否": 2474, "有可能": 2475, "积极": 2476, "的社会": 2477, "否": 2478, "有一种": 2479, "▁我们可以": 2480, "彼此": 2481, "友": 2482, "善": 2483, "▁我们不": 2484, "需": 2485, "▁但我们": 2486, "遇": 2487, "难题": 2488, "经验": 2489, "体的": 2490, "保证": 2491, "我们会": 2492, "怎样": 2493, "群体": 2494, "乐": 2495, "成长": 2496, "热": 2497, "学习": 2498, "伐": 2499, "▁这是我": 2500, "展示": 2501, "最后": 2502, "页": 2503, "一百": 2504, "下来的": 2505, "父": 2506, "增": 2507, "出版": 2508, "商": 2509, "银行": 2510, "优秀": 2511, "▁我将": 2512, "这张": 2513, "办公室": 2514, "神秘": 2515, "亲": 2516, "感": 2517, "从来没有": 2518, "接触": 2519, "纪": 2520, "念": 2521, "幻灯片": 2522, "社": 2523, "群": 2524, "▁我还": 2525, "▁你的": 2526, "孙": 2527, "曾": 2528, "儿": 2529, "媳": 2530, "看着": 2531, "他们会": 2532, "▁谢谢大家": 2533, "ad": 2534, "in": 2535, "ab": 2536, "担心": 2537, "讯": 2538, "M": 2539, "文": 2540, "信息": 2541, "F": 2542, "ace": 2543, "ook": 2544, "密": 2545, "但": 2546, "▁B": 2547, "的研究": 2548, "跨": 2549, "越": 2550, "距离": 2551, "障碍": 2552, "怀": 2553, "ology": 2554, "ci": 2555, "med": 2556, "technology": 2557, "▁6": 2558, "互联网": 2559, "变得": 2560, "隐藏": 2561, "紧张": 2562, "制度": 2563, "日常": 2564, "生活中": 2565, "医院": 2566, "意思": 2567, "处的": 2568, "沟通": 2569, "渠": 2570, "孤": 2571, "由于": 2572, "例如": 2573, "打电话": 2574, "朋友们": 2575, "短": 2576, "身": 2577, "采访": 2578, "求": 2579, "▁有人": 2580, "她的": 2581, "男": 2582, "▁一位": 2583, "年轻": 2584, "女人": 2585, "爷": 2586, "▁20": 2587, "一直在": 2588, "▁如": 2589, "电子": 2590, "邮件": 2591, "五": 2592, "六": 2593, "交流": 2594, "有关": 2595, "的数据": 2596, "▁最近": 2597, "期望": 2598, "▁所有": 2599, "社交": 2600, "用户": 2601, "梅": 2602, "▁M": 2603, "根据": 2604, "至": 2605, "6": 2606, "双": 2607, "术": 2608, "显示": 2609, "基本上": 2610, "▁无论": 2611, "手机": 2612, "百分之": 2613, "电": 2614, "对话": 2615, "聊": 2616, "的确": 2617, "望": 2618, "▁我的意思是": 2619, "当我": 2620, "这一切": 2621, "▁我也": 2622, "茧": 2623, "公众": 2624, "离开": 2625, "▁而我": 2626, "给你们": 2627, "谁": 2628, "▁他们在": 2629, "难以置信": 2630, "绅": 2631, "面包": 2632, "早上": 2633, "▁大概": 2634, "烤": 2635, "洗": 2636, "妻子": 2637, "祝": 2638, "福": 2639, "美好": 2640, "听说过": 2641, "年轻的": 2642, "车": 2643, "▁顺便": 2644, "电视": 2645, "拐": 2646, "角": 2647, "11": 2648, "女": 2649, "问": 2650, "厕": 2651, "查": 2652, "安全": 2653, "回家": 2654, "巴西": 2655, "妇": 2656, "意大": 2657, "利": 2658, "家人": 2659, "电脑": 2660, "餐": 2661, "置": 2662, "摄像": 2663, "竟": 2664, "▁与": 2665, "圣": 2666, "一起": 2667, "宴": 2668, "活动": 2669, "听说": 2670, "温": 2671, "馨": 2672, "沃": 2673, "移": 2674, "厅": 2675, "屏幕": 2676, "米": 2677, "ill": 2678, "很好": 2679, "律": 2680, "宾": 2681, "籍": 2682, "告诉我": 2683, "父母": 2684, "教育": 2685, "甚至": 2686, "一天": 2687, "▁最终": 2688, "▁使用": 2689, "消息": 2690, "闲": 2691, "课": 2692, "青": 2693, "少年": 2694, "枚": 2695, "胜": 2696, "我可以": 2697, "告诉你们": 2698, "类似": 2699, "真正": 2700, "想想": 2701, "我所": 2702, "政府": 2703, "如果我们": 2704, "仅": 2705, "期间": 2706, "没有任何": 2707, "▁你要": 2708, "幸运": 2709, "廊": 2710, "某": 2711, "可以用": 2712, "公共": 2713, "管理": 2714, "哦": 2715, "那就是": 2716, "回事": 2717, "直": 2718, "或许": 2719, "操作": 2720, "员": 2721, "建筑": 2722, "职业": 2723, "务": 2724, "心": 2725, "完成": 2726, "▁全": 2727, "服务": 2728, "分离": 2729, "园": 2730, "▁仅仅": 2731, "▁让他们": 2732, "习惯": 2733, "的时间": 2734, "扮演": 2735, "完美的": 2736, "角色": 2737, "模仿": 2738, "仪": 2739, "式": 2740, "在这个": 2741, "制": 2742, "确定": 2743, "身份": 2744, "团队": 2745, "建设": 2746, "一段时间": 2747, "学会": 2748, "注意力": 2749, "大概": 2750, "官": 2751, "僚": 2752, "革命": 2753, "诞生": 2754, "展": 2755, "▁随着": 2756, "合理": 2757, "那时": 2758, "自": 2759, "耘": 2760, "土地": 2761, "贯": 2762, "穿": 2763, "城市": 2764, "市": 2765, "在那里": 2766, "行": 2767, "阔": 2768, "宅": 2769, "郊": 2770, "区域": 2771, "▁有一个": 2772, "阶": 2773, "级": 2774, "职": 2775, "责": 2776, "执行": 2777, "剥": 2778, "夺": 2779, "空间": 2780, "情况下": 2781, "惊人的": 2782, "可能性": 2783, "尤": 2784, "▁-": 2785, "五十": 2786, "▁我的": 2787, "邮": 2788, "的高": 2789, "峰": 2790, "关键": 2791, "经常": 2792, "讨论": 2793, "伊拉克": 2794, "的影响": 2795, "阻止": 2796, "每一": 2797, "新闻": 2798, "针": 2799, "美元": 2800, "罚": 2801, "每次": 2802, "纽约": 2803, "汽车": 2804, "司": 2805, "解": 2806, "雇": 2807, "止": 2808, "▁一直": 2809, "舆": 2810, "论": 2811, "决定": 2812, "权": 2813, "自行": 2814, "意义上": 2815, "st": 2816, "ec": 2817, "绿色": 2818, "当地": 2819, "x": 2820, "告诉我们": 2821, "公": 2822, "地球": 2823, "被称为": 2824, "”。": 2825, "usiness": 2826, "ics": 2827, "re": 2828, "▁10": 2829, "▁今天": 2830, "街": 2831, "芝": 2832, "哥": 2833, "▁布": 2834, "兰": 2835, "的工作": 2836, "刑": 2837, "释放": 2838, "人员": 2839, "返": 2840, "免": 2841, "蹈": 2842, "辙": 2843, "若": 2844, "有一": 2845, "税": 2846, "每年": 2847, "就要": 2848, "万美元": 2849, "▁三": 2850, "监狱": 2851, "启": 2852, "早期": 2853, "将来": 2854, "能在": 2855, "省": 2856, "送到": 2857, "佛": 2858, "大学": 2859, "读": 2860, "绰": 2861, "余": 2862, "并没有": 2863, "拘": 2864, "泥": 2865, "限制": 2866, "前的": 2867, "众": 2868, "▁开": 2869, "办": 2870, "庄": 2871, "生意": 2872, "蜂": 2873, "蜜": 2874, "护": 2875, "肤": 2876, "扶": 2877, "植": 2878, "无": 2879, "限": 2880, "潜": 2881, "阶段": 2882, "聘": 2883, "愿": 2884, "照顾": 2885, "蜜蜂": 2886, "收": 2887, "▁加": 2888, "产品": 2889, "推广": 2890, "销售": 2891, "培训": 2892, "结合": 2893, "员工": 2894, "必要": 2895, "的生活": 2896, "技能": 2897, "教": 2898, "情绪": 2899, "▁如何": 2900, "授": 2901, "告诉他们": 2902, "训": 2903, "热情": 2904, "▁经过": 2905, "不到": 2906, "年轻人": 2907, "殖": 2908, "生存": 2909, "成为了": 2910, "作为": 2911, "美好的": 2912, "洛杉矶": 2913, "亟": 2914, "缺": 2915, "雨": 2916, "成了": 2917, "尼亚": 2918, "能源": 2919, "消耗": 2920, "用于": 2921, "▁一旦": 2922, "削": 2923, "岛": 2924, "效应": 2925, "相关的": 2926, "基础": 2927, "树": 2928, "适合": 2929, "自动": 2930, "降": 2931, "▁我们应该": 2932, "凉": 2933, "爽": 2934, "房间": 2935, "那种": 2936, "只要": 2937, "预": 2938, "效果": 2939, "▁就在": 2940, "亿美元": 2941, "铺": 2942, "沥": 2943, "惠": 2944, "案例": 2945, "绿": 2946, "其它": 2947, "千万": 2948, "平方": 2949, "英尺": 2950, "取": 2951, "电力": 2952, "降低": 2953, "成本": 2954, "洁": 2955, "净": 2956, "邦": 2957, "煤": 2958, "炭": 2959, "女儿": 2960, "住在": 2961, "弗": 2962, "吉": 2963, "辉": 2964, "采": 2965, "荣": 2966, "现在的": 2967, "深": 2968, "井": 2969, "相同": 2970, "座": 2971, "够": 2972, "质量": 2973, "弥": 2974, "爆": 2975, "残": 2976, "渣": 2977, "同": 2978, "行的": 2979, "咳": 2980, "嗽": 2981, "停": 2982, "矿": 2983, "症状": 2984, "睁": 2985, "挖": 2986, "岗": 2987, "完整": 2988, "相对": 2989, "相比": 2990, "开发": 2991, "持续": 2992, "究竟": 2993, "哪个": 2994, "算": 2995, "丢": 2996, "专业": 2997, "提高": 2998, "效率": 2999, "▁根据": 3000, "利用": 3001, "资源": 3002, "计算": 3003, "始": 3004, "▁结果": 3005, "乃": 3006, "高的": 3007, "益": 3008, "永": 3009, "让他们": 3010, "不少": 3011, "苦": 3012, "的水": 3013, "变成了": 3014, "▁大多数": 3015, "面临": 3016, "酗": 3017, "暴力": 3018, "少": 3019, "孕": 3020, "糟糕": 3021, "状况": 3022, "志": 3023, "铁": 3024, "得很": 3025, "▁你看": 3026, "尚": 3027, "嘻": 3028, "争": 3029, "T": 3030, "恤": 3031, "衫": 3032, "濒": 3033, "临": 3034, "灭绝": 3035, "佬": 3036, "诊断": 3037, "患": 3038, "肺": 3039, "大脑": 3040, "真是": 3041, "荒": 3042, "唐": 3043, "竭": 3044, "尽": 3045, "防": 3046, "得了": 3047, "河": 3048, "仍": 3049, "仅仅": 3050, "留下": 3051, "宣": 3052, "言": 3053, "详": 3054, "制定": 3055, "施": 3056, "具体": 3057, "姐": 3058, "妹": 3059, "件事情": 3060, "众人": 3061, "鼓掌": 3062, "榜": 3063, "模": 3064, "秀": 3065, "在我的": 3066, "播": 3067, "节目": 3068, "he": 3069, "ed": 3070, "L": 3071, "org": 3072, "需求": 3073, "健康的": 3074, "校": 3075, "满足": 3076, "解决问题": 3077, "这些人": 3078, "油": 3079, "奢": 3080, "侈": 3081, "”,": 3082, "中东": 3083, "伍": 3084, "世": 3085, "贫穷": 3086, "痛": 3087, "200": 3088, "药物": 3089, "增加": 3090, "数字": 3091, "目前": 3092, "上升": 3093, "销": 3094, "▁他们的": 3095, "普遍": 3096, "的孩子": 3097, "▁由于": 3098, "承": 3099, "提到的": 3100, "懂得": 3101, "有效": 3102, "存": 3103, "废": 3104, "思考": 3105, "回收": 3106, "▁许多": 3107, "物品": 3108, "焚": 3109, "掩": 3110, "埋": 3111, "过程": 3112, "一般": 3113, "运作": 3114, "它在": 3115, "▁在这里": 3116, "既": 3117, "交": 3118, "材料": 3119, "商品": 3120, "鼓励": 3121, "朗": 3122, "克斯": 3123, "▁可": 3124, "惜": 3125, "▁更": 3126, "幸": 3127, "机会": 3128, "以后": 3129, "建造": 3130, "苍": 3131, "一个问题": 3132, "美国人": 3133, "交通": 3134, "冷": 3135, "农业": 3136, "土": 3137, "壤": 3138, "人体": 3139, "医疗": 3140, "损失": 3141, "具有": 3142, "重大": 3143, "贡献": 3144, "在这些": 3145, "农": 3146, "准备": 3147, "国": 3148, "牌": 3149, "荔": 3150, "枝": 3151, "现状": 3152, "个体": 3153, "户": 3154, "种植": 3155, "设施": 3156, "消费者": 3157, "逐渐": 3158, "衰": 3159, "落": 3160, "抢": 3161, "村": 3162, "饭": 3163, "碗": 3164, "臂": 3165, "在于": 3166, "基础设施": 3167, "▁我们对": 3168, "幸福": 3169, "负责": 3170, "辍": 3171, "▁能够": 3172, "靠": 3173, "济": 3174, "稳": 3175, "定的": 3176, "主题": 3177, "反": 3178, "映": 3179, "我有": 3180, "也不是": 3181, "全国": 3182, "范围内": 3183, "进去": 3184, "苏": 3185, "石": 3186, "慌": 3187, "措": 3188, "股": 3189, "意识": 3190, "忧": 3191, "壁": 3192, "邻": 3193, "给他们": 3194, "重建": 3195, "御": 3196, "筑": 3197, "财富": 3198, "糟": 3199, "蹋": 3200, "同一": 3201, "▁创造": 3202, "障": 3203, "绝": 3204, "妙的": 3205, "点子": 3206, "迸": 3207, "更多的": 3208, "▁尽管": 3209, "本质": 3210, "别的": 3211, "名为": 3212, "领导": 3213, "作者": 3214, "约翰": 3215, "恩": 3216, "J": 3217, "oh": 3218, ")。": 3219, "在一个": 3220, "的世界": 3221, "了这": 3222, "了我的": 3223, "理论": 3224, "▁因为我": 3225, "解释": 3226, "道理": 3227, "▁他在": 3228, "色": 3229, "种族": 3230, "时期": 3231, "逃": 3232, "给我": 3233, "兄弟": 3234, "建立": 3235, "所有人": 3236, "有些": 3237, "坏": 3238, "毛": 3239, "迷": 3240, "赌": 3241, "意味着": 3242, "薪": 3243, "的那": 3244, "▁有时候": 3245, "我会": 3246, "暑": 3247, "给他": 3248, "▁就会": 3249, "赢": 3250, "了一些": 3251, "欢迎": 3252, "▁那时": 3253, "万": 3254, "房子": 3255, "房": 3256, "意见": 3257, "我对": 3258, "负": 3259, "我已经": 3260, "长的": 3261, "过程中": 3262, "往往": 3263, "给予": 3264, "可能是": 3265, "厢": 3266, "情": 3267, "推动": 3268, "的发展": 3269, "值": 3270, "一年": 3271, "▁我不": 3272, "支持": 3273, "动机": 3274, "裹": 3275, "过去的": 3276, "年里": 3277, "果": 3278, "牢": 3279, "胖": 3280, "糖": 3281, "均": 3282, "▁比如": 3283, "人口": 3284, "婴儿": 3285, "有所": 3286, "下降": 3287, "▁我现在": 3288, "两年": 3289, "宜": 3290, "碰": 3291, "做得": 3292, "火": 3293, "赞": 3294, "邀": 3295, "▁又": 3296, "获得": 3297, "阿": 3298, "是个": 3299, "依靠": 3300, "收入": 3301, "了我": 3302, "坦": 3303, "完成了": 3304, "重点": 3305, "提到": 3306, "▁后来": 3307, "把我": 3308, "牵": 3309, "揽": 3310, "刺激": 3311, "愉": 3312, "快": 3313, "证": 3314, "多么": 3315, "实践": 3316, "进一步": 3317, "慧": 3318, "▁向": 3319, "型的": 3320, "愿意": 3321, "伙伴": 3322, "气候变化": 3323, "要求": 3324, "齐": 3325, "拥": 3326, "抱": 3327, "修复": 3328, "自我": 3329, "▁不要": 3330, "浪费": 3331, "▁非常感谢": 3332, "ich": 3333, "as": 3334, "ne": 3335, "one": 3336, "ap": 3337, "per": 3338, "ild": 3339, "古": 3340, "帝": 3341, "一台": 3342, "笔记本": 3343, "进展": 3344, "G": 3345, "会议": 3346, "概": 3347, "争论": 3348, "申": 3349, "的项目": 3350, "▁L": 3351, "高中": 3352, "坚": 3353, "一名": 3354, "雕": 3355, "殷": 3356, "得到的": 3357, "告诉": 3358, "黎": 3359, "聪明": 3360, "▁\"": 3361, "SA": 3362, "数学": 3363, "绩": 3364, "。\"": 3365, "▁那是": 3366, "激情": 3367, ",“": 3368, "如果你": 3369, ",”": 3370, "是我": 3371, "接受": 3372, "兼": 3373, "具": 3374, "把这个": 3375, "我说": 3376, "喜欢": 3377, "灰": 3378, "色的": 3379, "装": 3380, "我也": 3381, "纹": 3382, "家伙": 3383, "去了": 3384, "很快": 3385, "认识到": 3386, "计算机": 3387, "才是": 3388, "从事": 3389, "让我": 3390, "填": 3391, "测试": 3392, "衡量": 3393, "尤其": 3394, "媒体": 3395, "充分": 3396, "的所有": 3397, "我是": 3398, "汲": 3399, "是怎么": 3400, "▁然后我": 3401, "势": 3402, "我们可以": 3403, "儿童": 3404, "的力量": 3405, "的机会": 3406, "还会": 3407, "告": 3408, "庭": 3409, "▁这是在": 3410, "的情况下": 3411, "拍摄": 3412, "你会": 3413, "上面": 3414, "做的是": 3415, "软件": 3416, "恒": 3417, "按照": 3418, "循环": 3419, "很重要": 3420, "这是一个": 3421, "折": 3422, "溯": 3423, "派": 3424, "发展中国家": 3425, "▁这是一种": 3426, "学到": 3427, "如同": 3428, "问我": 3429, "▁我对": 3430, "你是": 3431, "哪": 3432, "帮": 3433, "对吧": 3434, "25": 3435, "的照片": 3436, "他在": 3437, "70": 3438, "程序": 3439, "是最": 3440, "非常重要": 3441, "某种程度上": 3442, "失去了": 3443, "编": 3444, "程": 3445, "不够": 3446, "这个项目": 3447, "应用": 3448, "启动": 3449, "▁—": 3450, "将会": 3451, "2000": 3452, "儿子": 3453, "▁你们": 3454, "柬": 3455, "埔": 3456, "寨": 3457, "刚刚": 3458, "和其他": 3459, "同一个": 3460, "000": 3461, "供": 3462, "组织": 3463, "利的": 3464, "值得": 3465, "▁第一": 3466, "清晰": 3467, "▁我可以": 3468, "首": 3469, "脑": 3470, "对我来说": 3471, "存在的": 3472, "毫无": 3473, "疑问": 3474, "是不是": 3475, "第二个": 3476, "观": 3477, "世界上最": 3478, "棒": 3479, "▁比如说": 3480, "搜索": 3481, "络": 3482, "法律": 3483, "部门": 3484, "免费": 3485, "信仰": 3486, "担": 3487, "不起": 3488, "席": 3489, "零": 3490, "联合国": 3491, "盈": 3492, "机器": 3493, "遇到": 3494, "角度": 3495, "笑": 3496, "回顾": 3497, "途": 3498, "▁那个": 3499, "黄": 3500, "曲": 3501, "柄": 3502, "下了": 3503, "深刻": 3504, "印象": 3505, "不一样": 3506, "寻常": 3507, "句": 3508, "真的很": 3509, "傻": 3510, "搞": 3511, "掉": 3512, "适": 3513, "器": 3514, "把他们": 3515, "更好": 3516, "告诉你": 3517, "四个": 3518, "哇": 3519, "你所": 3520, "而且": 3521, "耗": 3522, "采用": 3523, "瓦": 3524, "你自己": 3525, "产生的": 3526, "很棒": 3527, "因为我": 3528, "毕业": 3529, "蠢": 3530, "▁所以我": 3531, "本身": 3532, "那是": 3533, "便宜": 3534, "英语": 3535, "\"": 3536, "这个词": 3537, "贬": 3538, "另外": 3539, "输入": 3540, "iP": 3541, "od": 3542, "酷": 3543, "完": 3544, "笔记": 3545, "▁这些是": 3546, "策略": 3547, "▁好的": 3548, "演示": 3549, "设备": 3550, "▁多": 3551, "偏": 3552, "互联": 3553, "而已": 3554, "卫星": 3555, "装置": 3556, "背后": 3557, "对方": 3558, "沙漠": 3559, "公里": 3560, "丛": 3561, "500": 3562, "英里": 3563, "旁边": 3564, "钉": 3565, "没法": 3566, "我们必须": 3567, "18": 3568, "键": 3569, "为止": 3570, "丁": 3571, "怀疑": 3572, "各位": 3573, "没有人": 3574, "怕": 3575, "除": 3576, "你就": 3577, "埃": 3578, "俄": 3579, "比亚": 3580, "标准": 3581, "很大的": 3582, "说的是": 3583, "投": 3584, "▁我们从": 3585, "看来": 3586, "我们将": 3587, "放到": 3588, "裕": 3589, "▁每一个": 3590, "百万": 3591, "购": 3592, "执": 3593, "正确的": 3594, "出去": 3595, "元": 3596, "相关": 3597, "一段": 3598, "30": 3599, "嫉": 3600, "妒": 3601, "帐": 3602, "篷": 3603, "很有趣": 3604, "骆": 3605, "驼": 3606, "简直": 3607, "摄": 3608, "氏": 3609, "45": 3610, "段": 3611, "有趣的": 3612, "是因为": 3613, "▁我们所": 3614, "召": 3615, "▁然后我们": 3616, "乌": 3617, "圭": 3618, "上帝": 3619, "佑": 3620, "富有": 3621, "总统": 3622, "猜": 3623, "发生了什么": 3624, "标": 3625, "▁没有": 3626, "香": 3627, "颜": 3628, "▁当他们": 3629, "备": 3630, "砰": 3631, "订": 3632, "24": 3633, "秘": 3634, "诺": 3635, "卢": 3636, "旺": 3637, "所有这些": 3638, "九": 3639, "接近": 3640, "这项": 3641, "号": 3642, "▁因为它": 3643, "兴趣": 3644, "振": 3645, "奋": 3646, "好吧": 3647, "在座": 3648, "每个人": 3649, "300": 3650, "伟大": 3651, "列": 3652, "每个人都": 3653, "价格": 3654, "▁两": 3655, "年后": 3656, "以下": 3657, "添": 3658, "而是": 3659, "各种各样的": 3660, "▁就像": 3661, "不要": 3662, "墨西哥": 3663, "慢": 3664, "目": 3665, "全世界": 3666, "▁但在": 3667, "世界的": 3668, "占": 3669, "据": 3670, "烦": 3671, "回来": 3672, "ta": 3673, "ard": 3674, "ment": 3675, "・": 3676, "狭": 3677, "寓": 3678, "套": 3679, "塑料": 3680, "瓶": 3681, "调整": 3682, "佳": 3683, "摊": 3684, "Y": 3685, "成果": 3686, "▁c": 3687, "ation": 3688, "oo": 3689, "▁我和": 3690, "感觉": 3691, "几乎": 3692, "依赖": 3693, "他人": 3694, "吓": 3695, "是一种": 3696, "▁我从": 3697, "坡": 3698, "文章": 3699, "消费": 3700, "小小的": 3701, "放大": 3702, "的空间": 3703, "茬": 3704, "接着": 3705, "专家": 3706, "未来的": 3707, "解决方案": 3708, "把这些": 3709, "我们所": 3710, "刚": 3711, "缘": 3712, "故": 3713, "宇": 3714, "航": 3715, "太空": 3716, "培": 3717, "液": 3718, "系": 3719, "蔬": 3720, "菜": 3721, "我能": 3722, "窗": 3723, "农场": 3724, "平台": 3725, "泵": 3726, "滴": 3727, "黏": 3728, "颗": 3729, "粒": 3730, "不需要": 3731, "令": 3732, "微": 3733, "气候": 3734, "粮": 3735, "栽": 3736, "想法": 3737, "专利": 3738, "下一个": 3739, "孟": 3740, "知识": 3741, "▁反": 3742, "碍": 3743, "▁于是我": 3744, "做一个": 3745, "还可以": 3746, "一份": 3747, "沙": 3748, "蕃": 3749, "茄": 3750, "瓜": 3751, "漏": 3752, "噪": 3753, "玛": 3754, "政": 3755, "皇": 3756, "肯定": 3757, "狂": 3758, "原理": 3759, "的一切": 3760, "弊": 3761, "研": 3762, "&": 3763, "▁而我们": 3764, "逊": 3765, "建议": 3766, "终于": 3767, "▁我们把": 3768, "碳": 3769, "一半": 3770, "度的": 3771, "条件": 3772, "个月": 3773, "莓": 3774, "ED": 3775, "急": 3776, "速": 3777, "互": 3778, "特定": 3779, "我和": 3780, "核心": 3781, "致力于": 3782, "任何人": 3783, "系统的": 3784, "维持": 3785, "▁如今": 3786, "产生了": 3787, "来源": 3788, "是对": 3789, "▁她说": 3790, "主义者": 3791, "略": 3792, "我们不": 3793, "涉及": 3794, "太阳能": 3795, "联合": 3796, "拓": 3797, "ks": 3798, "ob": 3799, "▁在这个": 3800, "的演讲": 3801, "机器人": 3802, "玩具": 3803, "...": 3804, "ll": 3805, "ence": 3806, "层面": 3807, "▁当我": 3808, "▁假": 3809, "大多数人": 3810, "恐怖": 3811, "不在": 3812, "▁他们会": 3813, "到处": 3814, "我觉得": 3815, "还要": 3816, "大多数": 3817, "视频": 3818, "一个小": 3819, "嵌": 3820, "就可以": 3821, "▁我们现在": 3822, "头脑": 3823, "暴": 3824, "右边": 3825, "娃": 3826, "水平": 3827, "互动": 3828, "包": 3829, "巡": 3830, "货": 3831, "N": 3832, "锄": 3833, "H": 3834, "左": 3835, "son": 3836, "英国": 3837, "贵": 3838, "K": 3839, "右": 3840, "▁让我": 3841, "里斯": 3842, "绕": 3843, "似": 3844, "前进": 3845, "脚": 3846, "▁哦": 3847, "饼": 3848, "▁看": 3849, "岁": 3850, "疼": 3851, "在这儿": 3852, "▁我不知道": 3853, "硬": 3854, "币": 3855, "来看看": 3856, "后面": 3857, "更好的": 3858, "扫": 3859, "智能": 3860, "来讲": 3861, "一切": 3862, "机械": 3863, "侦": 3864, "察": 3865, "军队": 3866, "穴": 3867, "类的": 3868, "固": 3869, "击": 3870, "翻": 3871, "范围": 3872, "楼": 3873, "士兵": 3874, "将要": 3875, "拦": 3876, "截": 3877, "突破": 3878, "傍": 3879, "贸": 3880, "墟": 3881, "那儿": 3882, "寻找": 3883, "记者": 3884, "帮助我们": 3885, "斗": 3886, "伯特": 3887, "森": 3888, "•": 3889, "探索": 3890, "迄": 3891, "摔": 3892, "阿富汗": 3893, "变": 3894, "▁我们将": 3895, "我们能够": 3896, "石油": 3897, "劣": 3898, "00": 3899, "注意": 3900, "僵": 3901, "想的": 3902, "安德": 3903, "比较": 3904, "询": 3905, "神": 3906, "这段": 3907, "眼睛": 3908, "盯": 3909, "检查": 3910, "我将": 3911, "表现": 3912, "是的": 3913, "补": 3914, "缓": 3915, "▁好": 3916, "内心": 3917, "理念": 3918, "焦": 3919, "▁因为他": 3920, "辨": 3921, "识别": 3922, "饱": 3923, "也能": 3924, "找出": 3925, "找": 3926, "会发生": 3927, "边的": 3928, "记忆": 3929, "电影": 3930, "蓝色": 3931, "眨": 3932, "曲线": 3933, "陡": 3934, "感觉到": 3935, "去看": 3936, "覆盖": 3937, "相机": 3938, "球": 3939, "估计": 3940, "什么时候": 3941, "野": 3942, "辛": 3943, "▁K": 3944, "表达": 3945, "听到": 3946, "声音": 3947, "韵": 3948, "ris": 3949, "分析": 3950, "说话": 3951, "稚": 3952, "奖励": 3953, "乖": 3954, "情形": 3955, "嘿": 3956, "噢": 3957, "件事": 3958, "轮": 3959, "谈话": 3960, "我们就": 3961, "耸": 3962, "眉": 3963, "因素": 3964, "▁只是": 3965, "发出": 3966, "ie": 3967, "他说": 3968, "暗": 3969, "▁R": 3970, "还在": 3971, "蓝": 3972, "进行了": 3973, "▁我们会": 3974, "权利": 3975, "▁第一个": 3976, "坞": 3977, "尊重": 3978, "得不": 3979, "我们是": 3980, "毕": 3981, "生物学": 3982, "荷": 3983, "连接": 3984, "着的": 3985, "不得不": 3986, "特殊": 3987, "▁至少": 3988, "技术的": 3989, "攻": 3990, "获": 3991, "失败": 3992, "太阳": 3993, "宇宙": 3994, "的想法": 3995, "达尔文": 3996, "摒": 3997, "弃": 3998, "地球上": 3999, "基因": 4000, "▁可能": 4001, "不喜欢": 4002, "了解到": 4003, "感情": 4004, "创造了": 4005, "家里": 4006, "景": 4007, "波": 4008, "超级": 4009, "蛋": 4010, "的方向": 4011, "结论": 4012, "旅程": 4013, "avid": 4014, "at": 4015, "we": 4016, "li": 4017, "美国的": 4018, "政治": 4019, "崖": 4020, "党": 4021, "预算": 4022, "亚": 4023, "戴": 4024, "pol": 4025, "tics": 4026, "13": 4027, "螃": 4028, "蟹": 4029, "裂": 4030, "判": 4031, "诞": 4032, "收到": 4033, "轨": 4034, "时刻": 4035, "崩溃": 4036, "边缘": 4037, "历": 4038, "汉": 4039, "斐": 4040, "地位": 4041, "撑": 4042, "央": 4043, "信任": 4044, "赶": 4045, "王": 4046, "购买": 4047, "您": 4048, "简": 4049, "习": 4050, "▁关于": 4051, "记": 4052, "反对": 4053, "缩": 4054, "凸": 4055, "咎": 4056, "避免": 4057, "武": 4058, "断": 4059, "债": 4060, "百分": 4061, "浅": 4062, "虚": 4063, "▁也就是": 4064, "采取": 4065, "希": 4066, "腊": 4067, "▁此": 4068, "策": 4069, "券": 4070, "▁除": 4071, "率": 4072, "暂": 4073, "计": 4074, "鸿": 4075, "沟": 4076, "距": 4077, "总结": 4078, "会说": 4079, "歧": 4080, "愤": 4081, "俗": 4082, "幕": 4083, "强大的": 4084, "两种": 4085, "哲": 4086, "▁我喜欢": 4087, "德国": 4088, "磨": 4089, "攫": 4090, "亡": 4091, "观点": 4092, "欺": 4093, "骗": 4094, "伤害": 4095, "警察": 4096, "非常有": 4097, "运行": 4098, "人和": 4099, "经济学家": 4100, "累": 4101, "公平": 4102, "注": 4103, "沮": 4104, "丧": 4105, "我知道": 4106, "兴奋": 4107, "震": 4108, "撼": 4109, "▁作为一个": 4110, "整体": 4111, "面对": 4112, "中间": 4113, "▁我知道": 4114, "症": 4115, "5%": 4116, "险": 4117, "自由": 4118, "糕": 4119, "▁他是": 4120, "穷": 4121, "这么多": 4122, "一致": 4123, "稳定": 4124, "容易": 4125, "谣": 4126, "夸": 4127, "年龄": 4128, "还没": 4129, "出生": 4130, "减少": 4131, "通常": 4132, "保健": 4133, "保留": 4134, "说到": 4135, "趋": 4136, "钻": 4137, "也会": 4138, "倾向": 4139, "独立": 4140, "属于": 4141, "阵": 4142, "介": 4143, "叠": 4144, "枪": 4145, "堕": 4146, "这类": 4147, "▁这意味着": 4148, "斯坦": 4149, "淡": 4150, "如今": 4151, "衔": 4152, "博士": 4153, "岁的": 4154, "充满了": 4155, "▁过去": 4156, "谦": 4157, "向你们": 4158, "结果": 4159, "秘密": 4160, "年了": 4161, "调查": 4162, "态度": 4163, "选举": 4164, "悠": 4165, "尊": 4166, "终": 4167, "不可能": 4168, "发挥": 4169, "纠": 4170, "。“": 4171, "非常非常": 4172, "妥": 4173, "▁尤其是": 4174, "糊": 4175, "舍": 4176, "撕": 4177, "熟悉": 4178, "回答": 4179, "型": 4180, "博客": 4181, "软": 4182, "露": 4183, "脸": 4184, "视角": 4185, "提醒": 4186, "▁我们知道": 4187, "体验": 4188, "嚣": 4189, "▁我们有": 4190, "储": 4191, "摧": 4192, "毁": 4193, "宝": 4194, "▁只要": 4195, "应该是": 4196, "萧": 4197, "国际": 4198, "▁上": 4199, "处在": 4200, "▁世界": 4201, "快的": 4202, "痛苦": 4203, "培养": 4204, "宗教": 4205, "战争": 4206, "现实": 4207, "。(": 4208, "ri": 4209, "our": 4210, "美丽": 4211, "设计师": 4212, "理查": 4213, "事物": 4214, "iness": 4215, "感受": 4216, "来到": 4217, "坊": 4218, "拆": 4219, "血": 4220, "脉": 4221, "肌肉": 4222, "▁我能": 4223, "真实的": 4224, "▁我开始": 4225, "道路": 4226, "发现了": 4227, "响": 4228, "灭": 4229, "我还": 4230, "挺": 4231, "大脑的": 4232, "▁接": 4233, "14": 4234, "啦": 4235, "科学家": 4236, "射": 4237, "另": 4238, "悦": 4239, "首先": 4240, "到达": 4241, "有多": 4242, "程度上": 4243, "▁我发现": 4244, "▁如果我": 4245, "坑": 4246, "仿": 4247, "渗": 4248, "透": 4249, "纯": 4250, "饮": 4251, "变的": 4252, "先生": 4253, "看上去": 4254, "感兴趣": 4255, "女士": 4256, "好了": 4257, "女孩": 4258, "脊": 4259, "椎": 4260, "辞": 4261, "哭": 4262, "泣": 4263, "是这样": 4264, "嘴": 4265, "唇": 4266, "混合": 4267, "ign": 4268, "引起": 4269, "强烈": 4270, "不仅": 4271, "▁也是": 4272, "矛盾": 4273, "悚": 4274, "触": 4275, "超越": 4276, "颖": 4277, "设计的": 4278, "正如": 4279, "疑": 4280, "在的": 4281, "给你们看": 4282, "趣": 4283, "对称": 4284, "丑": 4285, "都很": 4286, "探": 4287, "▁我把": 4288, "图片": 4289, "像这样": 4290, "信号": 4291, "除了": 4292, "▁阿": 4293, "娜": 4294, "∙": 4295, "宁": 4296, "▁对我来说": 4297, "影": 4298, "层次": 4299, "细节": 4300, "至于": 4301, "驾驶": 4302, "使用的": 4303, "踏": 4304, "敞": 4305, "引擎": 4306, "▁我就": 4307, "钛": 4308, "漆": 4309, "▁因为这": 4310, "螺": 4311, "丝": 4312, "高速": 4313, "比赛": 4314, "缝": 4315, "弯": 4316, "蔽": 4317, "忠": 4318, "诚": 4319, "见到": 4320, "▁T": 4321, "工程师": 4322, "雕塑": 4323, "供应": 4324, "毫": 4325, "▁没": 4326, "逝": 4327, "谐": 4328, "的作品": 4329, "精确": 4330, "鹅": 4331, "欣": 4332, "赏": 4333, "芭": 4334, "蕾": 4335, "雅": 4336, "姿": 4337, "想像": 4338, "真实": 4339, "秒": 4340, "不太": 4341, "了吗": 4342, "瞬间": 4343, "错": 4344, "败": 4345, "▁但是我": 4346, "抓住": 4347, "衣服": 4348, "sh": 4349, "▁做": 4350, "别人的": 4351, "综": 4352, "形态": 4353, "是你": 4354, "形成": 4355, "ah": 4356, "tal": 4357, "着手": 4358, "图书馆": 4359, "类似的": 4360, "ory": 4361, "mus": 4362, "ic": 4363, "图书": 4364, "碑": 4365, "即将": 4366, "阅读": 4367, "运用": 4368, "埃及": 4369, "勤": 4370, "勉": 4371, "梦想": 4372, "▁另一个": 4373, "探讨": 4374, "一定": 4375, "▁是的": 4376, "呈现": 4377, "是可以": 4378, "影像": 4379, "媒": 4380, "归": 4381, "档": 4382, "网上": 4383, "阅": 4384, "库": 4385, "兆": 4386, "大小": 4387, "花费": 4388, "只需要": 4389, "的内容": 4390, "者们": 4391, "任": 4392, "搜": 4393, "资料": 4394, "内容": 4395, "之所以": 4396, "▁之后": 4397, "打印": 4398, "辆": 4399, "),": 4400, "粘": 4401, "创意": 4402, "ric": 4403, "剔": 4404, "印度": 4405, "妻": 4406, "飞": 4407, "搭": 4408, "链接": 4409, "憾": 4410, "中国": 4411, "会儿": 4412, "阐": 4413, "戈": 4414, "称作": 4415, "钮": 4416, "是我的": 4417, "轰": 4418, "扫描": 4419, "舒": 4420, "▁于是": 4421, "▁印度": 4422, "▁中国": 4423, "考": 4424, "印": 4425, "符": 4426, "火星": 4427, "完成的": 4428, "数量": 4429, "码": 4430, "博物馆": 4431, "仰": 4432, "穿过": 4433, "就是这样": 4434, "禅": 4435, "喜欢的": 4436, "平均": 4437, "册": 4438, "多了": 4439, "组成": 4440, "刷": 4441, "版": 4442, "平": 4443, "无论": 4444, "兹": 4445, "当中": 4446, "后来": 4447, "栏": 4448, "是关于": 4449, "有效的": 4450, "客户": 4451, "频": 4452, "文件": 4453, "唱": 4454, "碟": 4455, "▁我们发现": 4456, "棘": 4457, "诉": 4458, "讼": 4459, "传统的": 4460, "▁你会": 4461, "影片": 4462, "因此": 4463, "提供了": 4464, "滚": 4465, "你不": 4466, "现场": 4467, "开始的": 4468, "收集": 4469, "上万": 4470, "部电影": 4471, "纪录": 4472, "辑": 4473, "筛": 4474, "播放": 4475, "级的": 4476, "=": 4477, "世界各": 4478, "不停": 4479, "事件": 4480, "跳": 4481, "从中": 4482, "匪": 4483, "约": 4484, "拷": 4485, "了不起": 4486, "版本": 4487, "烧": 4488, "相同的": 4489, "洪": 4490, "押": 4491, "锁": 4492, "全部": 4493, "圣经": 4494, "▁人类": 4495, "说过": 4496, "表面": 4497, "望远镜": 4498, "探测": 4499, "觅": 4500, "监": 4501, "的地": 4502, "域": 4503, "ex": 4504, "iv": 4505, "极端": 4506, "物理": 4507, "一项": 4508, "冒险": 4509, "位置": 4510, "▁开始": 4511, "爱因斯坦": 4512, "之内": 4513, "浸": 4514, "畏": 4515, "凭": 4516, "萦": 4517, "朝": 4518, "旅": 4519, "究": 4520, "研究的": 4521, "智": 4522, "利亚": 4523, "卑": 4524, "洲": 4525, "勇": 4526, "状": 4527, "宇宙的": 4528, "谓": 4529, "正常": 4530, "▁天": 4531, "物理学家": 4532, "三十": 4533, "能量": 4534, "剩": 4535, "甚": 4536, "谜": 4537, "▁在那里": 4538, "无线": 4539, "足够": 4540, "测": 4541, "检测": 4542, "的声音": 4543, "蜡": 4544, "烛": 4545, "可以看到": 4546, "尺": 4547, "粒子": 4548, "熟": 4549, "痕": 4550, "吨": 4551, "十亿": 4552, "湖": 4553, "寒": 4554, "冰": 4555, "斑": 4556, "▁是因为": 4557, "夏": 4558, "潜水": 4559, "艇": 4560, "辅": 4561, "▁所以他们": 4562, "厚": 4563, "回去": 4564, "涛": 4565, "汹": 4566, "裸": 4567, "年的时间": 4568, "棚": 4569, "镜": 4570, "玻璃": 4571, "陶": 4572, "▁拥有": 4573, "淀": 4574, "图像": 4575, "纬": 4576, "燥": 4577, "好处": 4578, "云": 4579, "晴": 4580, "地球的": 4581, "境": 4582, "▁世界上": 4583, "展开": 4584, "飞行": 4585, "大气": 4586, "17": 4587, "默": 4588, "乘": 4589, "字母": 4590, "告诉大家": 4591, "屋": 4592, "ver": 4593, "实在": 4594, "冻": 4595, "届": 4596, "看了": 4597, "发射": 4598, "▁所有的": 4599, "川": 4600, "伞": 4601, "氢": 4602, "个小时": 4603, "躺": 4604, "织": 4605, "远的": 4606, "起了": 4607, "带到": 4608, "薄": 4609, "▁是在": 4610, "穿着": 4611, "鞋": 4612, "侧": 4613, "爆炸": 4614, "▁他们都": 4615, "斤": 4616, "寺": 4617, "庙": 4618, "永远": 4619, "av": 4620, "虫": 4621, "流感": 4622, "....": 4623, "蘑": 4624, "菇": 4625, "陷": 4626, "想知道": 4627, "呃": 4628, "喔": 4629, "▁我们是": 4630, "▁我要": 4631, ",000": 4632, "卸": 4633, "魔": 4634, "腐": 4635, "横": 4636, "桤": 4637, "桦": 4638, "杉": 4639, "雪": 4640, "教堂": 4641, "古老": 4642, "森林": 4643, "地说": 4644, "呆": 4645, "滞": 4646, "刺": 4647, "的关系": 4648, "发表": 4649, "鞭": 4650, "滋": 4651, "烂": 4652, "盛": 4653, "孢": 4654, "序": 4655, "芽": 4656, "伸": 4657, "ke": 4658, "▁我有": 4659, "孔": 4660, "膜": 4661, "二氧化碳": 4662, "氧气": 4663, "胃": 4664, "的概念": 4665, "绵": 4666, "抵": 4667, "蚀": 4668, "多样性": 4669, "90": 4670, "提出": 4671, "叉": 4672, "途径": 4673, "发明了": 4674, "符合": 4675, "串": 4676, "酶": 4677, "岩": 4678, "钙": 4679, "崩": 4680, "ran": 4681, "阿拉伯": 4682, "▁4": 4683, "属": 4684, "▁放": 4685, "▁去年": 4686, "行星": 4687, "碎": 4688, "辐": 4689, "存在于": 4690, "冈": 4691, "面积": 4692, "亩": 4693, "为何": 4694, "柏": 4695, "拯": 4696, "柴": 4697, "绒": 4698, "氧化": 4699, "▁所": 4700, "都被": 4701, "挪": 4702, "死了": 4703, "磅": 4704, "牡": 4705, "蛎": 4706, "颜色": 4707, "一生": 4708, "谛": 4709, "悟": 4710, "昆虫": 4711, "卵": 4712, "鸟": 4713, "来了": 4714, "带来了": 4715, "芳": 4716, "堤": 4717, "锋": 4718, "粗": 4719, "吹": 4720, "肠": 4721, "杆": 4722, "县": 4723, "拟": 4724, "罕": 4725, "基因组": 4726, "递": 4727, "煮": 4728, "谢": 4729, "株": 4730, "疹": 4731, "▁E": 4732, "指数": 4733, "稿": 4734, "谷歌": 4735, "羊": 4736, "肚": 4737, "访": 4738, "唑": 4739, "苷": 4740, "▁其": 4741, "蚁": 4742, "停止": 4743, "饵": 4744, "吞": 4745, "噬": 4746, "蚂蚁": 4747, "也没有": 4748, "屑": 4749, "死亡": 4750, "冒": 4751, "▁随": 4752, "瞧": 4753, "厄": 4754, "贝尔": 4755, "涵": 4756, "会被": 4757, "▁然后你": 4758, "虚拟": 4759, "排放": 4760, "豆": 4761, "葱": 4762, "籽": 4763, "丰": 4764, "加上": 4765, "重要的是": 4766, "纤维": 4767, "我们如何": 4768, "乙": 4769, "醇": 4770, "愚": 4771, "昧": 4772, "燃料": 4773, "su": 4774, "茜": 4775, "昂": 4776, "最好": 4777, "▁想象": 4778, "高尔夫": 4779, "凡": 4780, "逢": 4781, "慕": 4782, "珍": 4783, "贵的": 4784, "馈": 4785, "认知": 4786, "敌": 4787, "拜": 4788, "▁什么": 4789, "享": 4790, "肴": 4791, "赋予": 4792, "快乐": 4793, "在哪里": 4794, "上有": 4795, "苹果": 4796, "稀": 4797, "瘤": 4798, "血管": 4799, "痊": 4800, "愈": 4801, "的人生": 4802, "都可以": 4803, "ven": 4804, "tech": 4805, "▁ch": 4806, "sp": 4807, "披": 4808, "麦": 4809, "挤": 4810, "奶": 4811, "饲": 4812, "酪": 4813, "?“": 4814, "圆": 4815, "钢": 4816, "珊瑚": 4817, "礁": 4818, "沼": 4819, "元素": 4820, "医生": 4821, "致命": 4822, "呛": 4823, "▁但是在": 4824, "▁或是": 4825, "存活": 4826, "赖": 4827, "晶": 4828, "美丽的": 4829, "抽": 4830, "甸": 4831, "走进": 4832, "薯": 4833, "橙": 4834, "奇怪": 4835, "我自己": 4836, "观的": 4837, "疯": 4838, "灌": 4839, "溉": 4840, "预防": 4841, "气体": 4842, "原子": 4843, "躲": 4844, "猫": 4845, "窒": 4846, "喘": 4847, "血液": 4848, "▁--": 4849, "▁我是说": 4850, "氧": 4851, "扇": 4852, "!”": 4853, "把这": 4854, "偿": 4855, "混": 4856, "尽管": 4857, "严重": 4858, "喷": 4859, "掖": 4860, "我不知道": 4861, "对我": 4862, "穆": 4863, "▁现在我": 4864, "豪": 4865, "▁我们要": 4866, "的结果": 4867, "是怎样": 4868, "稼": 4869, "动物的": 4870, "叶": 4871, "牛": 4872, "虾": 4873, "祸": 4874, "的角度": 4875, "灾": 4876, "池": 4877, "塘": 4878, "泄": 4879, "形象": 4880, "所做的": 4881, "转化": 4882, "是这样的": 4883, "耙": 4884, "桑": 4885, "葺": 4886, "琐": 4887, "喉": 4888, "鹰": 4889, "岸": 4890, "瑜": 4891, "珈": 4892, "恐龙": 4893, "tu": 4894, "heal": 4895, "堪": 4896, "忽": 4897, "患者": 4898, "摈": 4899, "外科": 4900, "我来说": 4901, "刀": 4902, "手术": 4903, "医学": 4904, "罪": 4905, "魁": 4906, "麻烦": 4907, "刘": 4908, "疗": 4909, "暖": 4910, "▁或许": 4911, "弄": 4912, "不多": 4913, "炎": 4914, "犬": 4915, "正确": 4916, "突": 4917, "手臂": 4918, "糙": 4919, "瘫": 4920, "痪": 4921, "汞": 4922, "砷": 4923, "医": 4924, "栖": 4925, "己": 4926, "擅": 4927, "胆": 4928, "杂": 4929, "寿": 4930, "大众": 4931, "晓": 4932, "▁也就是说": 4933, "▁基本上": 4934, "典": 4935, "专": 4936, "便是": 4937, "针对": 4938, "敢": 4939, "佣": 4940, "仔": 4941, "冠": 4942, "哮": 4943, "病人": 4944, "忽略": 4945, "征": 4946, "髋": 4947, "恢复": 4948, "移植": 4949, "亦": 4950, "▁通常": 4951, "哪些": 4952, "唯一的": 4953, "▁不同": 4954, "痴": 4955, "捷": 4956, "刹": 4957, "▁你需要": 4958, "技巧": 4959, "▁你必须": 4960, "同事": 4961, "华": 4962, "锡": 4963, "报道": 4964, "刊": 4965, "没人": 4966, "颇": 4967, "▁却": 4968, "飞机": 4969, "恼": 4970, "产业": 4971, "窍": 4972, "这些问题": 4973, "包含": 4974, "乏": 4975, "有意思": 4976, "娩": 4977, "使我们": 4978, "这儿": 4979, "上千": 4980, "牧": 4981, "驻": 4982, "章": 4983, "似乎": 4984, "误": 4985, "的生物": 4986, "ts": 4987, "16": 4988, "稍微": 4989, "可是": 4990, "螨": 4991, "峡": 4992, "▁或者说": 4993, "杏": 4994, "墓": 4995, "泛": 4996, "滥": 4997, "悔": 4998, "毋": 4999, "庸": 5000, "彻": 5001, "▁我们认为": 5002, "巢": 5003, "思议": 5004, "怎么办": 5005, "澳": 5006, "夷": 5007, "惨": 5008, "各种各": 5009, "怪": 5010, "猪": 5011, "倌": 5012, "檐": 5013, "谈谈": 5014, "顽": 5015, "我很": 5016, "理由": 5017, "粪": 5018, "纱": 5019, "人物": 5020, "敲": 5021, "筏": 5022, "鲜": 5023, "垮": 5024, "徙": 5025, "搬": 5026, "夕": 5027, "这条": 5028, "康": 5029, "咖啡": 5030, "怨": 5031, "侍": 5032, "甜": 5033, "粉": 5034, "昨天": 5035, "格兰": 5036, "酱": 5037, "—": 5038, "饿": 5039, "谱": 5040, "棵": 5041, "熊": 5042, "汗": 5043, "蝇": 5044, "谋": 5045, "兔": 5046, "红色": 5047, "浏": 5048, "览": 5049, "缺乏": 5050, "蝙": 5051, "蝠": 5052, "庆": 5053, "速度": 5054, "鼻": 5055, "的人口": 5056, "坪": 5057, "在一": 5058, "象征": 5059, "中有": 5060, "剪": 5061, "宫": 5062, "▁我说": 5063, "刚才": 5064, "葡萄": 5065, "谊": 5066, "涸": 5067, "盆": 5068, "一片": 5069, "窝": 5070, "–": 5071, "非常的": 5072, "有一天": 5073, "特的": 5074, "获取": 5075, "曼": 5076, "为此": 5077, "证据": 5078, "起源": 5079, "烟": 5080, "囱": 5081, "盏": 5082, "钥": 5083, "匙": 5084, "淹": 5085, "挽": 5086, "牲": 5087, "畜": 5088, "慰": 5089, "滕": 5090, "谈到": 5091, "错误的": 5092, "侏": 5093, "儒": 5094, "很久": 5095, "的观点": 5096, "魂": 5097, "西方": 5098, "文明": 5099, "蜗": 5100, "弟": 5101, "凿": 5102, "拒绝": 5103, "宛": 5104, "翩": 5105, "玩耍": 5106, "葵": 5107, "苗": 5108, "训练": 5109, "羞": 5110, "完美": 5111, "保存": 5112, "差别": 5113, "挥": 5114, "严肃": 5115, "老鼠": 5116, "▁这是一": 5117, "佯": 5118, "尔斯": 5119, "用了": 5120, "标记": 5121, "相当于": 5122, "笺": 5123, "胡": 5124, "倚": 5125, "蠕": 5126, "蛇": 5127, "地上": 5128, "渡": 5129, "不足": 5130, "神经元": 5131, "特征": 5132, "灵感": 5133, "谙": 5134, "▁在我们": 5135, "▁TED": 5136, "大会": 5137, "哨": 5138, "拈": 5139, "绎": 5140, "莲": 5141, "呀": 5142, "爸爸": 5143, "有时": 5144, "▁有时": 5145, "岳": 5146, "驯": 5147, "招": 5148, "姨": 5149, "一条": 5150, "你要": 5151, "锦": 5152, "不对": 5153, "捍": 5154, "男人": 5155, "我现在": 5156, "觑": 5157, "忘": 5158, "哪儿": 5159, "呵": 5160, "歉": 5161, "滑": 5162, "稽": 5163, "橱": 5164, "窜": 5165, "捉": 5166, "culture": 5167, "乍": 5168, "坐": 5169, "温度": 5170, "帽": 5171, "围": 5172, "巾": 5173, "没有什么": 5174, "名叫": 5175, "奸": 5176, "摸": 5177, "共享": 5178, "第三": 5179, "▁7": 5180, "帆": 5181, "甩": 5182, "电池": 5183, "画面": 5184, "宗": 5185, "旨": 5186, "▁她的": 5187, "趟": 5188, "课程": 5189, "星": 5190, "址": 5191, "栋": 5192, "荧": 5193, "浑": 5194, "嘛": 5195, "抬": 5196, "衣": 5197, "准": 5198, "拼": 5199, "踢": 5200, "蹦": 5201, "桶": 5202, "观看": 5203, "间的": 5204, "陌": 5205, "仓": 5206, "违": 5207, "▁于是我们": 5208, "摄影": 5209, "有两个": 5210, "抑": 5211, "▁人": 5212, "评论": 5213, "亏": 5214, "▁每年": 5215, "秋": 5216, "成千上万": 5217, "橄": 5218, "榄": 5219, "歌": 5220, "创作": 5221, "从来": 5222, "驳": 5223, "sci": 5224, "【": 5225, "娱乐": 5226, "】": 5227, "精彩": 5228, "赋": 5229, "祖先": 5230, "羚": 5231, "逆": 5232, "器官": 5233, "咒": 5234, "譬": 5235, "变暖": 5236, "昨": 5237, "政策": 5238, "学生": 5239, "倡": 5240, "忌": 5241, "讳": 5242, "国的": 5243, "知道的": 5244, "不知": 5245, "掷": 5246, "骰": 5247, "虽然": 5248, "孩子的": 5249, "诧": 5250, "这个人": 5251, "威胁": 5252, "划": 5253, "▁谁": 5254, "火箭": 5255, "智慧": 5256, "柳": 5257, "萝": 5258, "卜": 5259, "萌": 5260, "宠": 5261, "写的": 5262, "抹": 5263, "脆弱": 5264, "衡": 5265, "拿着": 5266, "惑": 5267, "况": 5268, "鼠": 5269, "惧": 5270, "劫": 5271, "宿": 5272, "伊斯兰": 5273, "基督": 5274, "徒": 5275, "伏": 5276, "+": 5277, "羡": 5278, "悄": 5279, "予": 5280, "珠": 5281, "玑": 5282, "翻译": 5283, "腑": 5284, "铭": 5285, "盼": 5286, "劲": 5287, "说服": 5288, "真相": 5289, "诠": 5290, "释": 5291, "难以": 5292, "▁因为在": 5293, "浇": 5294, "一无": 5295, "奉": 5296, "相反": 5297, "绳": 5298, "后果": 5299, "吵": 5300, "诣": 5301, "析": 5302, "耶": 5303, "稣": 5304, "‘": 5305, "吩": 5306, "咐": 5307, "遵": 5308, "地图": 5309, "撒": 5310, "旦": 5311, "开车": 5312, "缅": 5313, "0": 5314, "流行": 5315, "卓": 5316, "虔": 5317, "雀": 5318, "de": 5319, "需要的": 5320, "拿到": 5321, "▁进行": 5322, "的信息": 5323, "等待": 5324, "的变化": 5325, "疫": 5326, "分布": 5327, "社会的": 5328, "升": 5329, "闹": 5330, "袭": 5331, "”(": 5332, "睦": 5333, "频率": 5334, "径": 5335, "纳米": 5336, "专注": 5337, "倾听": 5338, "功": 5339, "俱": 5340, "删": 5341, "改善": 5342, "噪音": 5343, "欧": 5344, "盟": 5345, "统计": 5346, "万人": 5347, "摆脱": 5348, "捂": 5349, "哼": 5350, "疲": 5351, "躁": 5352, "聋": 5353, "紊": 5354, "上了": 5355, "严": 5356, "峻": 5357, "陪": 5358, "饰": 5359, "比例": 5360, "癌症": 5361, "演奏": 5362, "宰": 5363, "攻击": 5364, "吁": 5365, "寂": 5366, "詹": 5367, "激动": 5368, "黑洞": 5369, "鼓": 5370, "的事实": 5371, "繁": 5372, "伽": 5373, "陋": 5374, "瞄": 5375, "炫": 5376, "宏": 5377, "伟": 5378, "槌": 5379, "扭": 5380, "恒星": 5381, "搅": 5382, "轨道": 5383, "犹太": 5384, "壕": 5385, "炮": 5386, "塌": 5387, "瀑": 5388, "猛": 5389, "烈": 5390, "坍": 5391, "发光": 5392, "膨": 5393, "胀": 5394, "狄": 5395, "尘": 5396, "坠": 5397, "阴": 5398, "星系": 5399, "隧": 5400, "这样一个": 5401, "旋转": 5402, "较": 5403, "咚": 5404, "叮": 5405, "晃": 5406, "我们对": 5407, "勃": 5408, "像是": 5409, "嘲": 5410, "准确": 5411, "动画": 5412, "梭": 5413, "仪器": 5414, "首歌": 5415, "抨": 5416, "铃": 5417, "遥": 5418, "飘": 5419, "渺": 5420, "插": 5421, "嗡": 5422, "弱": 5423, "囚": 5424, "犯": 5425, "转移": 5426, "绑": 5427, "旗": 5428, "奈": 5429, "测量": 5430, "枫": 5431, "喊": 5432, "矫": 5433, "溪": 5434, "滨": 5435, "蛙": 5436, "湿": 5437, "戒": 5438, "冲突": 5439, "委": 5440, "心理": 5441, "挂": 5442, "哀": 5443, "溺": 5444, "皆": 5445, "呱": 5446, "屈": 5447, "叛": 5448, "强大": 5449, "[": 5450, "]": 5451, "同情心": 5452, "权力": 5453, "同情": 5454, "决": 5455, "赴": 5456, "握": 5457, "拳": 5458, "吻": 5459, "恻": 5460, "民族": 5461, "欲": 5462, "裁": 5463, "泉": 5464, "然而": 5465, "游泳": 5466, "垫": 5467, "子上": 5468, "尝": 5469, "努": 5470, "祈": 5471, "祷": 5472, "是谁": 5473, "伊朗": 5474, "胞": 5475, "女性": 5476, "骚": 5477, "逮": 5478, "讽": 5479, "意味": 5480, "激励": 5481, "唤": 5482, "虑": 5483, "▁尤其": 5484, "殉": 5485, "犯罪": 5486, "的一些": 5487, "撤": 5488, "ip": 5489, "变革": 5490, "拥有的": 5491, "创建": 5492, "巷": 5493, "呐": 5494, "男性": 5495, "矩": 5496, "uc": 5497, "候": 5498, "叙": 5499, "伪": 5500, "袍": 5501, "牙": 5502, "艳": 5503, "玫": 5504, "瑰": 5505, "的方": 5506, "梦": 5507, "泼": 5508, "盲": 5509, "好奇": 5510, "帅": 5511, "伙": 5512, "诶": 5513, "浴": 5514, "▁大脑": 5515, "分裂": 5516, "琴": 5517, "丈夫": 5518, "驶": 5519, "涉": 5520, "枕": 5521, "肿瘤": 5522, "柯": 5523, "▁”": 5524, "抚": 5525, "辱": 5526, "颞": 5527, "癫": 5528, "痫": 5529, "栗": 5530, "磁": 5531, "图案": 5532, "齿": 5533, "译": 5534, "簇": 5535, "痉": 5536, "挛": 5537, "瞬": 5538, "唔": 5539, "括": 5540, "教学": 5541, "练习": 5542, "化石": 5543, "美洲": 5544, "Σ": 5545, "羟": 5546, "衷": 5547, "矢": 5548, "的学生": 5549, "屏": 5550, "踵": 5551, "尴": 5552, "尬": 5553, "原始": 5554, "于是": 5555, "堂": 5556, "我开始": 5557, "龄": 5558, "教师": 5559, "提升": 5560, "改进": 5561, "骤": 5562, "谬": 5563, "忆": 5564, "跌": 5565, "惩": 5566, "函": 5567, "em": 5568, "用它": 5569, "练": 5570, "▁高": 5571, "区别": 5572, "对待": 5573, "答": 5574, "措施": 5575, "徽": 5576, "如果我": 5577, "成员": 5578, "▁这些都是": 5579, "侄": 5580, "瞥": 5581, "ith": 5582, "惊奇": 5583, "霎": 5584, "焰": 5585, "瘾": 5586, "莽": 5587, "腰": 5588, "盗": 5589, "蛾": 5590, "颏": 5591, "须": 5592, "腹": 5593, "看不到": 5594, "贼": 5595, "墨": 5596, "雾": 5597, "做这个": 5598, "翅": 5599, "膀": 5600, "潘": 5601, "耀": 5602, "戳": 5603, "茎": 5604, "蟑": 5605, "螂": 5606, "些什么": 5607, "鳃": 5608, "鲨": 5609, "鱿": 5610, "嗨": 5611, "愿望": 5612, "睹": 5613, "诫": 5614, "奇迹": 5615, "创造力": 5616, "丰富": 5617, "督": 5618, "进步": 5619, "暇": 5620, "▁发现": 5621, "迅": 5622, "外交": 5623, "疆": 5624, "砍": 5625, "敛": 5626, "直觉": 5627, "成千": 5628, "▁在一个": 5629, "博物": 5630, "恍": 5631, "惚": 5632, "悉": 5633, "我们自己": 5634, "▁可是": 5635, "贫": 5636, "瘠": 5637, "择": 5638, "髦": 5639, "蛋白": 5640, "旋": 5641, "复制": 5642, "NA": 5643, "扯": 5644, "紫": 5645, "蛋白质": 5646, "捆": 5647, "染": 5648, "採": 5649, "形状": 5650, "枢": 5651, "沿": 5652, "茵": 5653, "ik": 5654, "凶": 5655, "萎": 5656, "组织的": 5657, "欠": 5658, "账": 5659, "宪": 5660, "揣": 5661, "交易": 5662, "酬": 5663, "悍": 5664, "牒": 5665, "掠": 5666, "辩论": 5667, "崛": 5668, "继": 5669, "U": 5670, "田": 5671, "弈": 5672, "发展中": 5673, "啸": 5674, "援": 5675, "褶": 5676, "皱": 5677, "@": 5678, "肯尼亚": 5679, "投票": 5680, "死于": 5681, "笛": 5682, "ag": 5683, "的新": 5684, "建筑师": 5685, "和平": 5686, "转换": 5687, "俯": 5688, "瞰": 5689, "地理": 5690, "咱": 5691, "歇": 5692, "棉": 5693, "炸": 5694, "农民": 5695, "尸": 5696, "戮": 5697, "稻": 5698, "粥": 5699, "绞": 5700, "闳": 5701, "蛊": 5702, "笃": 5703, "湄": 5704, "陈": 5705, "琪": 5706, "郁": 5707, "咨": 5708, "富汗": 5709, "扼": 5710, "寿命": 5711, "觊": 5712, "觎": 5713, "贿": 5714, "赂": 5715, "愧": 5716, "秩": 5717, "灿": 5718, "喀": 5719, "束": 5720, "嫁": 5721, "宣传": 5722, "挑": 5723, "诊": 5724, "惯": 5725, "什": 5726, "魅": 5727, "吕": 5728, "这次": 5729, "茅": 5730, "玻": 5731, "▁观众": 5732, "贺": 5733, "忱": 5734, "杜": 5735, "指挥": 5736, "巴基": 5737, "层的": 5738, "改造": 5739, "怜": 5740, "▁这就是为什么": 5741, "毅": 5742, "赐": 5743, "沦": 5744, "簧": 5745, "淫": 5746, "挚": 5747, "垄": 5748, "文字": 5749, "荫": 5750, "罩": 5751, "难道": 5752, "呯": 5753, "轴": 5754, "Z": 5755, "怎么样": 5756, "砧": 5757, "茸": 5758, "毯": 5759, "乒": 5760, "乓": 5761, "哎": 5762, "舰": 5763, "拨": 5764, "?\"": 5765, "蚕": 5766, "帧": 5767, "企鹅": 5768, ",\"": 5769, ".\"": 5770, "单词": 5771, "滤": 5772, "▁我是": 5773, "巴基斯坦": 5774, "逛": 5775, "轶": 5776, "这个故事": 5777, "噗": 5778, "冗": 5779, "笨": 5780, "厨": 5781, "▁每次": 5782, "瘟": 5783, "辩": 5784, "缚": 5785, "际": 5786, "咪": 5787, "绊": 5788, "泰": 5789, "褥": 5790, "疮": 5791, "颤": 5792, "崔": 5793, "郡": 5794, "羹": 5795, "晒": 5796, "柿": 5797, "咽": 5798, "饥": 5799, "兽": 5800, "炉": 5801, "镑": 5802, "菠": 5803, "蕉": 5804, "肾": 5805, "睾": 5806, "丸": 5807, "侮": 5808, "多样": 5809, "滓": 5810, "汽": 5811, "鸡": 5812, "捡": 5813, "陵": 5814, "胚": 5815, "琥": 5816, "隆": 5817, "鸵": 5818, "欢": 5819, "蚊": 5820, "韦": 5821, "髓": 5822, "柔": 5823, "狼": 5824, "奇妙": 5825, "肢": 5826, "鸽": 5827, "趾": 5828, "广告": 5829, "孵": 5830, "▁I": 5831, "姓": 5832, "算法": 5833, "蓄": 5834, "亚洲": 5835, "盐": 5836, "宕": 5837, "报纸": 5838, "金融": 5839, "谨": 5840, "慎": 5841, "燃": 5842, "纤": 5843, "虐": 5844, "票": 5845, "奎": 5846, "拉克": 5847, "彗": 5848, "®": 5849, "仑": 5850, "拗": 5851, "蜘": 5852, "蛛": 5853, "猴子": 5854, "黑猩猩": 5855, "霉": 5856, "凹": 5857, "溜": 5858, "捏": 5859, "蹊": 5860, "仙": 5861, "芜": 5862, "庇": 5863, "罢": 5864, "枯": 5865, "法国": 5866, "涅": 5867, "扁": 5868, "英雄": 5869, "饶": 5870, "♫": 5871, "翰": 5872, "彼": 5873, "裘": 5874, "▁,": 5875, "噩": 5876, "汀": 5877, "吊": 5878, "郎": 5879, "厉": 5880, "浦": 5881, "纷": 5882, "纭": 5883, "谍": 5884, "氛": 5885, "峙": 5886, "漫画": 5887, "泻": 5888, "丘": 5889, "窟": 5890, "鲼": 5891, "鲈": 5892, "龟": 5893, "侠": 5894, "狮": 5895, "荡": 5896, "侣": 5897, "侯": 5898, "脐": 5899, "椅": 5900, "烯": 5901, "霄": 5902, "锤": 5903, "膏": 5904, "桃": 5905, "僻": 5906, "砂": 5907, "叩": 5908, "纽": 5909, "灼": 5910, "晕": 5911, "坟": 5912, "酋": 5913, "刮": 5914, "誓": 5915, "铜": 5916, "泊": 5917, "鸦": 5918, "部落": 5919, "寰": 5920, "’": 5921, "耐": 5922, "亭": 5923, "窃": 5924, "─": 5925, "技": 5926, "纲": 5927, "拇": 5928, "恋": 5929, "扑": 5930, "幻灯": 5931, "绪": 5932, "oog": 5933, "傅": 5934, "▁我已经": 5935, "耍": 5936, "岔": 5937, "那么多": 5938, "赫": 5939, "厘": 5940, "泪": 5941, "擦": 5942, "砸": 5943, "梢": 5944, "扪": 5945, "铸": 5946, "屎": 5947, "芒": 5948, "隘": 5949, "恐": 5950, "筝": 5951, "灶": 5952, "番": 5953, "袱": 5954, "栓": 5955, "獠": 5956, "屠": 5957, "逗": 5958, "猴": 5959, "袜": 5960, "驾": 5961, "瞻": 5962, "婴": 5963, "搏": 5964, "猩猩": 5965, "很多的": 5966, "煽": 5967, "僧": 5968, "柜": 5969, "鹊": 5970, "心脏病": 5971, "oogle": 5972, "猝": 5973, "妮": 5974, "歪": 5975, "烹": 5976, "饪": 5977, "平面": 5978, "槟": 5979, "拌": 5980, "氮": 5981, "淇": 5982, "淋": 5983, "肩": 5984, "羽": 5985, "霸": 5986, "缸": 5987, "舌": 5988, "涩": 5989, "柠": 5990, "檬": 5991, "蕴": 5992, "捞": 5993, "咸": 5994, "苔": 5995, "蘸": 5996, "脆": 5997, "摘": 5998, "恨": 5999, "咬": 6000, "楂": 6001, "勘": 6002, "艾滋病": 6003, "猿": 6004, "阱": 6005, "窸": 6006, "窣": 6007, "衬": 6008, "▁笑声": 6009, "奴": 6010, "置信": 6011, "匿": 6012, "吮": 6013, "隙": 6014, "个性": 6015, "苛": 6016, "魯": 6017, "嗒": 6018, "咔": 6019, "犹": 6020, "豫": 6021, "們": 6022, "札": 6023, "隽": 6024, "凑": 6025, "現": 6026, "呎": 6027, "愕": 6028, "沾": 6029, "衍": 6030, "韩": 6031, "煎": 6032, "#": 6033, "募": 6034, "嗓": 6035, "聆": 6036, "尼日利亚": 6037, "嬉": 6038, "姜": 6039, "啤": 6040, "梳": 6041, "辫": 6042, "蜷": 6043, "撰": 6044, "仆": 6045, "芋": 6046, "悯": 6047, "篮": 6048, "椰": 6049, "茫": 6050, "平等": 6051, "貌": 6052, "一群": 6053, "艾滋": 6054, "赎": 6055, "佩": 6056, "昭": 6057, "差异": 6058, "诈": 6059, "耻": 6060, "弓": 6061, "箭": 6062, "惋": 6063, "兄": 6064, "猖": 6065, "獗": 6066, "滔": 6067, "钦": 6068, "鲍": 6069, "律师": 6070, "♪": 6071, "戚": 6072, "拾": 6073, "决策": 6074, "椭": 6075, "忖": 6076, "府": 6077, "哄": 6078, "循": 6079, "捧": 6080, "肘": 6081, "秉": 6082, "刃": 6083, "所谓": 6084, "敦": 6085, "葬": 6086, "煌": 6087, "睬": 6088, "君": 6089, "谎": 6090, "恕": 6091, "姻": 6092, "仗": 6093, "拙": 6094, "佐": 6095, "懈": 6096, "Q": 6097, "於": 6098, "堊": 6099, "紀": 6100, "間": 6101, "銥": 6102, "層": 6103, "钾": 6104, "氩": 6105, "陨": 6106, "颁": 6107, "澄": 6108, "犊": 6109, "诋": 6110, "穆斯林": 6111, "ell": 6112, "憎": 6113, "润": 6114, "胥": 6115, "茶": 6116, "壶": 6117, "淆": 6118, "癖": 6119, "邃": 6120, "鄙": 6121, "忘记": 6122, "轿": 6123, "展览": 6124, "扣": 6125, "屿": 6126, "藩": 6127, "叔": 6128, "奴隶": 6129, "贪": 6130, "疟疾": 6131, "豁": 6132, "劾": 6133, "赃": 6134, "倦": 6135, "⁄": 6136, "掺": 6137, "钩": 6138, "竿": 6139, "企": 6140, "殃": 6141, "媲": 6142, "达尔": 6143, "芯": 6144, "撬": 6145, "杠": 6146, "虎": 6147, "可持续": 6148, "疫苗": 6149, "疤": 6150, "肮": 6151, "狡": 6152, "署": 6153, "诡": 6154, "浆": 6155, "怎": 6156, "禽": 6157, "绌": 6158, "陀": 6159, "猾": 6160, "缠": 6161, "谭": 6162, "嬴": 6163, "▁CA": 6164, "援助": 6165, "咖": 6166, "朽": 6167, "屡": 6168, "鳄": 6169, "江": 6170, "牟": 6171, "菅": 6172, "啥": 6173, "榨": 6174, "廷": 6175, "tain": 6176, "呜": 6177, "桩": 6178, "租": 6179, "嫩": 6180, "竖": 6181, "汐": 6182, "踮": 6183, "筋": 6184, "再生": 6185, "楔": 6186, "革": 6187, "董": 6188, "cul": 6189, "沸": 6190, "肇": 6191, "钓": 6192, "揉": 6193, "皂": 6194, "来越": 6195, "蛤": 6196, "蜊": 6197, "飓": 6198, "稠": 6199, "阿拉": 6200, "勿": 6201, "萃": 6202, "溅": 6203, "des": 6204, "鹬": 6205, "栅": 6206, "拽": 6207, "阎": 6208, "奄": 6209, "赁": 6210, "贾": 6211, "炬": 6212, "辟": 6213, "棕": 6214, "囊": 6215, "孚": 6216, "冥": 6217, "浩": 6218, "瀚": 6219, "漕": 6220, "钢琴": 6221, "颅": 6222, "睐": 6223, "嗤": 6224, "筒": 6225, "杖": 6226, "泳": 6227, "咧": 6228, "蒸": 6229, "致力": 6230, "箔": 6231, "瘪": 6232, "腕": 6233, "竹": 6234, "褐": 6235, "诙": 6236, "嗅": 6237, "敏感": 6238, "械": 6239, "鸭": 6240, "腻": 6241, "嫌": 6242, "顷": 6243, "恭": 6244, "狐": 6245, "嘘": 6246, "眶": 6247, "履": 6248, "茴": 6249, "椒": 6250, "浓": 6251, "渍": 6252, "鲶": 6253, "贩": 6254, "蓬": 6255, "嚎": 6256, "啕": 6257, "「": 6258, "」": 6259, "媚": 6260, "咻": 6261, "抄": 6262, "夹": 6263, "蛮": 6264, "爱情": 6265, "tic": 6266, "殴": 6267, "墅": 6268, "噎": 6269, "铐": 6270, "朴": 6271, "忿": 6272, "喇": 6273, "诃": 6274, "婆": 6275, "沐": 6276, "拭": 6277, "耽": 6278, "汪": 6279, "凋": 6280, "茱": 6281, "菩": 6282, "睛": 6283, "跪": 6284, "脓": 6285, "蛆": 6286, "邪": 6287, "裔": 6288, "逻": 6289, "缉": 6290, "掏": 6291, "锅": 6292, "嘟": 6293, "挡": 6294, "蔷": 6295, "薇": 6296, "蝴": 6297, "蝶": 6298, "彪": 6299, "昔": 6300, "夙": 6301, "迳": 6302, "拒": 6303, "岂": 6304, "袭击": 6305, "钞": 6306, "贮": 6307, "墩": 6308, "讣": 6309, "逸": 6310, "肆": 6311, "桨": 6312, "锯": 6313, "鞘": 6314, "臀": 6315, "澎": 6316, "湃": 6317, "瘦": 6318, "霜": 6319, "顺便": 6320, "漩": 6321, "涡": 6322, "趸": 6323, "鲯": 6324, "鳅": 6325, "惰": 6326, "肌": 6327, "攒": 6328, "锥": 6329, "痍": 6330, "旱": 6331, "诅": 6332, "荻": 6333, "桂": 6334, "搡": 6335, "瘸": 6336, "攀": 6337, "巅": 6338, "矗": 6339, "规划": 6340, "膺": 6341, "俩": 6342, "飙": 6343, "铎": 6344, "竣": 6345, "幢": 6346, "喧": 6347, "厦": 6348, "俏": 6349, "诵": 6350, "恃": 6351, "終": 6352, "會": 6353, "毀": 6354, "跤": 6355, "牺": 6356, "镖": 6357, "谅": 6358, "娘": 6359, "劈": 6360, "蔼": 6361, "淤": 6362, "淌": 6363, "寡": 6364, "橡": 6365, "勾": 6366, "簸": 6367, "遂": 6368, "嗜": 6369, "侥": 6370, "衅": 6371, "阳": 6372, "亨": 6373, "骷": 6374, "髅": 6375, "肖": 6376, "廓": 6377, "瞎": 6378, "祥": 6379, "痣": 6380, "骸": 6381, "烬": 6382, "纫": 6383, "穆斯": 6384, "纺": 6385, "锈": 6386, "遨": 6387, "娄": 6388, "烘": 6389, "喱": 6390, "罂": 6391, "粟": 6392, "卧": 6393, "---": 6394, "苟": 6395, "杨": 6396, "眩": 6397, "孪": 6398, "攸": 6399, "懒": 6400, "锻": 6401, "颂": 6402, "辰": 6403, "霆": 6404, "漉": 6405, "镶": 6406, "蛞": 6407, "蝓": 6408, "禄": 6409, "硕": 6410, "昏": 6411, "豌": 6412, "疽": 6413, "妄": 6414, "绷": 6415, "―": 6416, "咯": 6417, "炙": 6418, "忡": 6419, "爵": 6420, "倘": 6421, "烷": 6422, "遮": 6423, "匀": 6424, "锢": 6425, "冀": 6426, "楷": 6427, "驭": 6428, "殊": 6429, "矮": 6430, "⋯": 6431, "翼": 6432, "樱": 6433, "屁": 6434, "妆": 6435, "骂": 6436, "李": 6437, "亥": 6438, "帷": 6439, "叭": 6440, "梵": 6441, "萤": 6442, "熵": 6443, "椋": 6444, "津": 6445, "隼": 6446, "睑": 6447, "窦": 6448, "晤": 6449, "渊": 6450, "虹": 6451, "帜": 6452, "梁": 6453, "晦": 6454, "¥": 6455, "苞": 6456, "斧": 6457, "ht": 6458, "腋": 6459, "剃": 6460, "笞": 6461, "飞行器": 6462, "冯": 6463, "遣": 6464, "役": 6465, "翁": 6466, "痂": 6467, "肿": 6468, "乳腺": 6469, "腺": 6470, "鳞": 6471, "藜": 6472, "芦": 6473, "茉": 6474, "甾": 6475, "蒜": 6476, "盾": 6477, "tainment": 6478, "蹩": 6479, "棋": 6480, "碱": 6481, "眯": 6482, "歼": 6483, "漠": 6484, "疚": 6485, "枷": 6486, "腥": 6487, "咙": 6488, "阉": 6489, "惴": 6490, "槐": 6491, "蕨": 6492, "殿": 6493, "祭": 6494, "祀": 6495, "葫": 6496, "迭": 6497, "篱": 6498, "笆": 6499, "秆": 6500, "沌": 6501, "澡": 6502, "匆": 6503, "✔": 6504, "缆": 6505, "凝": 6506, "▁♫": 6507, "彷": 6508, "徨": 6509, "盔": 6510, "睿": 6511, "蛰": 6512, "婭": 6513, "雯": 6514, "粹": 6515, "哟": 6516, "焕": 6517, "宋": 6518, "咂": 6519, "窄": 6520, "诀": 6521, "窥": 6522, "..": 6523, "棱": 6524, "蝎": 6525, "蜈": 6526, "蚣": 6527, "匍": 6528, "匐": 6529, "娴": 6530, "橘": 6531, "蹴": 6532, "铲": 6533, "剌": 6534, "techn": 6535, "凱": 6536, "珉": 6537, "凳": 6538, "嘱": 6539, "唬": 6540, "龈": 6541, "狠": 6542, "啃": 6543, "诟": 6544, "楚": 6545, "拣": 6546, "槽": 6547, "洒": 6548, "玄": 6549, "咫": 6550, "恳": 6551, "禾": 6552, "践": 6553, "缕": 6554, "糗": 6555, "啄": 6556, "羔": 6557, "咀": 6558, "嚼": 6559, "蚯": 6560, "蚓": 6561, "庐": 6562, "俘": 6563, "勋": 6564, "晋": 6565, "藉": 6566, "歹": 6567, "裙": 6568, "洽": 6569, "茁": 6570, "碧": 6571, "珊": 6572, "娶": 6573, "侩": 6574, "挫": 6575, "舵": 6576, "曳": 6577, "涟": 6578, "漪": 6579, "桅": 6580, "胳": 6581, "膊": 6582, "辖": 6583, "彭": 6584, "秃": 6585, "篡": 6586, "斟": 6587, "酌": 6588, "瓷": 6589, "钼": 6590, "柱": 6591, "禧": 6592, "靴": 6593, "踱": 6594, "拧": 6595, "胺": 6596, "二氧化": 6597, "硫": 6598, "~": 6599, "碌": 6600, "兮": 6601, "磐": 6602, "吟": 6603, "丈": 6604, "拱": 6605, "畸": 6606, "缜": 6607, "桁": 6608, "彰": 6609, "铣": 6610, "呕": 6611, "浊": 6612, "坝": 6613, "涕": 6614, "喹": 6615, "揪": 6616, "辗": 6617, "肱": 6618, "称之": 6619, "燕": 6620, "鼾": 6621, "喙": 6622, "寞": 6623, "蜥": 6624, "鬃": 6625, "蹼": 6626, "坷": 6627, "绢": 6628, "酮": 6629, "胰": 6630, "葆": 6631, "婿": 6632, "干细胞": 6633, "泌": 6634, "砌": 6635, "昆": 6636, "<": 6637, ">": 6638, "搐": 6639, "唠": 6640, "叨": 6641, "舱": 6642, "躯": 6643, "翔": 6644, "菡": 6645, "驴": 6646, "仇": 6647, "旷": 6648, "喽": 6649, "攥": 6650, "邓": 6651, "睫": 6652, "瑙": 6653, "砾": 6654, "槛": 6655, "渲": 6656, "菱": 6657, "吐": 6658, "熄": 6659, "狸": 6660, "犀": 6661, "镯": 6662, "逾": 6663, "晾": 6664, "沒": 6665, "缀": 6666, "戶": 6667, "說": 6668, "靡": 6669, "坂": 6670, "茂": 6671, "ø": 6672, "迥": 6673, "帛": 6674, "肃": 6675, "愣": 6676, "賈": 6677, "壞": 6678, "佼": 6679, "辣": 6680, "掀": 6681, "阁": 6682, "瑕": 6683, "疵": 6684, "摁": 6685, "抒": 6686, "惬": 6687, "缴": 6688, "屹": 6689, "甥": 6690, "枣": 6691, "梨": 6692, "瓣": 6693, "嚷": 6694, "縮": 6695, "側": 6696, "愁": 6697, "渴": 6698, "迦": 6699, "赘": 6700, "黛": 6701, "骇": 6702, "抉": 6703, "缄": 6704, "悼": 6705, "鞍": 6706, "惺": 6707, "荆": 6708, "忏": 6709, "×": 6710, "*": 6711, "诲": 6712, "夥": 6713, "國": 6714, "旬": 6715, "瞪": 6716, "牠": 6717, "鹃": 6718, "捣": 6719, "垠": 6720, "犁": 6721, "骡": 6722, "蒲": 6723, "磺": 6724, "馏": 6725, "撇": 6726, "祉": 6727, "玲": 6728, "ム": 6729, "嗷": 6730, "裳": 6731, "娓": 6732, "蚌": 6733, "惫": 6734, "鹞": 6735, "毂": 6736, "耦": 6737, "酚": 6738, "殡": 6739, "褪": 6740, "遏": 6741, "醺": 6742, "霓": 6743, "晰": 6744, "澈": 6745, "匈": 6746, "崎": 6747, "岖": 6748, "丫": 6749, "嘌": 6750, "呤": 6751, "胍": 6752, "弋": 6753, "贤": 6754, "淑": 6755, "偎": 6756, "怯": 6757, "拎": 6758, "噙": 6759, "姬": 6760, "泞": 6761, "舅": 6762, "聪": 6763, "妓": 6764, "奠": 6765, "釐": 6766, "筷": 6767, "窖": 6768, "熔": 6769, "鸠": 6770, "仲": 6771, "纂": 6772, "缪": 6773, "鞠": 6774, "躬": 6775, "亵": 6776, "渎": 6777, "寥": 6778, "绮": 6779, "虽": 6780, "氨": 6781, "丙": 6782, "岀": 6783, "來": 6784, "給": 6785, "黃": 6786, "扮": 6787, "缤": 6788, "闷": 6789, "幂": 6790, "励": 6791, "焙": 6792, "酵": 6793, "馋": 6794, "糠": 6795, "嗝": 6796, "弛": 6797, "婉": 6798, "搁": 6799, "淘": 6800, "矛": 6801, "蛹": 6802, "挠": 6803, "痒": 6804, "斋": 6805, "轩": 6806, "吱": 6807, "嘎": 6808, "$": 6809, "鼎": 6810, "enter": 6811, "屉": 6812, "绸": 6813, "纰": 6814, "囤": 6815, "盎": 6816, "麝": 6817, "貓": 6818, "寇": 6819, "肋": 6820, "靛": 6821, "铂": 6822, "铛": 6823, "匾": 6824, "唛": 6825, "袤": 6826, "氦": 6827, "蔑": 6828, "锣": 6829, "皿": 6830, "樊": 6831, "舷": 6832, "眺": 6833, "硒": 6834, "颐": 6835, "锰": 6836, "铀": 6837, "铬": 6838, "闯": 6839, "級": 6840, "飛": 6841, "類": 6842, "這": 6843, "樣": 6844, "還": 6845, "惕": 6846, "馅": 6847, "缭": 6848, "弑": 6849, "蟒": 6850, "撮": 6851, "袄": 6852, "桔": 6853, "舔": 6854, "唾": 6855, "榔": 6856, "庵": 6857, "镀": 6858, "媾": 6859, "伎": 6860, "帘": 6861, "颊": 6862, "匮": 6863, "砜": 6864, "藐": 6865, "阀": 6866, "卿": 6867, "绍": 6868, "毡": 6869, "谴": 6870, "嶙": 6871, "峋": 6872, "膛": 6873, "巫": 6874, "噘": 6875, "榈": 6876, "‧": 6877, "薛": 6878, "惭": 6879, "夭": 6880, "ï": 6881, "烩": 6882, "渝": 6883, "贞": 6884, "亘": 6885, "岐": 6886, "杞": 6887, "玖": 6888, "亢": 6889, "咏": 6890, "礴": 6891, "嘈": 6892, "畔": 6893, "嘤": 6894, "猩": 6895, "榻": 6896, "揩": 6897, "镰": 6898, "诽": 6899, "谤": 6900, "钸": 6901, "婊": 6902, "釉": 6903, "懦": 6904, "熬": 6905, "擞": 6906, "遛": 6907, "爸": 6908, "跛": 6909, "辜": 6910, "糜": 6911, "爛": 6912, "芥": 6913, "氣": 6914, "妲": 6915, "妠": 6916, "珐": 6917, "昵": 6918, "炊": 6919, "毽": 6920, "哑": 6921, "辽": 6922, "赭": 6923, "湛": 6924, "£": 6925, "揍": 6926, "梗": 6927, "橇": 6928, "颚": 6929, "佷": 6930, "淼": 6931, "馁": 6932, "伶": 6933, "俐": 6934, "喃": 6935, "潦": 6936, "讪": 6937, "朋": 6938, "蜴": 6939, "菊": 6940, "鼩": 6941, "猬": 6942, "倭": 6943, "汶": 6944, "孜": 6945, "斡": 6946, "缔": 6947, "镳": 6948, "椽": 6949, "孰": 6950, "耆": 6951, "忒": 6952, "馔": 6953, "榭": 6954, "毗": 6955, "珑": 6956, "剽": 6957, "朔": 6958, "咋": 6959, "硝": 6960, "罹": 6961, "斩": 6962, "曹": 6963, "醛": 6964, "膳": 6965, "尉": 6966, "绚": 6967, "熠": 6968, "箴": 6969, "～": 6970, "扳": 6971, "藝": 6972, "術": 6973, "館": 6974, "岚": 6975, "妖": 6976, "窪": 6977, "噻": 6978, "朦": 6979, "胧": 6980, "惆": 6981, "怅": 6982, "婪": 6983, "鳗": 6984, "苪": 6985, "徳": 6986, "哩": 6987, "▁is": 6988, "壘": 6989, "€": 6990, "锌": 6991, "碘": 6992, "庶": 6993, "孀": 6994, "醋": 6995, "荼": 6996, "彤": 6997, "烙": 6998, "吴": 6999, "莞": 7000, "氰": 7001, "憧": 7002, "憬": 7003, "榴": 7004, "允": 7005, "吾": 7006, "铰": 7007, "olog": 7008, "胱": 7009, "乞": 7010, "甭": 7011, "伺": 7012, "呗": 7013, "沛": 7014, "讶": 7015, "湮": 7016, "戊": 7017, "噶": 7018, "瞒": 7019, "啮": 7020, "鼬": 7021, "嚏": 7022, "钳": 7023, "撵": 7024, "蹭": 7025, "恙": 7026, "獭": 7027, "藓": 7028, "华盛": 7029, "蝌": 7030, "蚪": 7031, "曝": 7032, "琉": 7033, "怦": 7034, "©": 7035, "罅": 7036, "髻": 7037, "卦": 7038, "炽": 7039, "锆": 7040, "苑": 7041, "沧": 7042, "黯": 7043, "喋": 7044, "邂": 7045, "逅": 7046, "褒": 7047, "岌": 7048, "镁": 7049, "毙": 7050, "兩": 7051, "並": 7052, "決": 7053, "別": 7054, "玆": 7055, "啡": 7056, "赝": 7057, "俊": 7058, "魏": 7059, "溃": 7060, "疡": 7061, "氟": 7062, "哌": 7063, "將": 7064, "吭": 7065, "茲": 7066, "鲷": 7067, "垦": 7068, "罔": 7069, "惮": 7070, "跋": 7071, "贻": 7072, "扉": 7073, "祗": 7074, "莴": 7075, "笋": 7076, "梆": 7077, "怡": 7078, "鹦": 7079, "鹉": 7080, "呦": 7081, "磋": 7082, "鹓": 7083, "鷉": 7084, "傢": 7085, "垢": 7086, "麽": 7087, "嚓": 7088, "竺": 7089, "裡": 7090, "窑": 7091, "燧": 7092, "酯": 7093, "隻": 7094, "牆": 7095, "淨": 7096, "螯": 7097, "蝗": 7098, "瞩": 7099, "秸": 7100, "趁": 7101, "殆": 7102, "觜": 7103, "鸫": 7104, "螈": 7105, "娱": 7106, "徘": 7107, "徊": 7108, "咄": 7109, "皓": 7110, "漱": 7111, "骶": 7112, "崽": 7113, "http": 7114, "tp": 7115, "ü": 7116, "ö": 7117, "ä": 7118, "擎": 7119, "锒": 7120, "捅": 7121, "昌": 7122, "嫖": 7123, "尼日": 7124, "瘘": 7125, "绣": 7126, "翠": 7127, "岑": 7128, "锚": 7129, "蔗": 7130, "嘉": 7131, "犒": 7132, "颧": 7133, "匝": 7134, "琢": 7135, "捶": 7136, "巩": 7137, "妃": 7138, "拴": 7139, "燎": 7140, "涤": 7141, "嘭": 7142, "铊": 7143, "俭": 7144, "寝": 7145, "绽": 7146, "楣": 7147, "楦": 7148, "榷": 7149, "刨": 7150, "谔": 7151, "磷": 7152, "讷": 7153, "見": 7154, "颌": 7155, "遠": 7156, "個": 7157, "凤": 7158, "凰": 7159, "後": 7160, "幾": 7161, "镣": 7162, "洼": 7163, "咆": 7164, "狒": 7165, "叼": 7166, "臣": 7167, "狈": 7168, "鼹": 7169, "黾": 7170, "遴": 7171, "酣": 7172, "lob": 7173, "樟": 7174, "嗪": 7175, "醚": 7176, "疸": 7177, "『": 7178, "』": 7179, "棠": 7180, "炒": 7181, "龚": 7182, "酥": 7183, "潢": 7184, "纶": 7185, "啰": 7186, "勺": 7187, "扛": 7188, "祕": 7189, "曙": 7190, "酩": 7191, "酊": 7192, "赔": 7193, "垛": 7194, "魄": 7195, "熏": 7196, "搓": 7197, "郑": 7198, "蜻": 7199, "蜓": 7200, "粱": 7201, "蔚": 7202, "靓": 7203, "蒿": 7204, "唉": 7205, "煞": 7206, "咦": 7207, "晷": 7208, "踌": 7209, "躇": 7210, "刁": 7211, "臆": 7212, "醍": 7213, "醐": 7214, "鹫": 7215, "獾": 7216, "倪": 7217, "蹂": 7218, "躏": 7219, "臃": 7220, "蛀": 7221, "佰": 7222, "恪": 7223, "岭": 7224, "麓": 7225, "侬": 7226, "進": 7227, "車": 7228, "焊": 7229, "碾": 7230, "鲟": 7231, "钠": 7232, "锂": 7233, "卤": 7234, "嘀": 7235, "咕": 7236, "姊": 7237, "铆": 7238, "爹": 7239, "玷": 7240, "柚": 7241, "娇": 7242, "俨": 7243, "痤": 7244, "疣": 7245, "奚": 7246, "冉": 7247, "榆": 7248, "岬": 7249, "蜿": 7250, "蜒": 7251, "妊": 7252, "娠": 7253, "啼": 7254, "戎": 7255, "罄": 7256, "靶": 7257, "霹": 7258, "雳": 7259, "囿": 7260, "囗": 7261, "礙": 7262, "锹": 7263, "镐": 7264, "怠": 7265, "舶": 7266, "鹱": 7267, "慵": 7268, "簿": 7269, "蝾": 7270, "哒": 7271, "迂": 7272, "柢": 7273, "昴": 7274, "瓢": 7275, "荞": 7276, "诬": 7277, "耿": 7278, "櫃": 7279, "绉": 7280, "甫": 7281, "暧": 7282, "衝": 7283, "狙": 7284, "赦": 7285, "窘": 7286, "к": 7287, "а": 7288, "л": 7289, "孽": 7290, "汰": 7291, "泯": 7292, "掰": 7293, "漓": 7294, "焉": 7295, "戛": 7296, "聖": 7297, "蔡": 7298, "疙": 7299, "瘩": 7300, "鄂": 7301, "熨": 7302, "烫": 7303, "»": 7304, "鸥": 7305, "掇": 7306, "啐": 7307, "瞭": 7308, "氪": 7309, "肽": 7310, "皈": 7311, "扈": 7312, "窿": 7313, "沈": 7314, "鸸": 7315, "鹋": 7316, "痿": 7317, "蝮": 7318, "堰": 7319, "舀": 7320, "缛": 7321, "炖": 7322, "傀": 7323, "儡": 7324, "杵": 7325, "箍": 7326, "秤": 7327, "俺": 7328, "鳟": 7329, "讥": 7330, "吋": 7331, "诘": 7332, "蓭": 7333, "噼": 7334, "啪": 7335, "唧": 7336, "蹚": 7337, "蜕": 7338, "蹲": 7339, "褴": 7340, "褛": 7341, "犄": 7342, "旮": 7343, "旯": 7344, "肓": 7345, "冕": 7346, "ó": 7347, "í": 7348, "á": 7349, "坯": 7350, "蔫": 7351, "穹": 7352, "苇": 7353, "š": 7354, "邗": 7355, "搔": 7356, "陛": 7357, "踊": 7358, "拢": 7359, "瞳": 7360, "俬": 7361, "俾": 7362, "唰": 7363, "钍": 7364, "徐": 7365, "镍": 7366, "腈": 7367, "沓": 7368, "趴": 7369, "镊": 7370, "呻": 7371, "蚜": 7372, "缰": 7373, "狰": 7374, "狞": 7375, "俳": 7376, "ww": 7377, "鳐": 7378, "踝": 7379, "瞌": 7380, "腓": 7381, "拄": 7382, "惟": 7383, "贡": 7384, "捋": 7385, "莺": 7386, "镉": 7387, "麋": 7388, "峭": 7389, "锏": 7390, "荨": 7391, "诌": 7392, "眷": 7393, "嗳": 7394, "擒": 7395, "涎": 7396, "楞": 7397, "啷": 7398, "闺": 7399, "瞠": 7400, "盹": 7401, "撅": 7402, "惶": 7403, "憋": 7404, "筐": 7405, "篓": 7406, "掂": 7407, "寐": 7408, "恬": 7409, "臼": 7410, "妞": 7411, "挞": 7412, "涣": 7413, "佘": 7414, "烊": 7415, "鳕": 7416, "樂": 7417, "缎": 7418, "腼": 7419, "腆": 7420, "骁": 7421, "吆": 7422, "挟": 7423, "赈": 7424, "穗": 7425, "搂": 7426, "厮": 7427, "镭": 7428, "對": 7429, "戲": 7430, "碼": 7431, "愛": 7432, "戰": 7433, "摟": 7434, "試": 7435, "轉": 7436, "點": 7437, "麼": 7438, "業": 7439, "張": 7440, "幹": 7441, "嗎": 7442, "盡": 7443, "計": 7444, "請": 7445, "難": 7446, "話": 7447, "連": 7448, "辦": 7449, "從": 7450, "帶": 7451, "優": 7452, "實": 7453, "強": 7454, "貼": 7455, "須": 7456, "過": 7457, "兒": 7458, "檢": 7459, "應": 7460, "該": 7461, "隨": 7462, "動": 7463, "撫": 7464, "覺": 7465, "翘": 7466, "铉": 7467, "拮": 7468, "認": 7469, "懊": 7470, "喬": 7471, "凖": 7472, "祂": 7473, "勞": 7474, "孛": 7475, "倆": 7476, "団": 7477, "埙": 7478, "讃": 7479, "萡": 7480, "琅": 7481, "襟": 7482, "逞": 7483, "赊": 7484, "佃": 7485, "涝": 7486, "胼": 7487, "胝": 7488, "袁": 7489, "柑": 7490, "翱": 7491, "叟": 7492, "侃": 7493, "璐": 7494, "魨": 7495, "鲾": 7496, "宵": 7497, "璜": 7498, "怂": 7499, "恿": 7500, "唆": 7501, "頓": 7502, "芹": 7503, "匣": 7504, "颓": 7505, "舛": 7506, "刽": 7507, "〉": 7508, "腌": 7509, "舜": 7510, "螟": 7511, "氓": 7512, "浃": 7513, "や": 7514, "に": 7515, "よ": 7516, "こ": 7517, "た": 7518, "ふ": 7519, "の": 7520, "は": 7521, "習": 7522, "へ": 7523, "坩": 7524, "埚": 7525, "湍": 7526, "摺": 7527, "鸩": 7528, "蘭": 7529, "蓋": 7530, "鳀": 7531, "鲭": 7532, "艮": 7533, "痰": 7534, "虏": 7535, "裆": 7536, "侨": 7537, "侪": 7538, "鹤": 7539, "癢": 7540, "剀": 7541, "敷": 7542, "螳": 7543, "闩": 7544, "辊": 7545, "泾": 7546, "渭": 7547, "郭": 7548, "浚": 7549, "漾": 7550, "羌": 7551, "丐": 7552, "膦": 7553, "數": 7554, "視": 7555, "場": 7556, "紅": 7557, "飕": 7558, "蜃": 7559, "甄": 7560, "寮": 7561, "栈": 7562, "蟋": 7563, "蟀": 7564, "啻": 7565, "喏": 7566, "袒": 7567, "蛭": 7568, "犸": 7569, "卉": 7570, "钨": 7571, "慑": 7572, "納": 7573, "鉄": 7574, "奧": 7575, "宙": 7576, "取决": 7577, "羁": 7578, "旭": 7579, "卒": 7580, "臊": 7581, "掳": 7582, "砥": 7583, "曦": 7584, "绻": 7585, "嗖": 7586, "篝": 7587, "擂": 7588, "锭": 7589, "粕": 7590, "約": 7591, "β": 7592, "暮": 7593, "尹": 7594, "犷": 7595, "斓": 7596, "佝": 7597, "偻": 7598, "剁": 7599, "倔": 7600, "冶": 7601, "魇": 7602, "ml": 7603, "鹜": 7604, "秦": 7605, "杭": 7606, "婶": 7607, "绯": 7608, "垣": 7609, "枭": 7610, "彬": 7611, "棺": 7612, "赡": 7613, "凄": 7614, "內": 7615, "鲱": 7616, "sues": 7617, "梧": 7618, "踞": 7619, "麟": 7620, "^": 7621, "嬗": 7622, "枉": 7623, "é": 7624, "è": 7625, "刍": 7626, "澜": 7627, "轧": 7628, "蚱": 7629, "蜢": 7630, "挐": 7631, "璨": 7632, "祛": 7633, "谩": 7634, "潭": 7635, "挲": 7636, "隳": 7637, "鹈": 7638, "鹕": 7639, "蓓": 7640, "灸": 7641, "捱": 7642, "霖": 7643, "蚤": 7644, "纾": 7645, "羯": 7646, "阈": 7647, "虱": 7648, "鲑": 7649, "珂": 7650, "乾": 7651, "籁": 7652, "谧": 7653, "雹": 7654, "笙": 7655, "γ": 7656, "啜": 7657, "疟": 7658, "恣": 7659, "脯": 7660, "吠": 7661, "碉": 7662, "渥": 7663, "楕": 7664, "玺": 7665, "鋶": 7666, "疥": 7667, "電": 7668, "绺": 7669, "锇": 7670, "锝": 7671, "厩": 7672, "資": 7673, "維": 7674, "ê": 7675, "猥": 7676, "糅": 7677, "喵": 7678, "貉": 7679, "柩": 7680, "萸": 7681, "氘": 7682, "氚": 7683, "敖": 7684, "骋": 7685, "峦": 7686, "臻": 7687, "胁": 7688, "協": 7689, "組": 7690, "織": 7691, "噜": 7692, "腮": 7693, "杳": 7694, "黔": 7695, "娥": 7696, "畦": 7697, "槃": 7698, "瞅": 7699, "塚": 7700, "嗬": 7701, "邹": 7702, "葩": 7703, "為": 7704, "殒": 7705, "垩": 7706, "铱": 7707, "圳": 7708, "噱": 7709, "瘀": 7710, "疱": 7711, "鐘": 7712, "蛟": 7713, "姥": 7714, "寢": 7715, "秽": 7716, "谲": 7717, "喑": 7718, "痼": 7719, "鳝": 7720, "嘧": 7721, "啶": 7722, "暄": 7723, "泗": 7724, "檀": 7725, "嗑": 7726, "伊斯": 7727, "氫": 7728, "扒": 7729, "峨": 7730, "曜": 7731, "蕊": 7732, "禀": 7733, "镂": 7734, "蜇": 7735, "霞": 7736, "啧": 7737, "砒": 7738, "屯": 7739, "踹": 7740, "纣": 7741, "阑": 7742, "摞": 7743, "磕": 7744, "昙": 7745, "掐": 7746, "硌": 7747, "媞": 7748, "徜": 7749, "徉": 7750, "髖": 7751, "亞": 7752, "遊": 7753, "獒": 7754, "俚": 7755, "懵": 7756, "撂": 7757, "兀": 7758, "戟": 7759, "魟": 7760, "瓮": 7761, "鳖": 7762, "黒": 7763, "轾": 7764, "睪": 7765, "奕": 7766, "鳏": 7767, "谕": 7768, "迢": 7769, "涓": 7770, "愄": 7771, "摰": 7772, "敎": 7773, "荟": 7774, "孱": 7775, "巍": 7776, "缇": 7777, "硼": 7778, "榉": 7779, "絮": 7780, "桉": 7781, "蹬": 7782, "祟": 7783, "栉": 7784, "琵": 7785, "琶": 7786, "蹿": 7787, "辄": 7788, "蟾": 7789, "蜍": 7790, "哔": 7791, "铒": 7792, "郞": 7793, "钚": 7794, "羧": 7795, "單": 7796, "機": 7797, "發": 7798, "葉": 7799, "傳": 7800, "茛": 7801, "門": 7802, "貝": 7803, "掸": 7804, "厥": 7805, "矶": 7806, "渉": 7807, "鼯": 7808, "谏": 7809, "缮": 7810, "蔻": 7811, "孑": 7812, "愫": 7813, "撩": 7814, "憨": 7815, "掬": 7816, "钴": 7817, "遐": 7818, "芸": 7819, "統": 7820, "褂": 7821, "絡": 7822, "眇": 7823, "拂": 7824, "盥": 7825, "聿": 7826, "裨": 7827, "晖": 7828, "壬": 7829, "圃": 7830, "嘞": 7831, "蹶": 7832, "卯": 7833, "阂": 7834, "哉": 7835, "刋": 7836, "謝": 7837, "汩": 7838, "壑": 7839, "氖": 7840, "魚": 7841, "冪": 7842, "旖": 7843, "旎": 7844, "铋": 7845, "锑": 7846, "酰": 7847, "烃": 7848, "醣": 7849, "胭": 7850, "楠": 7851, "蛔": 7852, "坳": 7853, "釜": 7854, "蜀": 7855, "黍": 7856, "嘣": 7857, "镫": 7858, "孝": 7859, "哞": 7860, "襁": 7861, "褓": 7862, "嗔": 7863, "稔": 7864, "蹒": 7865, "跚": 7866, "诿": 7867, "靖": 7868, "蜚": 7869, "÷": 7870, "拚": 7871, "邸": 7872, "憔": 7873, "悴": 7874, "挹": 7875, "恫": 7876, "冤": 7877, "痘": 7878, "茹": 7879, "妳": 7880, "鲦": 7881, "捎": 7882, "黜": 7883, "钒": 7884, "弘": 7885, "牦": 7886, "烽": 7887, "砝": 7888, "薮": 7889, "忐": 7890, "忑": 7891, "狓": 7892, "淳": 7893, "侗": 7894, "鰺": 7895, "鯨": 7896, "貂": 7897, "浬": 7898, "沁": 7899, "饕": 7900, "帚": 7901, "偕": 7902, "濡": 7903, "螅": 7904, "龌": 7905, "龊": 7906, "粽": 7907, "φ": 7908, "皙": 7909, "ē": 7910, "娣": 7911, "驮": 7912, "荑": 7913, "铍": 7914, "苜": 7915, "蓿": 7916, "跄": 7917, "訇": 7918, "腭": 7919, "仕": 7920, "滿": 7921, "昰": 7922, "鲤": 7923, "哗": 7924, "蹉": 7925, "跎": 7926, "阙": 7927, "逍": 7928, "羅": 7929, "蓉": 7930, "缨": 7931, "俑": 7932, "铠": 7933, "恸": 7934, "挝": 7935, "昇": 7936, "幺": 7937, "細": 7938, "翌": 7939, "璧": 7940, "貘": 7941, "淮": 7942, "囧": 7943, "搪": 7944, "唏": 7945, "铇": 7946, "羸": 7947, "戕": 7948, "嗐": 7949, "鳌": 7950, "雍": 7951, "辘": 7952, "诨": 7953, "汝": 7954, "à": 7955, "稹": 7956, "簟": 7957, "璞": 7958, "瘴": 7959, "泱": 7960, "眸": 7961, "哽": 7962, "熙": 7963, "攘": 7964, "俢": 7965, "鐡": 7966, "哧": 7967, "堑": 7968, "崴": 7969, "珞": 7970, "孺": 7971, "彦": 7972, "蝉": 7973, "钶": 7974, "钽": 7975, "ñ": 7976, "碛": 7977, "酐": 7978, "邱": 7979, "闽": 7980, "錫": 7981, "袂": 7982}